▁,
▁的
▁。
▁、
▁在
▁“
▁”
▁了
▁
▁是
▁和
▁月
▁将
▁日
▁有
▁年
▁中国
▁:
▁为
▁被
▁;
▁对
▁等
▁中
▁也
▁上
▁人
▁不
▁与
▁?
▁《
▁》
▁)
▁(
▁到
▁1
▁后
▁都
▁他
▁3
▁就
▁从
▁但
▁...
▁并
▁已
▁!
▁这
▁个
▁公司
▁称
▁时
▁2
▁表示
▁一个
▁4
▁而
▁5
▁10
▁会
▁要
▁市场
▁你
▁元
▁还
▁以
▁大
▁目前
▁6
▁-
▁进行
▁新
▁企业
▁我
▁美国
▁说
▁多
▁其
▁一
▁7
▁工作
▁8
▁据
▁让
▁近日
▁问题
▁今年
▁于
▁发展
▁—
▁已经
▁我们
▁没有
▁9
▁国家
▁北京
▁自己
▁岁
▁可
▁更
▁该
▁可以
▁12
▁向
▁下
▁记者
▁发布
▁可能
▁成为
▁经济
▁来
▁能
▁11
▁时间
▁通过
▁亿元
▁其中
▁或
▁及
▁最
▁发现
▁着
▁前
▁他们
▁2014
▁20
▁开始
▁投资
▁她
▁给
▁.
▁名
▁昨日
▁城市
▁至
▁由
▁全国
▁内
▁小
▁地
▁出现
▁2013
▁数据
▁又
▁认为
▁显示
▁调查
▁30
▁把
▁增长
▁用
▁因
▁报道
▁产品
▁很
▁却
▁政府
▁做
▁#
▁上海
▁发生
▁手机
▁项目
▁相关
▁服务
▁万元
▁日前
▁好
▁这个
▁家
▁去
▁建设
▁万
▁点
▁消息
▁正在
▁要求
▁高
▁就是
▁们
▁15
▁社会
▁正式
▁互联网
▁情况
▁超过
▁活动
▁银行
▁公布
▁国际
▁信息
▁网友
▁里
▁比
▁如果
▁这些
▁一些
▁价格
▁影响
▁同时
▁学生
▁网络
▁行业
▁用户
▁世界
▁主要
▁媒体
▁·
▁2012
▁改革
▁全球
▁日本
▁分
▁包括
▁约
▁/
▁过
▁现在
▁今日
▁集团
▁使用
▁以及
▁出
▁报告
▁管理
▁计划
▁一名
▁天
▁今天
▁未来
▁孩子
▁研究
▁提供
▁需要
▁所
▁去年
▁政策
▁再
▁看
▁部门
▁曾
▁作为
▁不是
▁网站
▁部分
▁宣布
▁进入
▁关注
▁实现
▁仍
▁起
▁只
▁国内
▁自
▁达到
▁18
▁生活
▁安全
▁没
▁它
▁技术
▁最大
▁达
▁警方
▁人员
▁业务
▁16
▁对于
▁很多
▁之
▁因为
▁亿
▁重要
▁还是
▁移动
▁近
▁了解
▁市民
▁举行
▁14
▁13
▁方面
▁正
▁基金
▁这是
▁决定
▁小时
▁吗
▁有关
▁中心
▁我国
▁方式
▁人民币
▁当地
▁获得
▁接受
▁平台
▁以来
▁根据
▁不能
▁以上
▁专家
▁预计
▁什么
▁吃
子
▁17
▁推出
▁完成
▁如何
▁新闻
▁会议
▁则
▁甚至
▁销售
▁希望
▁24
▁亿美元
2
▁不少
▁造成
▁这样
▁21
▁"
▁品牌
▁继续
▁想
▁副
▁实施
▁事件
▁香港
▁地方
▁资金
▁机构
▁由于
▁之后
▁组织
▁昨天
▁规定
▁才
▁合作
▁张
▁关于
▁占
▁存在
▁25
▁收入
▁100
▁地区
▁严重
▁还有
▁较
▁医院
▁均
▁增加
▁未
人
▁左右
▁标准
▁下午
▁19
▁最高
▁微信
▁透露
▁同比
▁得
▁男子
▁一起
▁来自
▁旅游
▁其他
▁无
▁某
▁不会
▁英国
▁一直
▁共
▁上午
▁50
▁系统
▁号
▁22
▁金融
▁上市
▁首次
▁死亡
▁截至
▁当
▁召开
▁路
▁导致
▁调整
▁三
▁原因
▁提出
▁大家
▁为了
▁房地产
▁成
▁微博
▁消费者
▁市
▁公开
▁人士
▁一家
▁文化
▁交易
▁选择
▁现场
▁第
▁购买
▁一种
▁王
▁钱
▁经
▁期间
▁持续
▁领域
▁2015
▁成功
▁不过
▁教育
县
▁这种
▁第一
▁汽车
▁走
▁23
▁分别
▁历史
▁28
▁进一步
▁深圳
▁参加
▁所有
▁随着
▁仅
▁内容
▁制度
▁支持
▁全面
▁生产
▁一位
▁上涨
▁行为
▁一次
▁一年
▁带来
▁视频
▁但是
▁各
▁基本
▁只有
▁是否
▁李
▁学校
▁苹果
▁广州
▁买
▁不同
▁26
▁创新
▁指出
▁两个
▁a
▁开展
▁下降
▁有限公司
▁最终
▁中央
▁规模
▁个人
▁分析
▁呢
▁打
▁月份
▁近期
▁游戏
▁米
▁股
▁网上
市
▁推进
▁引发
▁消费
▁员工
▁俄罗斯
▁获悉
▁结果
▁环境
▁提高
▁总
▁人们
▁机场
▁直接
▁产业
▁此次
▁网
▁27
▁最近
▁一定
▁启动
▁科技
▁据悉
▁单位
▁外
▁广告
▁针对
▁设计
▁免费
▁原
▁模式
▁非常
▁最后
▁吧
▁参与
▁每
▁支付
▁看到
▁投资者
▁40
山
▁过程
▁2011
▁全部
▁韩国
▁应该
▁如
▁传统
▁风险
▁应
▁女
▁平均
▁~
▁重点
区
▁利用
▁时代
▁负责人
▁美元
▁过去
▁电影
▁陈
▁游客
▁不断
▁金
▁车
▁必须
▁两
▁领导
▁受
性
▁虽然
▁需求
▁价值
▁此前
▁指数
▁需
▁日起
▁这一
▁法院
▁知道
▁国务院
▁关系
▁主席
▁能力
▁请
▁每天
▁联合
▁连续
▁大学
▁代表
▁准备
▁无法
▁成都
▁最新
▁老
▁29
▁家庭
▁能够
▁官员
▁有人
路
▁那
▁目标
▁资本
▁不仅
▁申请
▁涉嫌
▁31
▁应用
▁食品
▁住房
▁之一
▁南京
▁台湾
▁融资
▁像
▁案件
▁介绍
者
▁使
▁建议
▁站
▁省
▁时候
▁居民
▁回应
▁次
▁拥有
▁健康
▁经过
▁那么
▁长
▁战略
▁再次
▁保护
7
▁营销
▁通知
▁事故
▁方案
g
▁公众
▁带
▁武汉
▁工程
▁建立
▁只是
▁照片
▁解决
▁老人
▁范围
▁处理
▁股份
▁且
▁200
▁按
▁全
▁低
▁水
▁设备
▁房价
▁不要
▁位
▁受到
▁大量
▁特别
▁刘
▁干部
▁电商
▁越来越
▁开发
▁功能
▁得到
▁分钟
▁面临
▁加强
▁任何
▁出台
▁对此
▁采访
▁即
▁资产
▁主任
大
▁涉及
▁成立
▁各种
9
▁一样
▁执行
▁60
▁非
▁超
▁监管
▁控制
▁广东
▁发行
▁飞机
▁附近
▁500
▁铁路
▁意见
▁结束
▁之间
▁官方
▁水平
▁引起
▁人民
▁公里
▁收购
▁重庆
▁专业
▁如今
▁之前
▁贷款
▁因此
▁形成
▁太
▁保障
▁爱
▁即将
▁腾讯
▁区
▁明显
▁央行
▁董事长
▁工作人员
▁按照
▁许多
▁措施
▁乘客
▁规划
▁起来
▁酒店
到
▁开
▁推动
▁而且
▁经营
▁产生
▁比赛
▁每年
▁减少
▁提升
▁快
▁取消
▁成本
▁帮助
▁女性
▁美
▁行动
▁压力
▁客户
▁谁
▁位于
▁预期
▁此
▁群众
▁来说
▁机会
▁地铁
▁浙江
▁一场
▁运营
▁0
1
▁突然
▁杭州
▁明确
▁云
▁土地
3
上
▁马
▁车辆
▁者
▁怎么
▁花
▁报
▁然而
▁女子
▁跟
▁黄
▁保持
▁北京市
▁共同
▁拿
▁总统
中
▁周
▁习近平
▁资源
▁下跌
▁凌晨
▁提醒
▁>
▁日晚
▁法律
▁改变
▁区域
家
▁除了
▁集中
▁确定
▁儿子
▁多个
▁学习
▁完全
▁倍
▁重大
▁受伤
▁上市公司
▁而是
会
5
水
▁300
车
▁年度
▁表现
▁交通
▁朋友
▁数量
▁南
▁便
▁80
▁类
▁司机
头
▁连
▁明年
▁综合
▁第二
▁海
▁1000
▁试点
▁至少
▁体验
▁儿童
▁医生
▁杨
4
▁有望
▁其实
出
▁以下
▁或者
▁地震
▁国
▁本
▁精神
▁一辆
▁发
▁卖
▁航班
▁商业
▁二
▁具有
▁电话
▁证券
▁全省
▁统计
▁双方
▁现象
▁河南
▁不到
▁天气
▁协议
▁开放
网
▁只要
▁女儿
▁90
▁基础
▁几乎
▁违法
▁委员会
▁航空
▁检查
▁住
▁商品
▁迎来
▁考虑
▁比例
▁小米
▁2000
▁整个
▁民警
▁同
成
▁举办
▁积极
▁级
▁朝鲜
▁真正
▁父母
6
▁意味着
▁觉得
▁通报
▁创业
▁老师
▁公告
▁证监会
▁统一
▁处
生
▁找
▁具体
▁强调
▁卡
▁质量
▁高考
▁送
▁社区
▁事
▁东
▁面对
▁犯罪
▁办法
▁政治
▁高速
▁收费
▁云南
▁春节
▁条
▁四川
化
▁阶段
▁坚持
▁比较
▁指
▁不再
▁电视
▁石油
▁一项
▁+
▁长期
▁发布会
▁房
▁这里
▁相比
▁一条
▁披露
▁农村
▁一天
▁所以
▁变化
▁行政
▁金额
一
▁德国
▁日至
得
▁采取
州
▁公务员
▁论坛
▁智能
▁责任
▁男
▁污染
▁继
▁年底
▁死
▁江苏
▁内部
▁喜欢
▁旅客
▁更加
▁四
▁软件
▁昆明
▁出来
▁女孩
▁h
▁工业
▁先
▁有效
▁多年
为
▁发改委
▁沪
▁三个
▁才能
8
▁正常
▁整体
▁b
下
▁当时
▁条件
▁曝光
▁阿里巴巴
▁反映
▁突破
▁考试
▁实行
▁’
▁强
▁70
▁作用
▁巨大
▁总理
地
▁镇
▁普通
▁黄金
▁‘
▁尽管
▁降低
▁大幅
▁当前
▁安排
▁稳定
▁郑州
▁嫌疑人
▁实际
▁展开
▁湖南
不
▁计算
▁妻子
▁万人
▁欧洲
▁团队
▁随后
▁加快
▁重
▁吸引
▁非法
▁证实
▁百度
▁发表
点
▁您
▁海外
▁促进
▁核心
▁股东
▁难
▁村民
光
▁人数
来
▁山东
▁家长
▁学院
▁一份
▁主题
▁有些
▁西
▁程度
▁涨幅
▁数字
▁大学生
▁扩大
▁吴
▁00
▁来看
▁依然
▁上半年
有
▁双
▁只能
▁旗下
▁打造
▁大型
▁各地
华
文
▁社交
▁方向
▁长沙
▁利益
▁上升
▁多家
▁纷纷
▁已有
▁父亲
▁办理
▁排名
▁版
▁空间
▁升级
▁找到
▁两年
▁遭遇
▁书记
▁登记
▁享受
▁费用
▁每个
城
▁渠道
▁高校
▁就业
▁白
▁任务
▁阿里
▁当天
▁此外
▁发言人
▁质疑
▁终于
心
▁另
▁报名
▁工资
▁利率
▁作出
▁取得
▁经历
▁因素
▁部长
▁母亲
▁法国
▁作品
▁股票
▁全市
▁确认
▁新疆
▁转
▁电脑
▁道路
▁体系
▁处于
▁跑
▁印度
▁业绩
机
▁购物
▁西安
▁亚洲
▁万美元
▁机制
▁至今
▁办公室
德
▁°
▁内地
▁患者
花
▁分享
▁一般
▁增速
海
▁收到
▁那些
▁拉
▁共有
▁高达
▁竞争
▁这么
▁运行
▁叫
▁依法
▁用于
▁五
里
▁人口
▁趋势
▁多少
▁投入
▁拍
▁股权
后
▁遭
▁举报
于
▁宣传
▁加
▁间
▁c
o
▁电子
▁这次
▁阿
林
▁将会
▁注意
▁制定
▁o
▁医疗
▁转型
▁股市
▁媒体报道
▁环保
▁小学
▁2010
▁快速
▁业内人士
▁月底
▁一张
▁负责
▁迅速
▁若
▁台
▁累计
▁一款
▁微软
▁属于
▁村
▁靠
▁红
天
▁规范
▁拍摄
▁大会
▁新增
▁智能手机
C
▁两人
部
▁央视
▁给予
▁容易
▁广场
▁年前
▁建筑
起
▁女士
▁京东
▁采用
▁另外
▁世纪
▁如此
▁写
▁背后
▁道
▁完善
量
▁开通
门
▁地产
▁谷歌
线
▁重新
p
国
▁告诉
▁考生
利
▁变成
▁多名
▁能源
▁进口
▁景区
▁黑
道
▁北
▁市长
▁p
气
▁l
▁越
在
▁楼市
▁进
▁赵
▁制造
▁协会
▁在线
村
d
▁提前
▁除
▁不得
▁款
▁加大
▁利润
▁少
▁啊
过
▁身份
▁事情
时
▁运营商
▁线
▁努力
▁教授
▁众多
▁手
▁办
▁m
▁最好
▁挑战
▁并且
▁天津
学
▁来到
▁部
▁前往
▁公安局
▁职务
▁职业
▁批准
▁传播
▁奥巴马
▁35
▁微
平
▁似乎
▁预测
▁看看
▁及时
▁离开
▁回家
▁案
▁小区
▁简单
▁李克强
▁财富
▁监督
▁制作
▁搜索
▁为什么
长
▁多次
▁治疗
▁测试
▁记录
▁设立
口
▁逐渐
▁令
▁速度
▁民众
▁穿
小
称
▁补贴
▁故事
▁性
▁3000
▁店
▁公园
明
▁违规
▁做好
▁限制
▁两名
▁接近
▁检测
▁研发
▁深
▁项
▁委员
▁执法
▁同学
▁生命
镇
▁最低
名
▁法
▁仍然
▁低于
▁初步
▁化
▁含
▁做出
▁机关
▁东西
▁玩
▁著名
▁本次
▁高铁
▁出口
▁党
▁回
▁现金
▁形式
▁拟
▁大陆
n
▁垃圾
▁近年来
▁城
▁罗
▁妈妈
▁面积
之
▁届
▁担心
▁先生
▁公交
▁状态
▁东方
▁纪委
▁华
▁它们
▁感觉
▁讨论
▁真的
法
▁一下
▁艺术
▁下滑
▁刚
▁干
▁优势
▁联系
▁下调
▁完
▁期货
▁名单
▁几个
▁加入
▁发出
▁科学
▁早
▁戳
▁尤其
▁很大
开
▁环比
▁落实
▁今后
▁快递
▁展示
▁真
▁超市
▁收益
▁生态
▁以后
▁系列
▁拒绝
▁曾经
▁效果
▁原来
▁生
▁存款
▁赔偿
某
▁竟
▁新浪
▁文件
▁喝
▁方法
▁现代
▁大部分
▁停止
▁通信
▁更是
▁专项
▁林
▁ceo
▁哪些
▁件
金
▁到底
▁民生
江
▁吨
▁节目
▁建成
▁结构
▁禁止
▁毕业生
达
▁ipo
▁审批
▁种
▁宝
风
▁关键
▁在内
▁唯一
▁国外
军
▁保险
▁身体
▁集体
▁淘宝
▁称为
个
着
▁局长
▁5000
▁推广
▁令人
▁担任
▁女生
▁湖北
▁人类
▁警察
▁处罚
卡
▁并未
▁45
▁独立
▁力度
费
▁改造
▁创造
▁老板
▁罚款
▁部署
▁我省
▁十分
尔
▁世界杯
▁获
▁400
▁系
▁上线
▁恢复
▁人均
发
▁人才
▁家人
▁期
斯
▁360
▁教师
业
▁房子
▁局
▁方
是
▁→
▁成交
▁股价
▁年轻
▁成绩
▁公积金
▁三星
▁发放
龙
面
▁然后
▁改善
用
▁音乐
▁出席
▁三年
▁套
▁相对
▁对外
新
▁变
▁罪
▁交警
▁危机
▁人民法院
▁账号
队
▁净利润
▁济南
▁县
▁坐
▁你们
▁海南
▁治理
▁先后
力
局
▁房屋
▁对方
▁运动
▁行
▁及其
▁逐步
▁确保
▁心
▁并非
▁退休
▁公共
▁号线
s
▁信号
▁巴西
▁农业
▁每月
▁丈夫
▁律师
▁包
▁或许
特
高
▁操作
▁山
▁青年
▁交流
▁经验
▁广西
▁债务
▁不足
▁32
▁纽约
手
鱼
▁尚未
▁短信
▁度
▁自由
▁全年
▁出行
▁年内
▁同样
▁相信
▁段
▁账户
▁招生
▁调控
▁接到
▁刚刚
▁单
▁有所
▁图
▁热
▁文章
河
▁毕业
▁反
▁经常
▁霾
▁愿意
▁温州
▁第三
▁农民
安
日
▁量
▁更好
▁最佳
▁所谓
▁t
▁出租车
▁马云
▁出售
▁司法
▁力量
▁朱
▁工具
▁满足
▁目的
▁板块
▁类似
▁哦
▁现实
▁财政
▁证明
▁帮
▁十八
▁假
▁流量
▁问
▁住宅
▁采购
▁伦敦
▁的话
▁房产
▁特色
▁表明
▁安徽
▁风
▁符合
▁一只
▁违纪
▁背景
▁成员
▁每日
▁既
▁陆续
▁电信
▁爆料
▁啦
▁男性
▁普遍
▁指标
▁数
▁爆炸
行
▁幼儿园
▁江西
▁晚上
c
▁河北
▁货币
▁指导
东
▁gdp
多
克
▁报警
▁安
方
动
▁一批
▁一系列
进
▁解释
▁主动
▁公民
▁见
▁开发商
▁足球
▁电
▁培训
▁平
▁调研
▁梦
▁支付宝
▁他人
店
▁民间
▁一切
▁特殊
▁维护
▁公交车
▁这位
▁全新
场
▁收
▁承诺
▁万亿元
▁一点
▁鼓励
▁门
▁10%
▁首个
▁京
▁允许
▁监测
▁各类
▁基地
▁避免
▁遭到
▁20%
式
▁推荐
▁涨
▁在于
▁本月
▁式
▁难以
▁飞
▁保证
▁较大
▁寻找
▁严格
▁感染
▁观众
▁还要
▁油价
制
强
▁型
▁时许
▁知名
▁%
▁通
▁抓获
▁一个月
▁明星
▁孙
▁欧元
▁同意
▁优惠
▁清
▁自然
▁巨头
▁晚间
拉
▁动物
▁余
南
站
台
▁费
▁建
▁放
▁气温
▁概念
▁打击
▁一旦
▁听
▁零售
▁确实
▁率
▁陕西
▁领导人
▁澳大利亚
▁手段
▁怎样
▁注册
▁六
▁距离
声
▁施工
报
事
▁平方米
▁遇到
▁位置
▁认定
▁昨晚
▁德
▁物流
▁达成
▁驾驶
▁欢迎
▁高端
▁奶粉
▁第一次
▁座
▁困难
▁意义
▁合同
▁招聘
▁状况
▁签署
▁结婚
▁身上
▁任
阳
▁值得
以
▁自动
▁合格
▁远
▁比如
▁万达
▁俄
▁应对
▁球队
▁家属
入
▁合肥
▁仪式
▁飞行
▁材料
▁一周
▁损失
▁文
▁厦门
▁韩
▁深入
▁一线
儿
▁博
▁十年
▁期待
▁立即
▁抢
▁华为
▁放弃
▁结合
▁总经理
▁承认
▁赴
▁为主
▁徐
年
▁讲
▁钓鱼岛
▁石
美
▁救援
▁iphone
▁持有
峰
▁【
▁亏损
▁标志
▁娱乐
▁辆
身
▁图片
▁再度
▁加上
▁广东省
▁而言
▁方便
前
▁总体
▁覆盖
▁刺激
▁此事
m
期
▁厂商
▁抓
▁上周
▁自主
▁成长
▁食物
▁大规模
▁券商
湖
▁列车
▁盈利
▁腐败
▁油
▁跌
▁养老
▁36
▁电子商务
▁人群
▁自身
▁600
▁争议
片
▁龙
案
▁届时
▁跌幅
▁广泛
▁网民
▁•
▁合理
▁紧急
▁投
▁雾
▁体育
▁我市
▁职工
▁根本
▁「
▁名为
▁头
▁d
▁态度
▁超标
▁本周
▁售价
▁晚
科
▁维持
▁半
▁联网
▁访问
▁作
率
▁关闭
▁山西
▁中学
▁程序
▁学
▁首批
▁梦想
▁感受
▁专门
▁下载
▁竟然
▁对象
▁别人
▁中午
▁创
▁肯定
▁文明
建
大学
▁冠军
▁余额
▁高管
宝
▁邀请
▁监控
▁2009
▁反对
▁航空公司
▁120
▁球员
桥
▁为何
▁究竟
▁贸易
▁意外
▁周边
▁年轻人
▁设置
▁商家
▁优秀
▁离婚
▁首
▁移民
工
无
信
▁原则
▁搞
▁高速公路
▁感到
▁说法
西
▁何
▁】
▁投诉
外
▁退出
▁承担
▁创业板
▁致
▁青岛
▁幸福
▁机
▁判处
▁轮
▁上海市
▁呼吁
▁实践
▁疾病
房
▁南海
▁权力
度
▁重组
马
▁公
▁150
▁威胁
▁定位
然
▁有着
▁楼
▁俱乐部
▁加拿大
▁亮相
▁纳入
▁市值
▁总额
▁是因为
源
▁顾客
▁2008
▁诺基亚
▁空气
▁三大
▁开幕
▁策略
▁主
▁截止
▁公益
▁高度
▁导演
▁工人
▁专利
油
▁800
▁良好
▁乌克兰
▁临时
红
▁广大
▁控股
▁应急
位
▁形象
云
▁出生
▁郑
▁组成
▁立案
死
▁查处
▁火
▁限购
▁呈现
权
▁百分点
▁几年
▁形势
▁违反
▁两会
▁周二
▁胡
▁现
▁高峰
▁动力
▁话题
▁变得
▁手术
型
▁g
▁肉
▁上网
▁首席
▁」
▁字
▁并购
▁整治
▁铁
▁下发
▁群体
▁光
▁50%
能
▁备受
▁中方
▁驻
▁s
▁财政部
▁特
▁船
▁整合
▁公斤
▁反腐
▁易
书
▁车型
▁业内
▁评价
▁说明
▁倒
▁资格
.5
▁相
▁顺利
▁转移
▁有期徒刑
▁一半
▁新型
▁提交
▁即可
▁点击
▁缺乏
▁此举
▁大约
▁新建
▁年龄
▁边
▁家中
▁暂停
▁共计
色
▁创始人
▁时期
▁30%
▁33
▁天然气
▁打开
▁院长
眼
▁智慧
▁零
▁病毒
乐
▁财经
▁突出
▁超级
▁话
▁地位
▁首先
物
▁线路
▁香
▁物
▁亲
▁周四
▁从事
▁街
▁38
▁往往
▁当年
▁能否
▁奖励
▁换
▁使得
▁正是
▁城区
▁大众
▁平板
▁一事
▁别
▁各大
▁平安
b
▁满
▁几天
▁一步
▁菲律宾
▁气
▁互动
▁登陆
▁街道
▁危险
通
▁资料
▁男孩
▁派出所
员
▁民族
▁大道
▁新高
▁理解
好
▁泰国
米
▁布局
▁声音
▁理财
▁不用
▁修改
▁情绪
▁发挥
▁逾
▁排
正
▁声明
星
▁发起
▁审议
▁开启
▁车主
▁k
▁人大代表
▁供应
本
▁神
▁总裁
波
▁航线
▁查询
▁西方
▁真实
▁当日
▁小伙伴
▁安装
▁哪
▁到来
▁转基因
▁意大利
▁海域
▁科学家
办
处
岛
▁评估
▁探索
▁古
▁转变
▁从而
▁工厂
▁留下
▁西班牙
▁郭
园
▁年来
▁长江
▁亦
▁清理
内
▁想要
▁37
▁支出
住
▁旅行
▁卫生
▁终端
▁游
▁训练
▁票价
▁城管
▁失去
▁多数
▁官
a
▁34
球
团
▁高温
元
▁于是
▁新加坡
器
▁周一
▁认识
▁虽
▁乡
▁赚
▁养老金
▁预算
▁人生
▁表达
▁基于
▁四个
▁南宁
▁相当
▁哈尔滨
▁十大
▁现有
▁福建
▁评论
▁明天
▁失踪
丽
室
▁秒
▁苏
▁两天
▁首都
▁予以
▁习惯
▁设施
情
▁女友
基
▁具备
▁挂牌
▁就要
▁年代
▁以前
▁撞
▁沟通
▁转发
▁一度
▁收益率
民
▁上演
▁即使
▁增强
▁欧盟
▁会上
▁一座
▁云南省
▁看来
▁做到
▁优化
类
夫
▁么
▁岗位
▁丰富
▁禽流感
价
▁信托
▁周三
飞
▁信
▁防
伟
▁节
▁今天上午
▁主持
▁公安机关
▁上调
管
▁鱼
▁境内
▁征收
▁不可
▁拿到
▁杂志
▁理由
数
▁境外
▁一路
▁空气质量
▁事业
▁客机
▁下来
▁病例
▁法治
▁接触
▁药品
▁条例
▁市委
▁2020
▁克
▁巴萨
▁销量
▁相当于
▁反弹
▁校长
▁冲击
▁强烈
▁生物
▁是不是
▁摄影
▁中国移动
带
▁名字
▁55
▁千
▁百
▁身边
▁尽快
▁子女
▁事实
▁同期
客
▁法庭
▁阅读
▁婴儿
▁约合
▁否认
▁美丽
塔
▁营业
▁创意
▁一套
节
▁之外
▁48
▁九
▁副局长
▁征求意见
▁八
▁联盟
流
▁下半年
▁青
▁家里
▁公安
▁救助
▁知识
▁金融机构
▁环节
▁港
▁城镇化
▁私人
▁详细
女
▁路上
▁实际上
▁基层
▁粉丝
▁改
▁停
▁新一轮
▁创下
▁周五
▁五年
▁两家
说
▁详见
▁app
▁自行车
▁一部
▁围绕
菜
▁紧张
▁高于
立
▁银
▁企业家
▁意识
▁地球
▁咨询
▁录取
▁起诉
▁知情
去
定
▁掉
▁总局
▁乐
▁信用卡
▁经理
▁多种
▁传媒
▁签证
▁不好
▁珠海
▁总量
石
▁诈骗
▁外媒
▁慈善
▁事发
清
▁预警
▁65
▁无论
▁里面
▁公路
▁七
▁申报
系
▁牛
病
分
▁跳
▁财产
加
▁苏宁
▁热议
▁很快
▁研究院
▁外界
▁汽油
▁接
▁绿色
▁越南
▁河南省
▁空
▁升
回
▁思想
▁回到
▁第三方
▁场
▁两次
▁乘坐
▁适合
▁回答
▁构成
▁身份证
▁一部分
▁1.5
▁加速
▁宁波
▁放在
▁江
▁释放
▁体现
▁深化
▁审查
▁路段
▁组
作
▁各级
▁管
▁焦点
▁商
向
春
▁狗
▁引导
▁提
▁配合
纳
而
▁一对
▁绝对
▁属
▁暨
▁书
至
▁增
▁案例
▁谈
▁收盘
.8
▁坚决
▁英语
火
▁人物
▁制
▁几
▁大多数
▁卫星
▁涉案
▁充电
▁教育部
▁不满
钱
▁支撑
▁打破
▁万科
▁受贿
▁例
其
皮
体
▁qq
▁尚
▁信心
▁她们
▁也许
▁南昌
▁餐厅
▁疯狂
▁入
▁推
▁病
▁队
▁一是
▁半年
▁4000
▁时尚
▁分析师
▁爆发
▁国企
▁广
▁毛
▁去年同期
▁主体
▁追
▁上班
▁陷入
▁投票
▁草案
▁幅度
▁中央纪委
▁明
▁官网
10
▁身亡
.6
▁周末
战
▁心理
▁河
▁拍卖
▁舆论
▁国庆
.7
▁获取
▁复杂
▁规则
▁上述
▁充满
▁防止
图
▁门店
▁电视台
▁it
▁保
▁相应
▁常
▁一片
▁公安部
.4
▁动作
▁第一个
▁出发
要
楼
▁万吨
▁谢
目
▁不管
▁夫妻
▁兼
商
▁十
友
▁网购
▁口
▁伊
▁最多
师
▁街头
▁当场
▁自贸区
▁面
福
▁当然
▁估值
▁尝试
▁格局
00
版
▁公平
▁融合
志
▁永远
号
▁这家
▁理论
▁加工
▁f
▁花费
▁某某
▁周年
▁贴
▁停车
▁和平
▁特点
难
▁一季度
▁往
▁地下
▁选
▁等待
班
▁通道
▁还会
▁42
厂
▁运输
▁本身
▁酒
▁早上
格
证
▁科
▁研究生
青
▁一段
▁实验
▁精彩
▁万亿
▁今年以来
▁原本
▁强化
▁农民工
▁长假
▁多位
▁外国
▁当中
▁抵达
▁同志
及
▁血
▁斯
▁做法
▁机器人
▁纪录
▁最快
▁回落
▁警告
▁博物馆
▁地点
▁班
▁发布公告
.3
▁这名
▁制造业
▁交
▁可能性
▁总数
▁资讯
▁收取
▁道歉
▁总结
▁联想
▁主办
▁诸多
▁短期
▁地图
三
药
▁态势
▁戴
▁经典
▁高级
▁茶
▁协调
▁证据
▁价
联
▁猪
▁估计
▁人体
▁总部
k
▁为期
▁季
▁错误
▁调
▁阳光
树
▁折
▁便利
▁掌握
▁新兴
▁缓解
▁宣判
兰
▁民主
▁餐饮
▁鸡
▁冰
▁广州市
▁事项
▁成熟
▁一边
▁查
▁爱心
.2
▁奖
▁垄断
▁唐
▁检验
▁回归
重
品
▁普
▁巴
▁亚马逊
▁实体
▁志愿者
▁本届
▁省份
▁机动车
公司
▁成果
▁四川省
▁两市
▁浙江省
白
▁菜
▁新股
▁福利
▁研究所
▁层
▁屏幕
▁没想到
▁福州
▁贡献
▁桥
▁贵州
▁本人
▁乱
▁梁
▁端
▁不得不
▁为此
▁暴力
语
▁新华社
▁放缓
▁后来
▁激烈
自
▁门票
▁年初
▁行驶
▁奇
▁赛季
▁借
▁审核
▁销售额
▁热点
▁哪里
▁矛盾
▁奥
▁旧
▁西部
▁赚钱
▁救
意
▁理念
▁影片
▁修订
▁校园
▁虚假
▁传闻
▁决赛
▁各项
▁走向
▁～
▁信息化
感
▁判决
▁合
▁降价
宁
▁开车
▁预防
▁普京
▁应当
士
经
▁重视
▁海洋
▁作业
少
▁风格
▁分配
▁诉讼
▁购房
▁美食
▁无线
▁总是
▁猫
▁不够
▁皮
▁中国政府
▁微博上
▁暂时
▁处分
▁43
▁深圳市
▁之际
▁39
▁演讲
.9
▁债券
▁法官
▁信用
▁率先
▁信贷
▁检察院
▁走进
▁怀疑
▁观点
▁富
▁抱
▁一件
可
如
食
▁临
▁担忧
▁思维
2.5
▁多人
▁英
院
▁细节
▁46
▁摄影师
▁去世
▁判断
▁宋
▁↓
▁湖南省
▁58
▁夫妇
▁被告人
奖
▁定
▁促销
罗
▁硬件
▁接待
▁沈阳
▁印发
▁爸爸
▁举措
们
▁追求
▁杜
▁业主
▁巨额
.1
▁许
▁客户端
▁管理局
▁打算
▁玩家
▁市场化
▁介入
▁利
▁每人
▁下面
▁蓝
▁军
▁谈判
▁武
▁神秘
▁基础设施
▁离
▁签约
所
▁密码
▁伤害
▁n
选
▁舞
▁44
世
▁47
装
▁男生
▁110
▁亚
▁定价
▁食品安全
▁男人
▁这项
▁高层
▁开工
▁审计
▁始终
▁pm
群
▁延续
▁窗口
▁巡视
▁上年
▁清楚
▁必要
▁财富网
田
▁居住
▁体制
▁便宜
▁牌照
▁6000
▁批评
▁纯
▁挂
▁千万
▁户
▁通行
▁曝
▁增幅
▁新区
▁军事
▁初
▁供
▁待
间
▁群
种
▁翻
▁山东省
▁降
▁本地
▁药
保
▁破坏
酒
▁更新
▁出版
玉
▁疑似
丝
▁火灾
▁配置
股
▁正确
委
▁以为
▁41
热
▁延长
收
▁2016
▁深度
和
▁角度
▁受理
▁库存
话
▁角色
▁转让
▁表演
▁国产
▁一人
港
▁币
北
▁反应
▁大多
▁业界
▁提到
▁未能
▁49
▁语言
▁婚礼
▁差
▁轿车
▁队伍
▁不想
辉
次
▁假期
▁银行卡
▁选举
▁票
▁偷
▁营收
▁带走
▁签订
▁直到
▁试图
▁纠纷
▁观察
近
▁衣服
▁权利
▁强大
▁关心
▁税
▁海上
▁二是
20
▁v
▁这场
▁沙
▁观看
▁食用
▁一块
▁权益
▁潮
▁委
▁薪酬
l
▁高中
▁登
▁版本
▁江苏省
思
▁动
i
▁商务
▁品种
▁袭击
▁蔡
▁派
亚
▁小编
▁私募
▁含有
兵
▁职位
▁商业银行
▁大连
▁商场
▁大桥
▁51
▁水果
▁5%
▁失败
▁冲
▁试验
▁瑞士
▁买房
▁发射
▁蔬菜
▁泡沫
▁北大
▁马来西亚
▁无论是
▁江西省
▁民营
▁e
奇
▁活
▁秘密
▁大赛
地区
▁典型
y
▁成品油
▁72
▁地面
▁进展
▁吃饭
票
▁到达
▁讲话
▁层面
▁常态
万
尼
英
肉
▁包装
▁苏州
▁之中
▁因涉嫌
▁租赁
▁城乡
▁东莞
▁雷
▁解读
雨
▁订单
▁货币政策
▁四大
▁彻底
▁赢得
约
界
赛
▁社保
放
▁影响力
▁思考
▁52
▁占据
▁扩张
▁待遇
▁红色
▁埃
▁合约
▁球
▁无疑
▁连接
▁月初
合
▁国家统计局
言
等
▁充分
▁副总裁
▁革命
▁子公司
▁56
▁活跃
▁打车
▁整改
▁事业单位
▁立法
▁春运
▁80%
▁得知
▁美联储
级
包
▁打工
▁每次
▁总书记
▁实时
政府
▁排除
e
▁新能源
▁主流
▁市政府
50
▁一句
▁合并
▁可是
▁团
▁独特
▁门口
▁不敢
▁随
变
▁消防
▁银行业
▁2007
味
▁处置
▁煤炭
▁面向
▁不错
▁平稳
▁最为
▁球迷
▁爱情
▁英雄
▁工信部
▁以往
5%
▁柴油
▁镜头
空
▁对话
▁原油
▁会员
▁来源
▁手中
▁三季度
王
干
▁有点
▁布
▁海军
布
▁门槛
▁电力
▁产能
▁省级
▁临近
▁温
博
▁小组
▁培养
▁星
▁更大
▁宽带
▁劳动
▁砸
▁红包
款
▁频道
▁虚拟
▁税收
▁不动产
▁消失
▁排队
▁全国政协
▁40%
▁欲
▁出炉
▁行情
▁房企
▁保安
▁相机
▁藏
电
▁一架
▁生意
▁商务部
兴
▁东部
▁传
将
表
▁走势
▁流行
▁财务
▁梅
▁居
▁放开
▁自我
▁两大
▁两位
r
▁一致
▁1500
▁湖
▁多万
▁赶到
▁投放
▁却是
勇
▁用地
▁全世界
▁女人
▁个别
▁打印
▁物质
超
堂
▁线下
▁下行
▁养
▁厘米
▁中共
见
▁装
座
▁万人次
秀
▁交易所
▁依旧
▁排放
▁火车站
良
▁所在
亮
▁消息人士
▁有限
▁市区
▁纪念
州市
盘
▁宝宝
▁直
▁服装
▁货车
▁哈
▁宽
丹
▁银监会
▁圈
▁局面
▁配套
族
▁登录
▁超越
▁非洲
▁确诊
杰
▁城镇
▁季度
组
▁一组
▁火车
景
▁饮料
▁忙
▁尊重
▁包含
▁兄弟
▁人大常委会
▁53
▁雪
▁手续
▁塔
▁中石化
▁全力
瑞
▁稿
▁仅仅
▁波
▁秘书长
▁机票
▁热门
▁关
牌
▁玻璃
▁抢救
w
▁商品房
街
▁每周
▁70%
▁黑色
▁排行榜
▁一大
▁携带
▁三亚
▁叙利亚
▁反而
乡
▁读者
▁眼睛
▁节能
▁失联
▁暴雨
▁差距
▁带动
梅
▁抗议
▁商城
▁理财产品
因
▁路口
▁缴纳
森
▁招标
▁斤
▁户口
全
▁或是
▁省委
▁等等
▁叶
▁给出
▁自杀
▁效率
▁财报
▁依据
▁轻
▁左
▁早已
▁引进
▁实力
▁养老保险
8%
▁司
▁峰会
▁落地
▁辽宁
川
▁算
▁楼盘
▁播出
▁经济学家
▁伤
▁范
▁持
▁能量
t
▁人人
▁传出
▁作者
▁脚
胜
▁学者
▁呈
▁装备
▁热情
▁院士
张
▁捐赠
3%
掉
▁拆迁
▁汤
▁理想
▁灾区
▁拆除
▁车票
▁马上
▁营养
令
▁自称
▁海口
▁54
▁邓
▁答案
▁前后
▁pc
爱
▁中华
▁救治
u
走
▁照顾
▁昆明市
▁走访
▁新生
条
泽
▁董事会
▁完美
▁攻击
▁破
▁读
▁放松
木
▁鸡蛋
▁收受
单
传
▁成交量
▁电梯
▁68
▁85
▁日益
▁该校
▁冲突
▁奥运会
▁战争
▁富豪
▁x
6%
▁评选
▁冷
▁补偿
▁美女
▁相继
▁交易日
▁过度
▁震荡
1%
▁时刻
司
▁授权
▁刷
▁教
▁中纪委
荣
▁史上
▁各国
▁不幸
▁炒
▁老百姓
▁拍照
▁审判
▁700
▁公示
▁短
▁结果显示
服
▁农
▁皮肤
▁作家
对
▁客
▁产权
▁危害
二
▁不如
▁日子
▁考察
▁电动车
▁汉
▁指控
▁基因
▁强制
▁事实上
▁租房
神
▁电池
比
▁个股
▁一处
▁认真
▁邮报
▁调价
80
▁乌
▁退
▁伊朗
▁豪华
▁通常
▁很难
满
▁百货
▁火车票
▁引入
▁批次
▁创作
▁恒大
▁少年
▁64
取
▁不久
▁成都市
▁足够
▁流动性
▁更为
▁奖金
▁独家
▁外交部
▁无人
▁贵
▁损害
▁面前
▁战
晓
▁车站
▁专题
▁福
▁天猫
▁ps
▁告知
▁睡
▁中介
则
▁优质
▁荷兰
60
▁须
▁平时
▁户籍
实
▁极大
首
▁癌症
▁净
▁物品
果
▁全程
▁成分
▁简称
7%
板
转
▁之下
▁57
富
▁涨价
▁豆
▁奢侈品
▁异常
▁单独
▁当事人
▁二手房
▁竞争力
查
▁比特
远
▁寻求
▁脸
▁核实
▁休闲
▁影视
▁田
▁董事
▁常委
▁较为
船
▁补
▁中级
▁东京
▁从未
▁钢铁
▁汇率
▁通车
▁沈
根
▁中有
▁陕西省
血
雪
▁59
▁路边
▁难题
息
▁收集
▁哪儿
▁错
▁演员
▁出去
▁南方
主
升
▁平米
▁认证
▁彭
▁岛
▁编辑
▁一则
▁咖啡
▁维修
▁进程
▁座谈会
▁额度
▁运用
▁索尼
▁车上
▁照
▁演出
▁回升
▁提示
▁李某
省
▁男友
▁联通
▁巴黎
▁先进
▁多元
▁黑龙江
▁留
▁补充
▁场所
▁流
骨
▁拓展
99
▁轻松
▁身
▁史
▁平衡
▁大师
▁r
▁小孩
▁100%
▁决策
▁拿出
▁空中
▁家族
▁第四
底
游
▁紧
▁老年人
▁凭借
▁开设
▁套房
f
▁协助
湾
香
▁场景
▁乌鲁木齐
月
▁医药
松
▁位居
▁夏
打
▁地块
▁视为
相
▁参观
▁冯
▁人大
▁迹象
▁笑
▁症状
义
▁一审
▁武汉市
▁同事
▁故障
刚
▁名义
▁维
▁旨在
同
▁欧
▁强奸
▁示范
▁考
▁投资人
er
▁牌
▁自治区
▁基金会
原
▁希腊
▁杀
▁经费
牛
▁流程
▁对手
▁年间
户
▁含量
▁罕见
▁洗
.3%
▁志愿
关
▁专访
▁修
▁生存
▁辞职
▁电视剧
▁设
▁依靠
▁毒
▁芯片
▁62
▁瞬间
▁66
俊
▁链接
养
▁合计
▁不了
▁预约
▁郑州市
2%
▁知识产权
▁传言
▁化名
公
改
▁构建
▁选手
▁75
▁道德
▁集
▁小型
▁考核
▁计算机
▁大战
▁供应商
▁持股
▁跨
▁记得
▁适应
▁回来
▁直播
▁8000
▁工
▁否则
展
形
▁澳门
▁团购
▁其余
康
▁裁员
▁诞生
▁各方
▁遇难
恩
▁鉴定
▁由此
雷
▁莫
▁甲
▁宽松
▁青少年
▁婚姻
▁节日
▁齐
▁顶
▁乐观
▁死者
▁同步
▁凤凰
▁组合
块
▁月饼
▁大盘
▁听到
▁厕所
▁军队
▁眼镜
▁某些
边
▁白色
伤
▁审理
▁优先
▁河北省
▁本市
▁隧道
▁茅台
▁可谓
▁课程
▁眼
▁环
运
0
▁别墅
维
▁召回
▁文学
▁烧
居
▁混合
▁熟悉
▁均价
▁卫
理
▁曹
▁金正恩
▁佛山
▁离职
30
▁新西兰
▁殴打
▁中小企业
▁前景
▁一方面
9%
▁各个
史
▁妇女
▁委托
4%
▁期限
▁产业链
▁争取
▁学会
▁偏
▁今晚
▁那个
排
▁捐款
▁怕
▁联合国
▁鲁
▁厅
▁2.5
▁一期
▁本土
▁拆
▁皇马
▁有利于
▁绿
迪
▁安徽省
▁60%
▁当下
▁有没有
了
▁完整
▁业
▁第二次
▁预订
▁白酒
馆
▁效应
▁送往
▁想象
▁交通事故
忠
▁讲述
x
▁69
▁创业者
▁无锡
▁社会主义
▁陆
▁谣言
▁胜利
▁朝
▁深化改革
广
▁坐在
▁透明
托
▁代
▁固定
宇
▁骗
▁合法
▁主人
▁空调
▁光伏
仁
▁伟大
▁联赛
交
武
▁不愿
▁患
▁新年
▁回购
▁票房
▁权
▁i
▁首届
▁与此同时
▁1.2
▁流传
▁教育局
▁地上
▁铁道部
▁深刻
▁维权
.6%
▁争夺
▁被判
▁j
剂
▁画面
▁查看
▁生育
▁搜救
▁引来
▁服务业
▁国债
▁铜
▁路线
▁涉
▁利好
▁记忆
▁线索
▁聚集
▁网易
▁丢
▁回复
▁两种
▁领先
钢
▁监察部
▁列
▁推行
▁取
▁伴随
▁颜色
任
▁交通运输
▁专
▁躺
快
.5%
脚
▁东北
▁驾驶员
卫
▁圣
▁极
▁频繁
▁国资委
▁一把
▁接下来
▁波动
▁小伙
▁63
▁实在
▁低价
▁木
▁93
▁定制
▁惊
▁准确
▁到期
▁大楼
▁民航
▁泰
▁分为
▁西藏
▁一群
▁精
▁逼
▁15%
▁怀孕
▁苹果公司
▁中旬
落
▁榜单
▁力
▁那样
▁批
▁康
▁周期
泰
▁防范
老
▁开业
▁万平方米
▁必然
连
▁参考
▁据统计
▁看好
▁纳
▁区间
▁团伙
▁直升机
▁搭
▁相互
▁人民网
▁保留
伦
▁上学
▁pe
▁十二届
▁印象
▁卫视
▁白天
▁国有
▁月薪
▁走出
▁围观
▁五大
▁列入
▁毒品
祥
灯
先生
▁男女
▁发帖
▁设计师
▁适当
宗
▁内蒙古
▁春
▁不但
▁稳
▁特征
▁动物园
▁画
▁体制改革
▁立
▁变革
的
▁感
▁实
▁本科
▁大概
想
▁90%
▁兴趣
▁快乐
▁现状
▁最早
集
▁部队
▁用来
教
▁庆祝
▁吐槽
▁宝马
▁67
▁居然
▁外交
▁途中
▁负担
涨
▁据称
▁病人
▁施行
▁片
▁艺术家
▁浪漫
▁各自
▁起飞
派
▁莫斯科
▁首发
▁庞大
▁三天
▁日期
代
▁省市
▁南宁市
▁四年
巴
▁读书
▁昨天下午
▁侵犯
▁思路
▁捡
普
▁显得
▁招
▁凭
▁切实
▁会见
▁短短
▁创建
▁手表
▁学术
五
▁级别
▁防治
▁洛阳
▁博士
▁麦当劳
▁监狱
▁运作
▁手游
▁小姐
▁青春
治
▁本报
▁拼
▁谈到
▁挑
▁前来
政
▁年薪
▁130
▁百万
▁后者
▁艾
▁大厦
▁乘
▁浪费
▁牛奶
▁电影节
刀
永
▁大小
▁缴费
▁北部
▁日报
▁背
▁土
▁陪
▁ipad
音
汉
▁停车场
▁强势
▁日常
▁进军
▁政协
▁报纸
▁啥
▁更换
▁粮食
视
▁真是
▁马航
智
▁抽
雅
▁泄露
▁展
▁份额
▁二维码
▁市委书记
▁改进
▁声称
航
▁往返
▁反腐败
▁盛大
足
▁详情
▁言论
▁表态
▁检察机关
▁无奈
▁机遇
泉
▁昨
▁套餐
▁显著
▁体重
▁八项
▁万余元
▁鸭
▁农产品
▁99
.9%
.4%
▁最美
▁装修
▁随时
▁结算
▁京津冀
▁新闻网
▁满意
▁春晚
货
▁添加
.7%
▁办公
井
▁钱包
▁预售
▁漏洞
▁师
盛
▁另一方面
▁中共中央
▁信任
▁年报
▁外出
▁中间
▁猪肉
▁五一
▁扔
▁美好
▁加盟
▁整理
▁时段
▁位列
库
▁适用
▁曼联
▁指挥
▁类型
▁仅为
▁挖
套
h
▁游泳
▁一段时间
▁董
▁死刑
▁清晰
▁显然
照
▁主导
▁冬季
▁尸体
▁雨
▁领取
▁拨打
社
▁小幅
▁太阳
▁发送
▁猜测
▁与其
▁必
池
▁常务会议
▁据介绍
▁队员
▁周六
▁带领
素
11
▁一案
▁火爆
▁孕妇
佳
字
▁一幕
▁共识
▁急
▁补助
▁低迷
破
▁自家
▁基
▁文物
▁新政
on
才
▁q
40
▁秦
层
▁海关
▁每股
▁大脑
▁李嘉诚
章
▁74
▁股指
▁休息
▁全民
▁宿舍
▁代表团
▁不知
▁配备
▁最高人民法院
▁一台
▁主帅
▁药物
▁多项
▁送到
▁省政府
▁面试
▁转向
▁半个
▁纸
▁购票
▁求
▁运动员
▁一道
▁很少
▁买家
▁原料
▁震
▁丁
▁租金
▁三次
▁经查
▁挺
▁蒙
70
▁抢劫
▁移送
▁现行
▁治
▁联
▁诊断
▁玉米
▁想法
▁95
▁2017
▁分公司
▁梅西
画
▁隐
▁搜狐
▁人民日报
▁到位
▁大力
▁亮点
▁硬
存
活
罪
▁配
▁湖北省
▁支
▁松
▁此案
▁返回
▁想到
▁另有
笔
▁破产
▁朋友圈
▁看起来
▁复苏
▁入选
▁台风
▁块
▁61
▁逮捕
▁今天下午
▁加班
枪
▁条款
▁生日
▁树
指
百
▁前期
▁清华大学
▁宗
▁其它
▁被困
▁起火
庆
▁骑
▁炒作
夜
先
涛
▁市场份额
▁进步
▁涉事
▁91
▁百姓
▁受益
别
▁潜在
▁重伤
▁第三次
▁文字
▁长达
▁猛
四
▁法规
洲
▁掀起
▁商店
▁被迫
▁南京市
▁懂
段
▁中国电信
▁周围
▁批复
▁以此
▁穿着
▁框架
料
▁南部
▁种植
贵
▁受访者
▁撤销
▁主权
▁77
▁袁
产
▁这份
▁突发
▁抢救无效
▁发动机
卖
▁盖
▁份
▁什么样
▁传递
▁淘汰
官
▁上面
▁名叫
▁行长
▁秩序
▁发售
▁已达
▁违法行为
▁赶紧
▁华人
90
▁库
送
▁预
▁落
毁
▁架
剧
▁识别
▁网讯
▁穿戴
▁打电话
静
▁爬
360
▁尴尬
威
▁遭受
▁看法
▁感动
▁是从
▁三中全会
▁情
▁武器
▁存储
▁院
▁一篇
▁密集
▁首富
▁分类
▁食
▁整
88
▁连锁
▁海南省
记
▁180
▁事后
▁教学
▁理性
▁开盘
▁82
.8%
▁回报
▁人为
▁大米
▁开发者
▁员
▁募集
▁雅虎
▁故意
▁拖
影
▁地址
▁产量
▁熊
▁2005
▁引
▁赢
角
▁1%
▁借助
▁天然
▁国内外
▁流通
▁哪个
▁统计数据
▁落马
▁展现
看
惠
▁图书馆
▁多万元
▁摩托车
▁饮食
▁放假
▁外资
考
▁取代
▁夜间
▁富士康
黑
▁哭
▁小心
▁全线
▁二级
▁党委书记
▁跨境
▁征集
▁温度
▁卖家
▁永
芳
▁万多
▁中小学
▁降息
▁进球
▁一次性
▁洪
▁兴
▁土豪
▁wifi
▁医保
▁两岸
▁提起
▁嫌犯
▁落户
▁十一
▁被盗
▁装置
▁下去
▁组建
▁当局
▁身高
▁诚信
▁消除
▁一轮
▁一笔
▁全体
敏
v
12
▁久
▁人员伤亡
曼
▁民
▁传奇
▁家电
▁常见
▁机器
▁2006
▁超出
衣
沙
▁主力
▁乡镇
▁晒
▁严
▁烟
▁指定
▁逃
▁金属
▁物业
an
▁注重
非
▁赛
寺
▁崛起
▁延误
▁天下
▁管道
▁普及
▁中毒
▁1200
▁恒
▁依赖
▁国美
▁频频
▁悄然
▁分局
▁国土
▁严禁
▁太空
▁店铺
▁导航
▁房产税
▁查获
▁归
昌
▁牛肉
▁惊人
▁体
▁合适
▁履行
▁在家
▁请求
▁水泥
▁见到
乱
▁分许
▁赶
▁元素
氏
▁记
▁不明
受
▁商标
草
▁刀
▁当晚
▁伤者
▁自行
持
党
调
▁宪法
▁脱
▁姜
▁新版
▁买入
▁望
▁房贷
▁园
▁回收
▁舞台
▁独
虎
▁解决方案
▁喜
▁扶持
▁的确
▁摆
▁认可
▁一支
▁森林
▁感情
▁即便
▁夏季
▁大队
▁特斯拉
▁兰州
轮
▁声
▁测算
▁长春
▁外地
▁重庆市
▁中关村
▁年末
▁减肥
▁植物
▁宣传部
▁顺
▁网页
▁搭载
▁万个
▁7000
▁苦
▁洛杉矶
▁12306
▁价格上涨
已
▁权威
歌
解
▁阿根廷
▁中秋
▁虎
▁喊
▁描述
▁最长
▁党委
▁首家
塌
▁今
▁障碍
▁担保
质
▁试
▁指责
▁混
▁心中
▁乡村
屏
▁主场
▁降温
哥
越
架
易
▁菲
▁核
▁其次
▁限
▁至此
▁总监
▁清洁
▁州
▁文艺
▁经销商
▁剩下
▁安置
▁寻
.1%
▁驾车
▁吉
▁工地
▁各位
▁车展
▁播报
▁万辆
▁吉林
▁退市
▁唱
税
▁并称
▁受损
错
▁谨慎
▁长时间
▁化妆品
▁该国
▁性能
▁领导小组
▁那里
▁抓住
▁对比
▁88
▁诺
▁71
▁当选
▁环保局
▁过剩
▁把握
梦
命
▁济南市
▁前提
▁食堂
▁遗体
▁敏感
▁收藏
▁探讨
▁专注
▁沃尔玛
▁榜
▁实验室
▁毛泽东
▁证
▁建部
▁第三季度
▁啤酒
▁刑拘
▁演
▁启用
观
▁贿赂
en
▁购物中心
▁小微
斌
▁96
顿
▁160
▁负面
▁五个
值
▁洋
▁这座
▁力争
▁资助
▁之所以
校
▁清单
▁职责
▁味道
▁感谢
▁主持人
▁1.3
▁相同
▁极端
步
▁夜
▁厂
▁渔船
▁莫言
.2%
▁罚
▁140
茶
▁将来
▁不变
▁潘
假
▁吸烟
▁加剧
▁活力
▁风景
▁广播
▁语音
▁现身
▁蒋
▁步伐
▁中小
▁评级
▁对接
▁协商
▁武装
▁上榜
周
▁上映
▁首位
▁登上
▁贝
▁团体
▁客运
▁少数
▁肖
▁提问
▁麦
▁万股
太
▁一生
▁温暖
▁公务
▁封闭
▁途径
庄
▁运
鹏
粉
▁黄金周
▁新华网
▁未经
▁刷新
▁询问
▁多地
▁前天
▁学费
▁奥运
▁储备
▁1.6
▁终身
▁存
▁编制
饭
▁250
▁无数
▁作风
▁1.8
▁修复
▁法定
▁子
▁汪
▁白领
▁新车
▁枪
顺
▁共享
▁粉
财
▁比重
000
▁决心
▁睡眠
▁电器
▁异地
▁礼物
▁人工
▁乃至
▁最具
功
▁提案
▁驱动
宏
▁mh
▁贫困
▁2%
▁板
▁魏
▁纪检监察
▁敢
▁吹
▁政府部门
▁高效
▁羊
▁见面
▁难度
▁初中
▁大妈
▁报价
▁过年
▁商业地产
▁值
▁数学
▁吸毒
▁加州
▁尽
望
▁回顾
▁分子
▁单身
▁人民检察院
▁中文
▁爆
箱
▁众
▁威
▁出门
▁....
▁收获
▁发文
▁压
▁历时
▁轨道
▁本文
▁造型
▁工程师
▁回忆
▁女童
▁减
往
▁命运
▁86
▁邮件
▁公寓
▁蓝色
▁姑娘
▁行人
▁西南
▁高档
▁已于
▁表
▁有时
▁动态
▁表面
▁十二五
▁一号
▁解
▁第五
▁老虎
▁扩散
读
▁余名
▁大城市
▁气象台
▁商业模式
▁现代化
▁新鲜
▁圆
笑
▁隐私
▁拥堵
▁客车
塞
集团
▁号码
▁杯
▁减持
▁76
▁降幅
▁投行
▁此类
圈
▁二次
▁右
▁曝出
▁付费
▁往年
▁根
▁起到
▁imedia
▁北方
▁潜力
件
▁w
▁人力资源
▁领
▁盛
▁铁矿石
喜
接
▁强行
▁万户
▁保险公司
▁甘肃
洞
▁受灾
▁昨天上午
▁任命
▁开出
▁建造
▁公款
▁87
▁被告
▁档案
▁印
▁联手
▁医学
▁家住
▁瓦
丰
▁前日
▁78
▁驾
▁将近
▁该案
▁困境
▁车祸
额
吉
▁教练
叶
▁目击者
▁阿森纳
17
应
▁73
▁台北
▁出国
盖
▁入口
▁现已
▁燃油
▁暴跌
▁即日起
▁疫情
▁发明
▁大奖
▁老婆
▁旁
▁_
▁顶级
▁亿港元
▁就此
▁制裁
▁侦查
▁好友
▁大跌
▁钟
▁版权
▁侵权
▁昆
▁程
j
▁埃及
▁买卖
▁出资
诺
▁王某
▁博览会
招
▁义务
职
▁代理
▁全国人大
▁剧
▁涨停
▁上报
▁延迟
▁开幕式
▁底线
▁8%
▁策划
谈
▁以外
▁特大
剑
蒂
▁警示
▁环保部
▁长沙市
▁3%
▁定向
▁展览
▁逻辑
▁同一
▁0.5
▁技能
▁校方
▁迷
▁质检
▁人民政府
▁亲自
▁煤矿
▁抱怨
▁光大
▁开庭审理
▁大涨
▁内幕
▁雅
▁盘
▁横
▁预案
▁提名
▁入围
▁大批
▁强劲
▁国有企业
▁石化
姓
▁中国人民银行
▁未成年人
▁中院
▁产
▁旅行社
▁卖出
▁培育
▁心态
▁清华
获
▁服务器
▁天使
▁记者会
▁贾
▁测绘
▁路面
▁阻止
▁事宜
▁欧元区
▁封
▁甘
▁多月
▁有个
▁景点
▁84
君
▁扣
▁流入
▁聚焦
▁*
▁巴菲特
▁上限
▁增多
▁下属
▁流动
▁近来
▁零时
▁竞争对手
千
▁观
列
▁分布
善
▁查出
▁好莱坞
▁一代
▁通讯
▁许可
▁商户
▁恶意
▁色彩
▁稀土
降
▁水质
▁落后
▁墨西哥
▁失
▁有意
宫
▁巡视组
▁护照
▁有序
岗
▁入境
▁人事
▁公车
▁第一季度
▁两国
▁细
邦
▁西安市
▁实名
▁无需
▁巡逻
▁巨
▁过后
▁机械
洋
▁积累
▁新城
▁室内
▁获利
▁心情
▁本质
给
▁有助于
▁早餐
▁一体化
娜
土
▁石家庄
▁上诉
主义
▁成就
▁报考
▁怎么办
▁斯诺
▁兰
▁草
▁爱好者
▁持平
▁头部
▁负
▁购
▁莱
▁万名
▁监管部门
▁北京大学
▁艾滋病
▁切尔西
▁博拉
▁籍
▁任职
冰
▁搭建
▁真相
▁大国
▁删除
▁界
▁小学生
▁制造商
▁国家队
▁一级
▁宣称
▁远远
▁83
▁恐怖
▁之内
▁国家级
▁关联
▁没收
▁来临
▁候选人
▁携手
▁停牌
z
▁施
▁国际化
▁王健林
倒
▁元旦
▁煤
▁司法机关
▁灵
▁闹
▁埋
▁追究
缩
▁患有
买
▁大气污染
▁夏天
▁秀
▁雷军
▁扎
▁合肥市
▁擦
▁笔
份
学院
▁客流
毛
▁嘉
▁主管
▁塑料
▁复制
标
▁一带
▁太阳能
▁屏
▁颇
▁双十
▁奶
▁宠物
▁卷
▁安卓
▁二人
曲
铁
▁性质
▁快报
▁吸收
▁天天
▁艰难
▁开心
▁种种
▁92
▁1.4
▁接收
▁重启
▁随即
▁该市
提
杯
▁试行
▁随意
▁轨道交通
▁激励
▁吐
▁差异
人员
▁种子
健
▁土豆
▁以内
▁小说
▁和谐
▁听说
▁不仅仅
▁反馈
▁检出
炮
▁自来水
▁说话
▁杀害
▁一本
▁颠覆
▁开除党籍
▁新一代
▁开学
▁平等
▁飞往
▁下车
▁热线
▁彩票
▁饭店
狗
▁刷卡
烟
▁水面
▁阳
▁吕
▁恐怕
▁南非
潮
▁多岁
▁合作伙伴
斗
▁脑
▁高价
▁摄像头
▁节奏
▁一所
▁三名
▁像是
▁禁
▁常常
▁反垄断
13
▁君
▁一行
▁索赔
▁=
扬
▁97
▁上下
▁新低
犯
▁卢
▁导弹
▁获奖
▁属实
凯
锋
▁魅力
常
▁备案
▁此时
修
▁大厅
▁欣赏
▁犯
▁定期
▁数额
▁有趣
▁附属
▁人家
▁儿
▁错过
▁过来
▁渔民
▁国民
症
▁领袖
▁秋
▁据说
▁呼吸
▁萨
▁瓶
酸
▁研讨会
▁输入
▁群众路线
▁年终奖
▁号称
▁党组
领
▁入市
▁此后
▁暂
▁软
▁遏制
▁化学
▁终止
▁现任
▁造假
▁放宽
▁广电总局
▁新华
当
虫
▁拒
题
▁人气
▁馆
▁81
▁病情
▁园区
菲
▁山西省
求
▁最低工资
▁借贷
▁提取
▁全国人大常委会
▁页面
▁见证
▁中期
▁姓名
▁这笔
▁79
▁最小
▁玉
▁命名
▁若干
▁2004
瓦
▁课
▁印尼
▁援引
0%
▁房间
▁抽检
▁增持
▁盘中
▁定义
▁盘点
▁学员
▁栏目
in
若
ar
务
▁花园
▁刺
▁佛
▁u
▁首日
25
▁替代
▁特定
▁标识
▁住院
▁放心
蛋
▁钢
洛
▁早晨
▁社会化
舞
▁车道
▁告别
▁尽量
▁司长
▁天空
▁7%
▁要么
15
▁至于
论
塘
▁所得
▁锁定
▁纪录片
礼
▁招商
▁0.3
▁污水
▁管制
▁变动
▁企
▁st
▁过于
▁本来
▁研究员
▁标签
▁托
▁调侃
▁贬值
▁刊登
▁竟是
藏
▁半小时
▁增至
萨
未
▁黑客
燕
▁红利
▁冒
▁ios
朝
▁延伸
▁25%
▁梳理
▁倾向
▁留学
▁发票
系统
▁余万元
▁讯
准
营
微
▁着力
厅
▁穿越
▁安倍
el
▁财年
▁时说
▁央企
▁总计
▁处以
▁提及
▁榜首
▁低调
▁周刊
艳
▁余人
▁聚
▁盗窃
▁奶奶
▁隐患
琳
▁聊天
▁周日
▁米兰
▁奔驰
▁节假日
济
▁动漫
▁cpi
▁下周
▁总公司
▁万余
▁看似
▁工行
▁青睐
▁揭晓
▁川
▁腿
▁神经
▁通用
▁行程
▁丰
▁三家
▁播放
▁品
▁健身
▁所长
▁座位
▁工商
凑
▁高位
▁经济体
▁党风廉政
杀
▁官方网站
▁歌手
▁展出
▁周岁
▁宫
▁新规
▁入股
▁客服
▁从中
黄
▁题材
秋
▁睡觉
▁品质
▁货物
▁白宫
▁得以
▁2003
彩
▁心里
▁两地
▁派出
▁干预
▁眼球
▁原有
▁入学
断
▁改为
▁无人机
▁亩
▁迎接
▁利息
▁留学生
▁购房者
▁硕士
词
端
▁火星
▁造
▁祝福
▁听取
▁眼中
▁无限
▁环卫工
▁输
岁
▁欧美
▁华润
▁引领
▁源
▁凡
▁中国联通
▁分手
丁
仅
▁公关
▁主角
▁姚
▁博客
▁出手
程
季
▁重建
▁之旅
▁架构
▁考验
▁名称
课
▁伊拉克
▁沉
▁研制
知
均
▁出任
▁细则
▁邻居
▁科研
▁骂
▁家乡
▁碳
▁酝酿
▁年会
深
▁南昌市
▁尼
▁看着
▁私
▁调查报告
▁三板
▁车厢
尽
▁规律
▁一律
▁患上
▁党员
溪
▁助理
▁婴幼儿
▁中山
▁农业部
▁安检
▁摔
都
▁贯彻落实
▁困扰
▁愿
▁机上
▁傍晚
▁个人信息
▁相似
莉
▁弹
▁体检
▁挖掘
▁汇
▁血液
▁不慎
▁公正
▁奥迪
▁度过
▁明白
▁末
▁色情
▁春天
苑
守
▁所致
▁财
▁3.5
▁黑龙江省
▁债
▁陈某
▁盐
▁严峻
▁蔓延
▁接连
▁98
▁联邦
▁毫无
姆
隆
▁传感器
▁发电
▁多处
▁达标
▁目的地
▁一股
▁可爱
▁自从
▁解除
雄
▁学历
▁点评
▁骨
城市
▁水库
煌
浩
▁出于
▁挤
▁等级
鸡
▁有力
▁飞行员
▁缺
▁全身
▁宾馆
▁不见
▁距
▁最初
▁集资
势
▁成人
▁加油
▁抗
▁依
▁副总经理
▁情感
▁大大
压
▁情人节
▁缩短
▁体内
▁携
▁野生
▁细菌
像
▁词
造
▁堪称
▁警
▁经济学
▁价值观
▁反复
▁断
籍
▁光明
▁办案
▁图书
▁1.1
▁日本政府
▁意愿
▁资深
▁漂亮
▁疫苗
▁拜仁
▁良
▁跟踪
▁2500
▁改革方案
▁柳
▁二代
▁慢慢
镜
▁发言
▁第二天
京
▁抵押
出来
▁改革开放
▁0.4
▁商人
医院
▁08
此
▁双双
▁行贿
▁走上
▁多达
▁院校
▁正面
▁第一批
▁不停
▁攀升
闻
▁外观
▁期权
▁破获
▁军方
▁包裹
▁知
▁歌
▁时报
▁统筹
▁无关
警
▁英特尔
▁媒介
▁进出口
▁月末
▁民政局
▁洛
▁扫
▁目光
▁名人
闷
▁瑞典
▁陌生
▁模型
▁马路
▁门前
真
▁站点
▁例如
▁风暴
算
▁蛇
▁底
▁涂
▁季节
▁嘴
齐
共
▁金融危机
▁感叹
▁哥
▁黄色
致
▁每吨
▁大气
古
凤
▁入住
▁升至
▁增长率
▁杭州市
▁求助
众
▁降至
伊
▁受害者
▁刑事拘留
奥
市场
▁执法人员
▁这款
▁科目
▁头发
▁帮忙
▁完工
差
▁区内
▁弄
▁辐射
▁授予
▁170
▁器官
环
滇
▁额
▁合资
怡
▁总队
▁老公
龚
▁旁边
▁乘车
▁英寸
▁涵盖
▁国防
▁接入
▁喷
▁中部
▁高出
▁结论
▁论文
▁金牌
▁出租
▁推迟
▁辖区
▁网贷
▁福布斯
▁后续
陵
兹
▁华尔街日报
▁餐馆
▁职能
▁经济社会
▁旧金山
索
▁核查
售
▁削减
▁上周五
▁喜爱
洪
▁环境保护
▁灾害
▁惊喜
▁大面积
控
▁工作日
▁沿海
▁免
▁4%
▁排查
▁持刀
纸
▁铺
▁可达
▁大片
▁大宗
▁晚报
▁踢
▁愤怒
▁福建省
▁外贸
▁热潮
▁野
▁长沙县
▁击
▁中兴
▁张某
▁售
▁缺陷
▁大火
毒
印
▁绝大多数
▁少女
▁斗争
勒
炎
状
伯
▁百年
▁一颗
配
▁情侣
▁一同
▁坚定
▁基本上
匿
▁陶
▁响应
▁踩
▁胶囊
▁服务中心
▁领土
▁89
▁校
莱
▁残
▁从来
▁谋取
艺
▁看见
痛
▁家具
▁童鞋
▁明日
▁带有
▁社会保障
▁事务
▁营
▁新品
▁泡
▁视觉
▁鉴于
▁嘉宾
▁咬
▁冬天
▁砍
▁大门
▁切
检
al
▁宁夏
▁致使
▁350
▁崔
▁贪
▁粗
▁期望
▁供水
▁降落
▁宗教
▁麻烦
▁本期
▁电动
▁脱离
▁肯德基
▁刑事
▁何时
尾
哈
▁顾
嘉
▁上交所
▁澄清
▁气候
霞
19
▁早盘
徒
▁塞
鲁
珠
▁度假
创
增
寒
▁垂直
▁付出
该
▁灯
▁以色列
▁三公
▁暴露
▁地理
▁小偷
▁护士
▁访谈
▁1.7
▁生长
▁创投
▁留在
▁编
▁责令
▁不料
姨
▁美国政府
▁蛋糕
▁清晨
▁大中城市
▁庭审
▁玩具
▁假冒
▁美军
瞩
▁宁
▁翻译
▁小晨
▁第四季度
灵
▁近年
▁吓
▁火箭
▁波音
▁瘫痪
告
▁注入
吐
▁对抗
险
or
▁天价
▁降雨
▁牛市
▁同行
▁交给
▁遗憾
16
▁拉开
▁积分
▁协同
▁南航
▁激发
▁本轮
▁习
▁专用
▁顾问
▁诉求
▁谱
▁再也
▁互
▁缺少
▁折合
▁坑
▁中华人民共和国
▁吊
换
▁农药
▁心脏
▁慢
▁星巴克
▁浏览器
矿
▁赠送
▁操作系统
▁立场
▁线上
▁携程
▁鞋
从
蔽
散
谷
▁链
▁夫人
75
▁重复
▁部委
绿
▁自愿
▁处在
▁一根
▁杀人
▁配方
▁证件
墙
▁神奇
▁z
▁狂
▁预报
▁免去
▁好好
▁皆
▁第一天
▁主演
▁欧冠
▁捐献
▁霍
▁折扣
▁有机
▁丝绸之路
▁糖
▁冷空气
▁陷
▁亲属
▁上传
▁抛
▁复
八
▁大佬
▁lte
▁总收入
▁94
速
▁援助
鸟
▁大街
▁贪污
▁一面
▁中国证监会
▁党组书记
腾
▁万套
▁浓度
▁高通
沟
▁搬
▁年均
▁扫描
22
▁奇迹
▁零售商
▁精英
蹈
▁控
▁租
汇
▁付
▁男童
▁巧克力
购
▁饭
▁足
▁绑架
▁受贿罪
▁紫
▁女神
芒
▁论
▁互相
▁物价
▁痛苦
▁国会
▁不良
▁复兴
▁港通
吃
问
▁烤
止
▁繁荣
▁公共服务
▁重度
▁高新区
射
▁暗
▁累
顶
▁摆脱
▁老家
▁增值
▁便捷
▁0.2
▁泄漏
▁下班
银
▁麻
▁多方
▁管理层
▁叫停
▁抑制
▁关键词
▁失业
▁调节
糖
▁太平洋
护
▁概念股
抹
仪
▁观念
▁双向
▁送医
▁6%
▁古城
▁有钱
▁自信
▁风波
▁例行
▁港元
▁高度重视
▁湿地
慧
▁震惊
除
▁123
戚
▁国资
▁融入
▁0.1
▁魔
▁原副
▁减轻
▁三四
帆
▁当代
▁这部
▁荣誉
▁首尔
卿
▁爆出
▁土耳其
▁上课
计
赣
▁第二季度
▁步入
▁分行
▁通胀
▁自助
饼
▁坠毁
▁逆
▁客观
▁恶化
▁报案
▁食品药品
▁太原
▁残疾人
▁漫画
▁误
▁发达国家
▁新人
▁富人
▁贯彻
▁暖
▁化工
关系
▁升值
▁成效
▁县委
le
▁&
▁获批
▁发表声明
▁奥斯卡
▁飙升
▁散
▁战胜
▁熊猫
35
▁总会
▁时至
▁时机
▁有限责任
半
▁回国
▁乔布斯
▁区别
▁模仿
▁客人
▁刮
▁不久前
▁消化
▁乐视
▁模拟
▁档
▁优酷
▁受害人
▁终
患
堡
▁教室
▁远离
拍
▁一共
▁不让
86
▁外国人
苦
▁该院
▁苍
▁华盛顿
▁灰
▁果
▁三是
▁拉动
▁完毕
▁北美
晚
▁插
▁丢失
▁日方
▁外汇
it
▁骗子
▁亿股
▁江南
▁签
▁每升
▁英文
▁精品
▁局部
▁化解
批
脖
▁递交
▁资质
▁设定
▁安全隐患
▁高兴
医
▁精准
▁作案
▁牺牲
▁西北
▁干净
▁优
▁简
▁支配
▁立刻
▁传说
久
▁万英镑
▁裁定
▁健全
▁保存
▁贷
▁宏观经济
▁荣
▁颁发
▁竹
精
阳县
▁代价
▁坦言
▁码头
▁租车
▁采
▁核电
▁景观
▁老鼠
▁严肃
▁分红
补
鸽
▁自制
弱
▁搜寻
▁党内
▁参赛
▁凯
余
▁难道
两
▁坏
▁忘
▁走私
▁先行
鸣
防
▁金价
▁球场
▁悲剧
贤
▁校车
▁处理器
▁杠杆
悼
仑
▁势头
▁日均
屋
弹
23
▁缺口
▁证券报
▁早期
▁师傅
▁路透社
噪
▁升温
▁围
▁牵头
▁这起
▁瑞
▁格
▁伤亡
演
▁湘
▁法案
▁转化
▁千元
▁豪
祖
▁地说
▁105
失
▁港澳
▁中国银行
▁基站
▁万亿美元
▁有害
×
▁一艘
▁环球
▁英超
▁严厉
▁技巧
▁攻略
脸
▁韦
具
▁免职
▁价格战
▁时隔
▁路径
液
鳄
▁2.2
▁筹备
▁走红
▁孟
▁中原
▁笔者
▁毫米
▁创办
▁试验区
▁师生
▁遇难者
▁称号
▁营造
露
▁副省长
▁堵
▁售票
▁民政部
▁艘
▁万台
▁恋爱
辱
▁概率
▁一时
▁外部
▁后面
▁油气
▁货
悦
▁遂
棵
▁甚
▁金融服务
▁花钱
▁两周
▁单一
▁高盛
▁西瓜
▁手指
▁做客
▁经济损失
测
▁政务
岭
▁刘某
▁中国民航
▁混乱
宜
馨
▁趁
▁二线
▁美的
▁列为
▁所有人
愁
▁局势
▁航母
66
18
▁行李
▁白血病
▁鲜
▁追踪
▁烧烤
▁标的
属
▁污染物
▁拘留
▁纳斯达克
▁大熊猫
莲
▁浮
▁高清
▁..
▁生产总值
▁哈尔滨市
▁航天
产品
▁900
双
▁尤
玲
澜
▁网点
▁缅甸
▁结
▁迎
▁行政拘留
▁发动
▁调解
登
▁从此
浸
▁锁
▁豪宅
▁国土资源部
▁劝
▁贺
▁网店
▁绝不
▁绿城
▁朝阳
吾
▁大关
▁语文
冠
▁加油站
▁原创
▁深夜
▁开支
▁社
▁凸显
▁被捕
▁多元化
汤
▁发生爆炸
▁新闻出版
样
▁2.0
瞒
▁华尔街
▁蛋
▁二季度
▁如同
▁对待
▁赛事
▁世
▁激情
▁国人
▁合伙人
▁看上去
▁搜狗
胎
脑
僧
▁09
▁基准利率
▁下旬
▁首度
▁1300
▁礼
▁战斗
▁y
▁缓慢
▁沿线
▁05
▁添加剂
▁中新网
▁书店
▁晚会
▁李娜
▁营运
▁个性
鲍
▁情报
袋
击
▁龙头
▁珠宝
▁资费
▁高科技
▁防控
▁都市
▁西湖
▁洞
▁城镇居民
媳
瓶
▁美容
材
农
▁收费站
岩
▁第六
▁网游
▁炸弹
▁动画
极
芽
猫
▁第二届
▁涉嫌犯罪
▁实习
▁味
▁马化腾
▁希
▁检方
▁坚守
▁庄
▁发酵
▁计委
佛
▁喂
迷
▁情节
屌
▁房源
唱
▁认同
▁气象
▁辉
▁钻石
▁附加费
▁评审
▁侵害
怀
▁生效
▁番
▁闭幕
▁微刊
▁优先股
▁承受
▁认购
待
98
▁隐藏
润
▁中国共产党
奶
▁变更
听
筒
慕
▁负债
▁进而
▁亮
▁尔
▁捧
冷
▁考古
▁facebook
▁游玩
▁节约
▁空气污染
▁生命危险
▁十几
▁奖项
▁计划生育
▁主管部门
▁故
▁室
▁初期
▁报销
▁省内
▁举
▁北上
▁色
▁幼儿
毙
▁不当
▁胃
▁击败
▁出动
▁饮用水
▁美股
▁夺得
▁谭
▁山寨
▁抢购
▁士兵
▁焦
▁生于
▁高官
▁ibm
▁影像
▁干扰
▁进驻
没
▁受欢迎
▁许可证
档
甲
27
▁不妨
▁核准
▁校区
▁雅安
密
琴
▁双手
▁孔
▁好像
▁1.9
▁省长
▁不小
▁片区
▁远程
▁即时
雾
▁古代
▁利物浦
▁4.5
▁火热
95
▁......
▁跟着
睹
▁廉价
▁com
▁第二个
▁当地政府
▁流出
▁煮
▁征地
▁护
▁迪
▁增值税
贝
370
▁订票
os
▁抽查
▁点多
堰
▁开发区
▁验证
▁传承
▁民生银行
▁乔
▁警惕
旗
▁好处
▁议员
▁回暖
▁肥
只
14
▁意
▁罚单
▁载
▁农历
▁被誉为
▁裁判
益
纺
▁兑
▁承包
▁辛苦
▁抓紧
▁190
▁有毒
▁已成
▁所幸
▁午餐
▁一年一度
▁随之
▁激动
▁密切
▁机型
▁礼品
▁保障性
▁失望
▁现年
工程
翔
▁性格
▁一头
▁伪造
鑫
▁搬迁
▁箱
▁烟草
▁计生委
▁总共
▁一间
▁稍
▁转账
▁选拔
▁摩托罗拉
73
▁诗
▁不算
▁谷
留
▁植入
▁时速
坏
▁亚太
▁送给
▁价格指数
▁万亩
▁金钱
销
▁锻炼
▁胸
▁该局
媛
▁吉林省
▁仔细
▁所属
▁伪
▁贪腐
45
▁中信
▁搜
▁留言
▁丽江
餐
▁通话
▁怪
▁跌破
as
▁办事
is
磅
%
▁贵阳
▁恐慌
▁扩展
▁相撞
▁禁令
绎
▁2.4
资
▁拿下
▁二手
▁药业
▁致力于
▁符合条件
▁看病
▁打出
▁时光
▁减排
▁牙
▁主张
▁弟弟
▁责任人
▁流失
喻
▁富有
霉
▁供给
▁图为
▁留守
▁魅族
▁弱
▁发出通知
▁常务
▁执行官
柱
念
▁欺诈
▁法制
咱
▁中科院
▁消费品
▁前锋
▁我要
▁前夕
▁钻
枝
▁工商总局
▁历经
▁次数
▁硅谷
▁apec
浆
▁简直
▁上证
▁揭开
▁抢票
戏
▁两条
▁听证会
毯
锤
写
▁借鉴
▁视野
▁英格兰
▁发力
▁传达
▁人文
夷
▁证书
桩
勤
邹
▁祭
▁代替
▁出色
▁中日
65
扯
▁够
▁篇
廖
归
▁促使
▁绿地
▁老年
▁刘强
▁恶劣
▁帖子
▁圣诞
▁遗
奠
33
▁办公厅
▁交警部门
▁异
▁依法治国
at
粪
洁
▁康复
▁互联
▁肇事
泼
▁样品
▁着手
▁救灾
▁一手
播
▁寺
▁赞
▁劳动者
▁些
▁存量
▁时间表
▁厚
▁便是
置
▁送礼
▁等于
▁言
▁制服
詹
▁违约
▁原油期货
▁政法委
▁政协委员
窗
▁电源
▁内心
贷
▁手持
▁动车
▁物资
▁商品住宅
▁该县
▁家居
▁车牌
赃
▁一声
▁秋季
▁肾
玫瑰
▁北斗
▁从小
▁深交所
羡
▁0.7
▁终结
▁三种
▁细胞
醇
葬
▁不适
▁喝酒
▁腰
▁绝
▁竞赛
▁打折
豪
异
▁民营企业
▁警车
怪
▁适度
▁形容
▁过多
▁高调
▁缩水
▁页岩
▁午后
▁面包
▁急救
锅
▁戏
盯
撕
▁金山
▁眼下
▁教育厅
▁入驻
▁剩
▁手续费
支
▁瓜
▁后果
▁暗访
▁哈市
殡
鳌
▁卖淫
萎
直
21
▁评
▁估算
▁苏联
▁党员干部
▁个性化
▁自有
亲
▁遗址
▁财物
▁供应链
▁废
▁支队
▁维生素
▁幸运
捆
▁港口
▁鸟
沧
▁东海
▁南站
▁害怕
▁舌尖
▁2002
▁房租
▁航
九
▁过期
▁金融市场
▁起步
▁性别
▁差不多
▁愿望
▁当初
▁便利店
梨
▁里程
▁反恐
▁源于
▁挣
▁出入境
▁曲
▁社会各界
▁思
▁两者
▁赌博
▁扮演
▁引爆
屯
▁告上
境
▁全美
▁盛宴
28
24
▁等到
▁证券公司
▁服
▁财政收入
▁淘
▁定于
▁燃烧
俭
▁正当
▁连日来
▁采集
▁破裂
▁1999
▁量化
▁欢乐
▁出货量
▁天后
▁自觉
帅
▁舰
▁数十
▁永久
▁一层
ic
▁春季
▁义务教育
▁外来
搏
▁2.3
烂
▁搭配
▁约束
q
▁常规
反
▁新房
▁厂家
▁罪名
▁看望
▁分离
▁万家
跃
▁丹
▁1600
▁手里
楚
▁管理中心
▁住宿
▁2.6
▁竞
▁野生动物
▁停留
▁调查结果
▁盲目
▁政法
▁缴存
▁纪律
▁也就是说
▁网络安全
冬
▁隔
▁屋
▁三人
梁
▁交付
▁计
▁燃气
▁四季度
▁实业
甩
▁限行
坍
撼
嘛
▁一出
▁驾照
▁大使
▁酷
蝇
牟
▁三线
完
▁卫生局
▁笔试
▁倒塌
▁一审判决
▁短期内
▁班主任
鞋
▁阿尔
▁不止
粹
▁劳动力
▁吃货
▁守
▁样本
▁形态
▁这件
▁公共场所
妇
竣
▁赌
做
▁肥胖
▁验收
▁预告
▁2.8
▁旅
岂
▁跟随
▁修建
▁狼
▁投入使用
▁举动
▁一栋
▁兴起
▁07
容
▁池
侠
▁中场
觉
▁客场
▁摊
▁开除
▁口岸
继
斩
▁谴责
▁焦虑
▁中秋节
▁观光
▁剥夺
▁预定
▁这条
▁滑
汛
▁享年
▁妹妹
▁乌鲁木齐市
es
▁三分之一
▁约定
▁不必
▁人选
依
▁议题
▁淘宝网
▁集团公司
▁惠
▁爷爷
▁火锅
▁就医
▁转换
▁好转
冲
▁一夜
▁次日
▁破解
▁文化遗产
▁新娘
壳
▁几十
▁暴涨
▁不太
▁放大
▁提议
府
▁表情
▁迪拜
▁实质性
培
透
▁银川
▁遵守
▁结构性
▁女婴
▁伙伴
▁丰田
▁邵
▁重要讲话
▁禁毒
途
▁零售业
▁前所未有
▁吸引力
▁天堂
▁疑问
▁qe
▁变为
▁佛教
▁缩减
▁占领
霜
驴
▁村庄
咋
▁落下
猥亵
尹
▁争论
▁首例
▁湾
▁黑莓
▁第一位
▁智库
▁对阵
▁会谈
▁后期
付
▁导游
▁摸
▁物理
▁浪潮
薛
▁陪同
▁数据库
▁扶
▁副行长
▁享有
腿
丛
管理
▁为例
▁东风
▁中标
▁转会
▁撒
▁出境
由
78
迹
▁pmi
▁呈现出
▁户外
▁统计局
▁素质
▁消
▁发达
▁穆
瓜
▁通告
▁该行
▁寄
坤
▁标准化
▁公司股票
▁信息技术
▁旺季
▁申购
▁中海
桂
▁上车
泸
▁市政
▁伊斯兰
▁在建
昔
▁佳
轻
▁两只
▁苏格兰
▁边境
▁氛围
▁黄河
▁商报
▁实用
▁枚
▁网传
▁不行
▁夹
▁满意度
▁盖茨
针
▁税率
▁村里
欲
▁建行
垮
▁仓库
规
▁王子
▁出让
▁朴
▁三位
▁身材
退
▁灵活
▁标
佐
▁第十二届
▁考场
▁商用
▁景
▁空军
▁稳健
鼓
载
仕
▁违法犯罪
▁起草
优
▁澳洲
▁原告
▁凤
▁额外
剖
设
欣
▁节省
▁仓
▁华夏
▁中等
▁身着
希
▁城乡居民
▁赔
▁管委会
▁合法权益
▁偿还
▁迪士尼
▁影子
▁童
▁舒适
▁停职
▁看待
▁收回
▁依次
▁小女孩
▁宇宙
▁水中
▁忘记
▁没人
▁无效
▁口号
▁不合理
▁宣告
▁问责
▁年仅
企
▁尿
离
跌
▁高峰期
▁冬
▁防护
▁几名
▁行走
▁国航
杏
▁身穿
▁全区
26
▁卫生部
▁隔离
▁致死
▁风光
▁中断
▁曼城
▁国企改革
▁友好
▁岛屿
鞭
▁假币
▁汇报
粥
▁感冒
▁墙
讶
时间
▁页
▁提振
▁第二批
▁2018
现
▁首款
▁视
▁配送
▁在外
野
▁致电
▁大胆
弈
▁船只
ad
▁3500
▁只会
▁近几年
坡
▁兑换
茂
▁适时
▁安倍晋三
▁算是
煤
邱
▁退役
币
▁豪车
▁经营者
▁法律法规
▁大风
▁胜
▁渐渐
▁痛
▁缩小
▁各界
▁淫
轩
▁热闹
▁监督管理
▁办事处
▁一方
▁单纯
懒
▁td
▁追捧
▁人权
▁桥梁
▁解放
▁衣
▁聪明
▁赋予
挨
▁灾难
▁决议
贴
▁忽视
▁失控
▁android
▁局局长
蓬
▁流转
▁数据分析
▁场面
浑
▁躲
▁武警
▁全文
绒
▁拜
▁辽宁省
▁溢价
▁2001
娶
▁旗
▁打通
▁样子
▁该车
▁哥哥
▁农场
▁姓
阜
▁办公楼
▁小镇
▁既有
▁碗
▁开庭
▁擅自
▁铅
▁名额
▁引擎
▁货运
▁安保
▁健
▁制止
▁县委书记
▁摩根
.0
▁首付
▁出游
▁卖场
▁撤离
▁薄
▁代码
▁制成
▁学位
▁入侵
▁安全性
荆
粘
▁关门
▁一体
▁巴基斯坦
▁皇家
胶
▁余万
▁要是
▁精心
庭
漆
▁意思
▁细分
▁暗示
鸿
▁宏观
▁今晨
▁104
▁开枪
▁搜索引擎
▁本赛季
▁归属于
▁帕
▁总价
▁9000
▁今年年底
▁添
▁盒子
菊
▁桂林
▁树立
▁吸
坊
▁逼近
诗
枣
▁按规定
▁交易额
▁邓小平
盎
▁效益
▁单元
▁救人
▁执政
谜
蕉
▁模特
▁助
▁身影
阱
▁不及
▁会展中心
▁反思
▁卷入
▁治安
▁医疗机构
▁均衡
▁金融业
▁就算
am
▁脂肪
▁赫
劲
▁曼
▁逆转
淹
旭
▁第三届
振
▁假日
▁走高
▁直飞
▁宜
▁直至
▁栋
▁乞讨
▁透过
十
▁照明
结
绝
▁冒充
▁聊
停
▁羊肉
▁京报
害
煎
▁浏览
▁雕塑
岐
悟
模
苏
▁点半
▁省会
▁承办
耳
▁6.1
珍
▁纽约时报
▁扬州
▁大豆
▁按摩
▁大雨
▁高院
▁长远
访
▁通知书
▁前不久
▁口味
▁美方
▁可见
呕
▁认知
▁1.0
▁答复
缠
编
▁撰文
妹
▁网吧
▁张艺谋
▁别的
▁抵制
▁以便
▁返
▁顺丰
▁经纪人
▁路过
▁依托
▁墓
▁消毒
▁国家机关
▁装饰
▁损伤
▁救出
▁结构调整
▁时称
▁不乏
▁闲置
▁靠近
▁告
▁独自
▁口碑
▁重返
▁拉开帷幕
▁波士顿
▁灌
▁舒
▁官兵
▁县城
▁建筑面积
▁1800
▁游行
▁划
▁耳
▁虚
▁创立
▁李先生
▁人次
▁商机
▁块钱
六
▁辞去
痴
▁随机
▁英镑
▁乳业
膜
▁兑现
▁这张
▁店主
▁剩余
评
下来
▁制约
▁纠正
▁重金属
▁热爱
荧
▁股民
▁肌肉
▁东南亚
泡
▁作战
▁2.7
▁各家
旺
▁养殖
▁一番
▁信访
▁过高
▁岗
▁医
▁全资
▁残疾
▁海报
▁公安分局
▁生产商
▁苗
▁流向
急
殿
▁开门
▁走低
▁仅次于
▁不准
▁日称
▁增量
▁县级
▁捐
▁03
▁支行
▁市委常委
▁高空
▁地沟油
态
盐
坑
▁操纵
▁堂
.0%
尚
诚
▁之称
秽
▁平均工资
▁制药
▁看出
▁可怕
▁山区
▁整顿
▁港股
▁全方位
▁字样
▁厨房
▁极为
▁2.1
豆
▁试运行
▁准
▁业态
▁地理信息
▁首相
▁日到
▁相反
背
▁更高
▁跨界
▁南路
▁正规
▁大使馆
▁骨折
庸
▁碰
▁只好
▁被害人
et
▁纪念日
▁脚步
▁般
刺
▁社科院
攒
象
敌
卷
▁直言
▁索
▁婚
▁情形
▁实质
溶
承
▁国庆节
▁昏迷
▁议案
▁岳
▁登场
纬
▁如下
ro
▁挑选
▁谈及
▁深成指
▁玩耍
▁私家车
▁消耗
▁海口市
▁而已
茨
▁夺冠
▁循环
▁工商局
▁走过
▁长城
▁队长
▁传输
傻
▁节点
▁年收入
▁气氛
▁限价
76
试
▁万多元
▁换乘
▁外面
▁飘
▁交换
▁课堂
▁单价
▁担当
▁实施方案
▁广电
铃
▁民航局
▁国家标准
▁腹
磊
▁ic
▁高三
▁床
▁除夕
账
▁起点
▁抵
▁议会
屁
▁港交所
蕴
▁所有制
凉
玛
▁参保
绣
▁高额
▁心脏病
▁下架
▁朝阳区
▁交往
▁罗马
▁全会
▁宏
▁带给
▁极其
▁不良贷款
▁诱惑
▁125
▁扶贫
▁土壤
▁重要性
▁邮政
▁之声
▁四风
▁民事
钥匙
▁美味
▁供电
▁酒吧
▁去年底
荔
▁骗取
翠
▁平方公里
▁三级
▁碰撞
赎
▁上级
歹
羊
▁帐
临
▁顶层
▁黎
▁说道
▁售卖
凡
▁井
禅
牙
▁亿人
▁不利
▁黑名单
▁退休年龄
▁数据中心
▁下放
▁拖累
雁
▁第七
帽
曙
▁站台
▁图像
▁红线
▁5.5
▁矿业
▁炸
▁致歉
▁环卫工人
母
▁服用
严
▁天津市
▁晋级
▁微笑
▁常州
起来
毅
玩
ot
腻
▁纠结
设计
▁一举
寝
▁买下
▁4.2
▁最有
▁0.6
▁暑期
▁相亲
▁上游
稿
▁管理条例
▁显现
▁最受
▁库克
▁好奇
▁东航
▁展会
津
▁值得注意
▁耕地
▁性感
净
▁全体会议
▁职场
举
▁倡导
▁订
▁舆情
膏
纪
▁旅游局
▁题为
▁更名
▁伤势
▁雄
▁无力
蒙
▁关爱
菌
▁上空
▁代言
▁青海
篇
▁中考
▁巴塞罗那
▁保守
刻
▁立方米
▁像素
▁展望
▁感慨
▁目录
▁集合
限
▁暑假
▁卢布
▁信息安全
▁填报
▁肿瘤
▁到处
▁闯
▁工艺
▁生前
▁电价
▁视察
▁对应
▁港币
盒
▁浩
▁兴奋
▁阻碍
▁简历
▁疾控中心
▁立案侦查
▁华谊
▁边缘
▁到场
▁南北
嘴
▁中行
▁联动
96
▁抗战
▁话费
▁章
▁王先生
▁参展
▁扑
▁争
项
温
▁住户
穴
▁男婴
▁报导
ing
▁元起
▁帝国
矩
▁地铁站
▁过往
▁杀死
▁短暂
▁侯
▁导向
▁潮流
▁具
▁海鲜
丸
▁王老吉
▁歧视
▁毕竟
▁闯红灯
▁替
▁suv
畏
▁温家宝
▁华裔
涅
▁得出
▁指示
码
▁要素
▁合影
▁沃
▁津贴
▁试点工作
筛
▁萌
泻
▁口罩
▁富裕
▁坠落
▁蓝皮书
▁演练
▁联合会
▁志
▁3.2
▁船员
▁一波
▁两款
▁长大
▁廉政
▁冰雪
爆
▁全场
▁歌曲
▁寿命
▁任志强
▁依法处理
▁足以
折
▁季报
▁隆
▁美景
▁珍贵
▁护栏
▁消费税
▁圣诞节
▁当成
夏
▁一个多月
▁不予
蕾
▁加重
▁逛
ia
▁糖尿病
钟
▁106
▁缺失
▁国民党
▁传销
郡
▁赛后
▁旅游业
▁物价局
▁肝
▁处罚金
葩
切
▁二审
▁置业
▁早就
显
▁清洗
▁套现
▁凉
亭
▁整整
响
▁行车
▁抛售
▁全额
▁高压
▁耳机
▁应届
顷
▁6.5
▁'
▁取决于
▁居民消费
▁标普
▁洪水
▁中外
必
▁五星级
瞄
▁母公司
▁最新消息
▁嫌
▁速
▁拥抱
▁侦破
▁矿泉水
▁新一届
▁平均水平
▁大幅度
▁桶
▁付款
蹲
▁一倍
▁针
▁一枚
▁鬼
▁社部
倍
▁跳水
▁移交
▁狂欢
搁
▁晋
韵
▁审计署
▁下游
豚
硝
▁年限
▁]
▁涉足
▁浮出
▁首套
摧
阴
▁破门
▁称其
▁预示
▁烟台
▁惹
▁绿化
▁汇丰
工作
▁账
▁观赏
▁酒精
▁某个
缆
▁导师
▁小朋友
▁103
▁原定
▁影院
▁慰问
藤
▁制品
▁滞留
▁占用
▁再现
汁
▁斥资
倪
▁比利时
▁闪
▁不宜
▁[
锣
茄
篷
▁哀
▁临床
▁划分
躁
▁矿
▁清算
▁薄熙来
锦
▁酒后
▁相差
恒
▁取出
▁救护车
▁开拓
▁大理
▁起床
▁提速
巧
▁逝世
▁参与者
▁党政机关
▁最强
扎
▁传来
▁中央电视台
▁教材
▁发病
设备
▁崩溃
录
▁0.8
▁分化
▁108
▁球星
▁积水
▁扣除
▁坚强
忙
▁秘
▁借款
▁工作室
▁不怕
▁尺寸
▁甜
▁羽
▁单日
▁惠民
▁战场
▁检察
▁感兴趣
▁101
▁碎片
▁巨型
▁选出
呀
▁方便面
▁招募
▁跨越
▁dna
▁表决
▁指引
▁准入
葱
▁休
▁变相
▁销毁
粮
▁意向
▁斗
壮
杆
▁事儿
▁个体
▁世界各地
▁vc
▁月亮
▁中央军委
▁双重
洒
▁全天
▁重申
▁复旦大学
▁兼职
▁赴美
▁葡萄
涉
▁商业化
▁孙子
▁衡阳
▁吞
▁解放军
滤
▁祝
▁流浪
衅
核
讯
▁观测
▁税务
遍
▁族
▁内涵
▁枪支
▁基点
▁指挥部
▁充
▁机身
床
▁十足
▁服务员
蟹
钦
▁副校长
▁积
▁原始
▁锦
▁佩
勋
山区
▁一口
何
婚
▁指南
早
▁逃离
▁刊文
▁糟糕
▁清明
▁招收
▁李彦宏
▁马英九
▁行列
租
▁早前
▁遇
▁盗版
▁催
▁搭乘
▁中队
▁使命
产业
▁轻易
缴
▁本网
▁电网
▁强度
▁势力
▁净资产
▁受此
溯
含
把
舍
▁影
▁忽略
仗
▁调查组
▁滚
▁沟
▁来讲
▁出院
▁致癌
▁有利
龟
▁执导
▁一看
▁atm
浦
▁战机
▁性侵
▁115
▁冻结
▁兵
▁新兴产业
朗
庙
▁艺术品
▁重回
▁倾斜
▁经济带
▁上来
▁中医
兜
▁恶
▁出场
▁开会
▁边界
▁演习
▁而成
▁下一代
▁无证
▁险
▁挪威
▁退货
▁vs
▁马年
▁频发
活动
▁led
▁求婚
误
▁解禁
▁纪委书记
▁勤
▁中间价
▁流感
肠
▁副会长
▁上个月
▁事务所
▁傅
阳市
堤
策
▁料
▁阴
▁全长
▁面包车
▁赏
▁拯救
▁中华民族
▁贵州省
▁建委
协
▁倒闭
▁公开市场
▁测量
▁首选
累
▁泥
▁提起公诉
▁鲁甸
▁退票
▁电动汽车
牡
▁星期
仙
▁航站楼
▁抬
▁马拉松
▁写字楼
▁疼痛
▁巴士
辆
▁西路
▁券
榜
▁判
▁几家
▁名校
▁本书
不住
▁对外开放
▁东南
▁附
44
斤
▁不佳
▁公共交通
▁上前
短
▁文化产业
▁前进
▁民企
▁最少
▁中铁
▁摇号
▁墨
寿
▁往来
耀
莹
▁数百
我
▁多条
▁降准
▁家园
▁摇
▁服饰
▁滨海
▁渴望
▁角逐
▁宝贝
▁紧密
▁酸
▁一个个
舶
▁加多宝
▁04
▁成交额
▁生态环境
席
gb
▁每位
▁脸上
戈
▁剪
▁四处
▁日渐
▁不高
栖
▁国务院办公厅
▁浦东
▁充足
▁烦恼
▁事业部
歪
▁刘翔
▁中西部
▁瘦
▁七成
▁六大
il
▁松绑
▁风情
▁剑
▁护理
▁众筹
▁古老
▁传统媒体
▁温州市
竹
▁游览
▁申
▁巩固
鲸
▁求职
▁大雾
便
▁实名制
▁这句
▁06
▁还款
▁居前
▁外形
▁财税
▁分散
翅
危
▁恩
▁简化
▁不禁
▁五粮液
▁拔
邢
▁商铺
▁汉堡
▁耐
绑
中心
▁分成
▁抄袭
父
总
▁上周末
信息
厚
▁220
▁赶快
扒
▁会计
▁粤
▁表彰
▁仿佛
▁长安
▁出事
榆
▁首都机场
▁空姐
▁常年
▁军工
▁二期
▁周小川
▁神器
▁规
与
▁新任
▁投机
赫
▁主打
▁后悔
▁亲友
▁有效期
▁区县
▁澳
▁比亚迪
▁探
▁双胞胎
▁物体
▁界面
▁书面
孔
▁纳税
▁专场
▁滑坡
▁动车组
▁发稿
▁代购
▁频率
燥
稽
▁融
▁运送
捣
细
▁屡
▁肺
▁一封
▁阶梯
▁对冲
织
▁胡润
▁陪伴
晖
▁十二
靡
▁克里米亚
▁数千
▁第二轮
▁军人
▁107
▁比上
姐
▁治病
▁农行
us
▁0.9
▁属性
猪
▁海滩
▁特性
▁建设项目
▁十三
▁损坏
▁转为
▁前面
▁品类
▁迟迟
▁目
▁格外
▁第四届
▁有时候
▁我会
漳
姿
▁捞
▁省委常委
▁拉萨
▁模糊
▁压缩
猝
▁就让
域
▁崩盘
芬
不起
▁没什么
▁身价
▁海底
▁一一
▁省委书记
儒
▁母
▁点赞
▁亲人
▁卖掉
▁城际
▁收紧
▁樱花
▁订购
▁眼前
▁众人
▁烈士
▁驾校
▁春秋
▁好事
▁发育
▁大于
▁低保
▁源头
▁点燃
▁受访
▁磨
▁亲们
▁纪检
▁日本首相
▁商圈
▁网帖
▁拖欠
▁会同
▁签名
▁执勤
债
▁穷
▁确立
▁丑闻
筷
▁胖
童
▁闲
▁国务
▁地带
礁
▁从市
刷
▁获救
▁直达
▁落幕
乳
▁公报
▁沿
▁打着
▁水上
▁迄今为止
▁标题
▁怀
▁第四次
▁3.8
▁零售价格
▁被控
▁个省
▁摔倒
▁稳步
▁练
▁跑车
▁强迫
▁静
▁刹车
醛
▁致命
▁可口可乐
▁公安部门
▁股本
▁行政处罚
山县
浅
▁大事
慢
▁by
▁衡量
▁分歧
▁带到
▁6.2
▁名下
▁婆婆
▁宅
▁净流入
▁故宫
▁医护人员
▁人力
▁怎么样
▁一身
▁当今
114
▁江湖
▁海量
▁几十年
▁差别
投
▁一幅
77
脾
▁大选
▁海尔
苗
▁降雪
龄
▁大病
▁开采
▁自发
▁102
濒
▁停放
▁用水
▁抗生素
▁3.0
▁大通
▁般的
▁排污
▁三国
▁挂钩
▁两倍
▁智
▁地质
▁柏林
▁桂
罐
▁窗户
▁探访
▁交代
▁索要
▁10000
▁奢侈
融
技术
▁公务用车
▁身为
▁幼
▁中国区
▁动员
▁创出
▁保利
▁善
▁主城区
▁增大
▁判刑
浪
▁丹麦
▁途经
▁药店
▁知情人
▁不便
▁立体
▁打捞
▁老大
▁石头
▁公厕
▁停产
▁水域
▁种类
▁杀手
▁购置
▁违规行为
▁优惠政策
▁毁
▁触及
▁药监局
▁十余
▁乱象
▁王女士
▁相结合
▁应有
捏
▁生涯
▁奋斗
洱
启
▁和解
▁解决问题
▁大爷
▁路透
▁彼此
恶
▁上路
▁废弃
涌
36
▁福喜
▁献血
▁功效
▁下达
哲
▁移
文化
爷
▁二战
练
▁杰
斯特
▁同胞
▁幕后
▁开房
些
▁日元
▁公募
▁间接
▁帷幕
冶
▁之上
敬
▁荣获
延
▁特警
锁
跑
橡
▁侵
败
▁冰箱
▁近两年
▁精力
▁查办
▁肚子
采
▁这块
膝
29
封
▁不论
▁蓝天
莫
▁高级人民法院
▁指纹
▁人寿
▁几次
▁闯入
▁洗澡
▁一向
▁少林寺
▁水利
滨
▁毫不
▁延安
▁一杯
骸
淋
▁裸
▁240
▁一瓶
薇
杂
▁鲜花
▁做成
遭
▁借此
▁这批
低
▁公交线路
▁重量
▁饮用
万元
▁用途
▁车子
▁正好
▁东亚
▁上门
▁纳税人
▁迎战
▁寒
▁奢华
▁一阵
▁冒险
▁爱国
▁迈
▁戏称
▁监察
▁用人单位
▁中美
裂
▁市场经济
▁六个
▁拥挤
救
▁可用
▁承载
▁扑灭
▁滥用
▁贝尔
▁嫌疑
辜
▁日常生活
染
▁拦截
▁实地
▁生死
▁在校
▁一中
▁cn
▁会长
▁三地
▁场地
▁显示屏
▁露
▁常用
▁中东
冤
▁勇气
▁滥用职权
▁两项
术
▁芦山
▁中小学生
▁燃料
铭
▁比分
▁乳
娃
▁既然
▁北京地铁
▁女方
▁避
▁铝
▁景象
▁重症
▁针对性
▁聚会
▁值班
▁命
▁铁路局
▁天内
▁沦为
▁关口
▁乐园
▁地域
ch
▁每桶
55
▁会晤
▁配偶
▁假货
初
▁颁布
卵
▁学子
▁行动计划
▁清新
移
积
▁载有
顽
▁好消息
▁那种
▁失业率
▁学区
靓
▁祖国
髓
▁偷偷
▁雷锋
▁内外
▁工会
▁义乌
▁蒙牛
▁有何
祈
▁畅
▁葡萄酒
▁汶川
▁象征
48
▁六成
处理
▁熬夜
▁报复
鸥
薄
▁乙
▁伤员
▁雨水
▁促
▁道琼斯
坟
▁1998
▁电子产品
▁降到
▁招录
玄
▁题
▁随便
▁西甲
▁如果说
▁检疫
▁激活
▁珠江
聂
▁湛江
▁肺癌
▁测
▁评为
骄
▁审
▁武昌
▁医疗保险
娇
饶
▁阿富汗
▁该项
▁惠州
▁窝点
▁低开
▁全是
蓝
▁百元
▁疏散
▁东路
够
哟
▁中共中央政治局
▁3.3
▁半数
▁环境污染
▁1400
▁常务副
▁葡萄牙
▁曾任
▁数月
▁109
▁李宁
学家
▁陌生人
▁新款
▁好人
▁旗舰
▁公安厅
▁热烈
▁车间
▁潜规则
▁认
▁奇怪
▁寒冷
▁党中央
▁净值
▁丧失
▁带上
▁农户
▁科普
▁谈话
▁悄悄
娟
▁天数
亟
▁使馆
▁无期徒刑
▁停电
▁名列
▁探测
▁美国股市
萍
▁沙滩
▁工作者
捅
▁弃婴
▁颇为
▁阐述
ay
▁义
柜
且
▁保定
▁熟
▁数码
▁留给
▁情妇
▁发掘
.99
▁徐州
▁限量
育
▁写作
▁房地产业
▁中称
遇
▁金华
▁任何人
▁部位
▁欧洲央行
▁佩戴
仓
疾
▁人会
▁层出不穷
▁缓刑
▁暴雪
▁呆
▁仙
▁浓
▁城管局
末
▁12%
▁委内瑞拉
▁友谊
傲
▁私有化
▁彩
须
▁公办
▁皇
▁汕头
▁未必
▁月球
▁一职
▁内置
▁碧
▁抛弃
谦
▁高大
▁星星
帮
▁老太
▁珠三角
▁开辟
襄
▁解救
▁芬兰
庐
乘
熊
▁三十
▁神话
▁高龄
▁政
▁填
▁艺人
▁google
▁储蓄
▁课题
▁离世
st
▁几位
▁规格
▁1100
尔斯
▁内衣
▁不已
紧
啃
▁浅
▁分级
▁竞选
▁收于
▁航天员
▁人民大会堂
▁症
▁虾
▁淡
▁病房
▁图案
▁印刷
▁本报记者
▁日电
▁冻
▁水稻
▁楼顶
▁推销
▁广深
▁段时间
▁缴获
▁养生
▁目前为止
▁查明
▁车队
▁转入
▁冬奥会
▁厉害
▁残留
▁厅长
幢
▁收养
▁烧伤
▁热心
▁键盘
典
▁红旗
▁13%
▁贩卖
▁进去
▁打响
▁欠
▁追尾
▁智能家居
▁杭
▁瓶颈
▁刑事案件
▁经纪
▁组织部
▁组委会
需
▁签下
▁惠普
▁器
扁
▁逐年
翼
▁门诊
▁贪官
骂
孵
▁减弱
▁服务平台
坝
跳
▁秘书
▁略有
▁岁月
妈
骏
坛
▁篮球
▁温泉
▁国旗
责
昆
▁日后
▁敢于
ac
▁八成
脂
▁暴利
▁参照
辄
▁恐惧
例
愉
禄
▁遵循
▁黑马
▁抓捕
▁135
▁涌入
▁腐
▁停车位
▁刊发
▁另据
▁充值
▁杜绝
▁叫做
▁音
▁迄今
▁灰色
▁日向
▁一日
▁销售收入
▁这辆
劳
47
鞍
▁误导
▁容忍
据
▁跳楼
▁税费
▁半决赛
▁参会
▁中小板
哄
▁南海区
▁跌至
▁急性
94
58
▁面部
▁演唱会
▁普通人
▁敬
啸
▁跑道
▁列出
▁报业
▁检察官
▁远超
趴
▁略
▁跪
阁
碎
▁扩容
栽
▁限额
▁全县
负
▁地价
▁碎
▁姐姐
▁挡
巷
▁席
钙
▁正义
▁同业
▁市中心
▁五六
▁荒
▁看点
▁数字化
彝
▁所说
▁手法
▁注定
▁该片
▁民意
休
ho
捷
▁就读
43
▁蒸
▁看过
▁普查
▁在职
▁所在地
甸
▁碰到
癌
▁录像
▁达成协议
▁奇虎
▁正值
▁卫生厅
▁4.3
▁记住
▁姿态
幅
▁劲
阵
▁乌龙
畔
▁管理处
▁地下水
▁盗
▁想起
▁食用油
▁理
▁鼻
助
▁气体
争
▁效力
▁快捷
▁全家
▁征税
▁咸
灾
帝
▁二十
▁工作组
▁尚无
作用
▁产业化
▁串
斑
▁解答
▁契机
闽
▁前者
爽
▁发展趋势
▁第一家
▁精选
▁猜
浇
颖
.95
▁当事
▁乌市
▁赞成
▁疑
▁棚户区
翘
▁派遣
▁余家
93
妃
▁综合体
抢
▁继承
▁疲劳
▁疯
▁失主
砂
▁下单
▁茶叶
栋
淡
▁凶手
▁管理人员
魁
裤
▁波兰
▁因而
▁上行
▁上任
▁ac
缘
▁特权
骆驼
ed
▁弹性
圆
▁红十字会
▁剧院
▁耐心
▁倒地
ap
▁专项资金
▁民办
陀
▁缝
▁用户数
▁首要
▁450
▁窗
▁长期以来
能力
▁动用
逗
▁顿
▁门户
▁协作
稳
▁写道
掷
钮
▁本科生
▁劫持
▁跌停
▁董事局
▁边防
彬
▁有权
畸
▁掌
▁明确提出
▁助力
▁bbc
▁甘肃省
▁建国
▁不顾
▁柯
▁增长速度
▁东盟
▁油田
▁社会保险
▁黄某
▁3.6
▁以免
尸
▁现货
▁招考
▁失误
▁十个
▁监
▁主板
▁上访
▁推测
▁职
琪
拔
▁小吃
▁孤
▁白皮书
▁工程建设
涝
▁商会
▁保监会
▁抚养费
▁首场
▁打死
▁溺水
▁不易
▁降水
▁保密
▁监视
▁弥补
▁理事会
▁醉
▁交易平台
烈
栏
狮
▁四中全会
▁走路
▁储存
▁惩罚
▁政治权利
就
蝉
妻
▁光标
▁洗衣机
▁某种
熟
江县
冕
效
▁第一名
▁胶
▁明确规定
▁htc
▁历程
▁战略性
▁动手
▁教训
拟
▁唯
▁好吃
▁增加值
▁锅
▁新开
▁批捕
▁奖学金
▁标语
▁省部级
▁用品
▁基建
碱
▁放入
▁哲学
即
▁防卫
▁这才
▁犬
▁赤
▁奶茶
▁学科
▁渔
▁海岸
▁福特
券
▁枪手
▁九江
▁充分发挥
▁口袋
▁返还
▁夺
供
▁环保部门
▁历
▁原价
▁诚
▁疲软
38
▁精神病
▁三成
▁高点
▁年纪
▁绕
▁阵容
▁能见度
▁防空
零
▁号召
▁争端
盆
71
柏
▁可乐
邯郸
▁信仰
▁书籍
使
▁本国
▁必将
▁空白
▁260
▁畅通
▁雇员
七
▁情人
▁受审
▁几率
▁上扬
▁五条
▁扭转
▁小伙子
▁四五
▁北路
▁呼声
▁75%
▁参
▁悉尼
▁论证
▁先是
▁名牌
▁实物
▁步行
▁管控
▁动荡
▁桑
▁3.7
▁低碳
▁驳回
▁语
▁蓝筹股
▁扎实
焰
▁经济运行
▁辛
▁轻微
▁争吵
▁的哥
▁离不开
▁姐妹
▁例外
▁编剧
愿
▁心灵
▁颜
▁娃哈哈
▁毫升
▁企图
▁止
▁南京大屠杀
▁约翰
▁跨国
克斯
▁温和
▁见闻
▁多为
▁中信证券
▁电视节目
▁观望
▁三峡
▁自由贸易
谋
▁似
▁净利
▁就诊
迭
▁开往
▁动机
▁出自
▁曼谷
▁不符
▁迈出
▁柜台
▁素
▁丽
▁ktv
46
▁230
▁佣金
▁多久
唇
▁投向
▁山体
▁闻
甄
▁热传
▁7.5%
▁windows
奎
▁太平
▁差异化
▁肩
虹
▁黑暗
▁接着
▁点名
俗
银行
▁排名第
▁定为
▁河道
▁居住证
鸦
▁一辈子
沾
▁北海
▁操控
▁发现自己
▁后台
▁芝加哥
拱
▁几百
▁大巴
灭
▁京城
▁计生
占
▁红会
▁从不
▁码
▁巨人
▁今早
▁辅助
甫
▁分流
▁肖钢
▁不时
▁槽
▁wi
▁出身
▁长途
▁募资
▁放到
▁有待
粒
▁李女士
ab
▁尽可能
▁座椅
▁注册资本
▁灵魂
粽
▁分开
▁钓鱼
▁耳朵
▁预估
▁轮胎
▁华北
ps
城县
复
淑
▁出差
▁品尝
晶
▁灵感
▁弘扬
▁智能化
▁之争
▁格力
▁当庭
跻
部门
▁回避
▁组长
▁组成部分
▁主办方
▁太多
▁奔
▁海航
▁内阁
▁激光
棒
▁避开
▁批发市场
脉
▁层次
▁绝大部分
▁公立医院
▁亲密
蛇
▁修正
▁硬币
▁人行道
▁酸奶
▁六年
▁张女士
▁股东大会
▁使用权
▁35%
▁考点
▁视角
▁神州
▁买单
▁牵
▁将要
▁一卡通
▁善款
▁访华
岸
蜜
▁利润率
▁再融资
晃
▁若干意见
▁油品
▁汉字
▁华丽
▁匹配
▁95%
▁投产
▁奉献
姆斯
▁进度
▁示范区
蚀
▁违章
▁改编
▁周永康
▁市级
▁占地
▁都市报
▁重灾区
▁注射
▁挣钱
▁逾期
▁车位
▁厨师
▁签字
▁海水
▁录用
▁人质
▁供需
▁悬崖
▁轻伤
纹
▁私自
▁国道
▁供暖
蒜
▁集成
▁射击
▁水位
▁水源
▁关税
莎
▁俞
▁身家
▁剧情
沃
▁产业园
▁郭美美
▁打人
欧
▁标注
扳
▁路由器
▁原则上
▁开行
蜗
▁公职人员
瑟
▁环卫
▁低位
▁罢工
▁不法分子
▁指报
▁落网
▁前方
▁勇敢
▁4.0
▁希拉里
▁带回
▁9%
▁彭丽
▁房管局
▁好多
▁京沪
▁笔记本
▁迟到
▁颁奖典礼
▁闻名
▁当月
▁内在
宿
▁塑化剂
▁丝
▁千亿
▁写下
▁数年
▁侧
▁保健
▁市盈率
▁六个月
▁犹如
▁退还
▁渐
▁廉洁
▁钞票
▁不确定性
▁赵本山
▁兑付
喝
▁饱受
▁活禽
▁阵雨
寡
▁银联
▁意味
▁基本面
▁前一天
▁不堪
▁停工
▁多重
▁培训班
▁任期
▁广告主
▁耗资
渤
▁飞船
▁市场需求
▁累积
▁颁奖
▁受众
▁经理人
▁交互
▁最高人民检察院
▁一斤
▁零部件
▁骗局
▁割
▁编写
▁角
▁购车
日报
▁悲观
▁子弹
摊
▁大叔
▁外籍
▁果断
▁交通拥堵
释
熏
▁可靠
▁收缴
▁急需
镉
▁含税
▁账单
▁诱发
▁功
▁鲜明
▁科学技术
▁竞价
钉
轨
▁民用
▁休假
▁助手
▁作弊
雕
▁可惜
▁生鲜
俩
▁谈论
▁中国社科院
芜
▁镇政府
▁强降雨
▁用电
▁年化
▁立交桥
婉
▁还原
▁大致
▁呼
▁扬
▁280
▁县政府
桌
▁任性
▁服务商
▁等候
坐
▁舒服
▁助攻
栈
▁督查
▁退税
▁亿吨
▁体会
▁截
▁成员国
▁中文网
册
▁中国工程院
▁王国
▁容量
▁延
▁已然
▁偶像
佩
▁冲动
▁蒂
▁床上
▁音乐节
▁防御
▁颗
▁不吃
▁开户
▁富豪榜
▁汉语
嫦娥
▁金砖
逸
▁善于
▁第八
▁多云
▁指向
▁小车
▁4.7
▁批发
▁国有资产
▁成年人
▁优良
沉
▁弃
▁缺席
▁拐
▁霸王
▁追逐
壁
免
▁载人
ur
▁失事
▁示威
▁发展中国家
▁不该
▁泛
霸
▁限度
▁阶层
▁塑造
▁人性
▁此项
▁据调查
▁徒步
▁普遍认为
▁战士
▁恢复正常
▁视力
▁首轮
▁牙齿
▁注
叫
▁比尔
▁郭树清
▁自拍
▁爆炸案
▁意在
▁绍兴
▁托管
▁枢纽
馒
▁长寿
▁一副
▁挥
▁大三
▁玩法
▁刘志军
▁119
▁辣椒
▁三号
顾
▁沙特
▁为民
▁当作
研
▁行凶
▁发生冲突
▁快播
▁昂贵
▁型号
▁进城
▁晕倒
▁餐
▁村委会
▁一类
▁交警支队
舰
▁灯光
▁开店
▁报收
▁他称
爪
▁华东
▁持枪
▁清除
公园
▁水价
▁头条
▁多天
▁学业
蛙
▁3.4
盈
▁琼
▁默克尔
▁恐怖袭击
▁年终
▁抗震救灾
▁光线
敞
▁手上
新闻
▁扎堆
▁十多
▁注意力
▁踏上
制度
▁务实
▁彰显
▁罪犯
▁气质
▁建材
▁判定
▁筹建
▁开创
▁棉
▁肝脏
▁赌场
▁楼下
un
▁置
▁重工
▁鹿
▁来袭
▁美术
男
▁特意
▁千年
om
▁短时间
▁小雨
▁提请
卓
▁快速增长
▁祖
耻
▁自动化
▁提拔
▁为首
▁水电
▁席位
萌
▁低成本
暖
▁打包
▁横幅
▁音乐会
磨
▁河流
备
▁11%
▁原先
讳
▁法学
▁玛
▁骚扰
▁讲座
▁国防部
▁平静
▁伯格
坪
▁森
▁复合
▁岩
瑶
葵
▁阶段性
▁光纤
▁下挫
惟
▁垃圾桶
▁最差
▁停运
榴
▁装有
▁行业协会
▁公投
▁坎
▁湖南卫视
注
疑
▁114
▁落水
▁绵阳
▁扰乱
▁高德
▁01
▁3.1
▁刘先生
▁激增
▁十一届
▁眼里
▁增发
▁征求
弃
▁其他人
▁幅
▁专车
▁开封
▁普尔
▁会面
▁懂得
▁期盼
▁堆
▁餐桌
▁点球
▁第九
签
▁出让金
▁储户
▁保卫
城区
▁进出
▁黄牛
▁并处
▁液体
▁肉类
▁细化
▁日年化
▁高架
▁乐趣
▁入手
▁送上
▁军训
▁击中
▁词汇
▁竞技
▁网络营销
▁设有
▁增资
撞
▁省纪委
▁称赞
淇
享
▁116
泌
▁露天
▁带头
▁via
▁暴恐
▁滴
孙
穿
▁戴尔
围
▁ta
残
▁尾
▁败
▁汉口
虚
▁礼金
▁反对派
▁坪
▁倒计时
▁公主
▁320
▁长春市
教育
舌
▁侧翻
▁原理
▁湿
▁摄入
审
▁跑步
▁尊严
▁智能机
▁时任
▁外语
碌
▁四成
▁宜宾
▁出席会议
▁征
▁营业额
▁发来
▁劝阻
▁118
▁鼠标
▁气候变化
▁香烟
▁一经
▁高发
▁渝
▁可疑
▁上去
▁考研
▁物种
▁直销
▁高手
▁选址
▁开办
▁密
▁第三个
旧
▁南沙
▁网球
▁草莓
▁遗传
渡
▁枪击
▁网络游戏
▁旗舰店
▁胎儿
渠
▁人心
▁越野车
▁约会
婷
沂
▁向前
▁益
▁多发
▁半年报
▁通行证
▁政权
▁固定资产
▁深受
历
▁多款
▁接送
▁保时捷
▁发行价
▁移植
▁小狗
枯
▁冷静
划
▁配件
▁薪水
▁查封
▁亿英镑
▁半岛
▁烟花爆竹
▁就餐
栗
桶
▁勒
屹
▁好评
▁5.2
▁大黄
▁精美
▁务工人员
▁楼房
▁年期
▁据此
▁致敬
▁微型
震
▁分管
▁车门
▁第五届
▁归还
▁初创
▁扣押
著
▁幼女
▁无人驾驶
烯
▁华南
▁招聘会
▁繁
▁否定
▁书法
▁内有
▁倡议
▁崇
▁接口
▁唱歌
鼠
▁影业
▁电视机
▁称之为
▁从业人员
▁村官
▁专家建议
▁部副
沥
▁113
▁家乐福
秉
▁漫长
横
▁生成
▁副司长
▁草原
▁偶然
▁2400
▁机组
▁国土资源
▁感恩
▁逐
▁开着
▁宜家
夺
▁一楼
▁筹集
▁共和党
▁暴徒
▁踏
操
▁小额
▁僵尸
▁信托公司
▁剧烈
妙
▁命令
▁有史以来
▁遍布
▁晴
▁职业生涯
罚
锂
▁获刑
蘑菇
▁南山
▁惊呆
im
▁十五
▁与会
▁底部
▁陈先生
▁全球化
▁断裂
▁致辞
▁专属
潍
▁射
▁焚烧
▁团结
▁纽
咪
▁催生
▁美元汇率
▁女星
▁迅雷
袜
▁中药
畴
▁手工
▁两侧
▁top
弟
▁父
▁在场
▁个人所得税
▁看守所
▁进来
▁今夏
嫖娼
▁逃生
▁最低气温
公里
行业
瓣
▁包围
▁4.4
▁对华
灰
▁行使
▁节后
▁新春
▁元至
▁辣
▁半月
湿
▁保证金
扣
▁达沃斯
▁亿日元
▁基准
▁税负
▁孤独
▁02
▁市面上
▁二胎
▁试水
▁被动
▁晒出
▁过渡
▁见义勇为
掺
▁俗称
▁拟定
▁5.0
▁谁知
▁隆重
▁葛
椎
▁tcl
▁莲
79
▁故意杀人罪
幕
▁设在
用品
邻
▁1700
汀
鲨
▁问及
▁元宵节
▁朗
委员会
▁交割
郎
▁小组赛
▁升高
亡
▁上浮
▁看不到
▁刑法
▁其间
墩
▁亚太地区
▁7.5
ne
▁国民经济
▁中学生
▁特价
▁哥伦比亚
|
皇
▁高楼
▁链条
▁零售价
▁假如
▁形状
▁质监局
尖
▁小客车
▁邮箱
▁揭秘
▁用餐
▁光荣
▁掌控
▁域名
▁微博称
▁一把手
▁渗透
▁神舟
▁海拔
▁遗产
▁泉州
▁聘请
腰
▁同性恋
▁梁振英
▁王石
▁道路交通
▁烂
▁顶尖
▁哪怕
▁精致
▁大部
▁大幕
▁本场
▁孔子
▁鼻子
▁成年
洗
▁日趋
▁一百
▁老伴
韶
▁政策措施
▁海淀区
▁实体店
▁卡梅伦
▁总决赛
▁共建
▁杨某
▁童年
▁暴
▁说起
▁有过
▁ch
▁联络
▁橙色
▁宗庆后
▁证券化
▁尾声
▁克服
▁事物
▁发微
▁突
▁违背
闹
▁厦门市
▁外滩
▁战斗机
▁说出
▁平常
生活
▁对面
▁布置
▁资金面
拿
▁消防员
▁加之
▁延期
宾
▁精确
▁赶来
▁重重
▁前列
▁室外
▁狮子
▁草根
▁一再
▁召集
▁就业率
▁拨
窄
▁麻将
▁庆
▁敦促
▁货币基金
▁纯属
▁车内
▁修正案
烧
▁韩寒
▁沉默
▁弱势
68
▁清明节
▁露出
▁总有
▁长三角
▁网银
▁平壤
颗
▁散发
▁老兵
▁仁
▁黑车
▁应用程序
▁衰退
▁一双
▁5.1
▁逃跑
▁分数
▁乳制品
请
▁洗牌
绍
▁前行
狭
犬
▁毛利率
▁迫使
协会
▁活着
▁领导班子
软
▁气息
▁诉
▁权限
▁骨干
▁17%
▁昌
鼎
▁移动游戏
▁专家学者
▁18%
▁视线
▁成龙
▁牌子
▁高潮
较
隙
▁科幻
▁两三
▁做起
▁头上
▁汇聚
▁白银
▁蒸发
晨
窜
▁总和
▁有近
▁气象部门
▁砖
▁重心
▁袭
妮
▁百亿
▁原材料
橘
▁人造
▁犯罪案件
敛
▁体质
▁高涨
▁成交价
▁棒
锈
▁易购
▁一流
▁绕行
▁三星电子
▁米歇尔
尺
▁水下
▁趋于
▁柳州
▁棉花
▁鸡肉
▁卓越
▁必备
▁摘
▁马德里
▁处长
不上
▁气味
▁鞋子
▁可控
▁饥饿
▁合力
▁督促
▁商界
▁宣
▁沉重
▁餐具
▁中长期
▁期货市场
▁事先
监
▁壮
▁年里
▁投融资
罹
▁痕迹
▁etf
▁副县长
▁gps
▁国家电网
▁杰出
▁喜剧
▁贩毒
▁不利于
▁深深
▁公开赛
▁端午节
▁状
▁屡屡
▁一月
ol
▁患病
扛
蔚
▁调试
▁至关重要
▁临时工
▁好看
页
棱
▁薪资
▁练习
▁极具
▁暂行办法
▁总金额
▁预言
▁踩踏
▁nba
祎
▁省区市
▁各省
▁欺骗
▁票据
▁访
▁倒数
▁幸福感
亿
▁梦幻
▁窃取
▁悬挂
减
酋
▁人民银行
▁定点
▁减刑
▁赶往
结构
▁法新社
▁商贸
▁首期
▁210
略
▁微调
▁劳
▁申请人
▁批准逮捕
▁中国科学院
▁建筑物
▁分数线
▁副教授
▁做饭
欢
▁筹划
▁太高
▁标志性
▁这套
▁收费公路
▁地标
▁军团
▁适宜
▁辟谣
▁常识
▁招行
▁编号
▁价位
▁2300
▁波及
▁大声
▁备忘录
趣
▁保姆
▁金色
▁误解
▁三轮车
▁返程
▁友
识
▁俩
辣
▁儿女
▁试试
▁没法
▁敲诈
▁最高检
▁出访
▁青岛市
▁平民
▁按时
▁赛场
▁实施细则
▁包子
▁加紧
▁塌陷
▁违建
▁录制
▁2030
▁工商银行
▁何种
▁监察局
▁驾驶证
▁得分
▁卫生间
▁中航
▁情景
▁文科
▁申诉
句
渊
▁甜蜜
▁借口
▁迁
▁绩效
▁百余
▁千万元
▁手机游戏
▁女王
▁搜集
▁4.6
▁两张
ts
▁蓝牙
妖
▁自律
导
▁提倡
整
▁有用
▁亲切
▁珠海市
▁采取措施
▁蚊子
▁疯传
▁管辖
▁豆腐
▁帽子
▁抓好
▁人间
▁正如
瞻
▁客运站
▁交管部门
39
▁挪用
▁劳务
己
▁刘铁
▁广药
▁载体
▁繁华
▁锡
▁主线
▁热度
▁姿势
▁快餐
▁娱乐圈
▁四家
侮
▁一万
▁珍惜
▁伤人
▁遇上
▁那时
▁彩色
▁残忍
▁未有
▁理科
▁广发
脱
▁以上学历
▁多么
▁0.0
▁材质
▁丑
37
▁柬埔寨
▁老牌
▁风电
▁船上
▁登机
▁身后
▁hk
▁直径
▁气象局
▁出血
▁人身
▁净化
▁4.8
▁撞倒
▁早晚
▁城市化
刊
辈
崭
损
▁一家人
▁领到
▁加密
32
▁一顿
▁误区
▁场上
媒
▁场合
▁打印机
▁续约
▁明明
寨
▁邮轮
▁实惠
▁明胶
▁虐待
▁酱油
▁马克
▁步骤
▁大都
▁一贯
帜
施
▁一汽
▁动工
▁网速
▁智商
★
耗
▁家门口
▁差点
▁售出
▁国家税务总局
▁大庆
矫
恋
▁十多年
▁七个
▁偏高
▁隐形
▁放出
工业
▁赖
▁新生儿
睡
▁办学
▁运转
壹
▁郊区
▁价格下降
▁强力
▁难得
▁输出
▁中央政府
企业
▁生态系统
▁已久
▁沙漠
戛
▁过分
▁下图
墓
▁醉酒
▁复旦
习
骗
▁掏出
▁8.5
▁几分钟
▁收视
▁优雅
科学
▁肌肤
▁工商部门
湘
橄榄
仔
▁大雪
蜘蛛
▁笔记本电脑
▁14%
▁续
囤
▁128
▁七年
▁幽默
▁生动
垒
▁荣耀
▁争相
▁娃娃
▁无意
▁死因
酷
诀
▁纲要
▁伸出
▁阵营
▁常委会
▁南方日报
▁念
答
怒
▁袋
▁急剧
▁间谍
▁天地
▁门将
征
▁指令
资源
▁总资产
▁手机用户
▁加价
枕
▁大肆
▁大地
▁算法
▁克里
鹰
▁这时
慑
槿
▁会场
山市
▁北京警方
滑
陷
▁节前
▁车身
训
49
▁火山
▁生病
▁雷达
▁高峰论坛
▁中国式
▁放行
▁置换
▁从严
▁散步
▁迁移
▁星级
▁融券
▁大增
讽
▁再创
▁招股
▁刚性
▁揭示
娘
▁起降
▁基数
墨
拢
▁门户网站
▁教堂
▁推送
▁类别
▁店里
▁中粮
▁大暴雨
▁文化节
▁形
▁大象
▁威廉
▁日军
▁宝贵
▁这组
▁妈
辞
▁黄岩岛
▁撰写
▁现阶段
▁转载
▁招商银行
▁爱好
▁周鸿
▁手机号
▁索契
▁用工
▁增添
▁净亏损
▁偶尔
▁我区
▁确
▁发给
▁撤
▁室友
▁骑行
▁队友
▁水晶
▁红灯
▁株洲
id
▁风景区
▁性关系
▁万张
▁纪
▁填写
▁天才
▁赞助
▁放置
▁不知情
▁同一个
▁来往
▁南阳
▁职务犯罪
▁通往
▁第二季
▁阴影
▁触
▁爸妈
▁诸如
▁138
▁之类
▁颈
嘲
▁变形
em
▁验
勉
▁警力
▁名片
▁电影院
▁玩游戏
▁妹子
▁资管
▁抑郁症
▁投资方
摸
▁鄂尔多斯
▁夜晚
▁五次
▁米粉
▁民调
▁下方
陆
▁夸张
▁寒冬
▁阳台
85
▁tv
▁苯
▁研究者
▁117
▁听证
▁减速
▁柴
▁当做
▁固
▁供热
▁足协
▁依照
▁擅长
31
▁突击
▁安静
▁辅导
▁今年春节
▁美分
▁衣物
▁奉
▁高新
▁对不起
脏
▁偏低
▁推介
掐
▁耗时
麻
▁高中生
▁资产重组
▁三月
▁该机
▁负增长
纯
▁缴
▁人中
▁端午
▁表述
▁简政放权
▁看重
碾
▁第一步
▁商贩
▁肯
▁左手
▁福利院
▁拓宽
▁答
▁塘
▁胸部
▁敲定
▁宁波市
▁1997
▁向上
▁敬请
▁裁决
什
▁走廊
cm
▁上班族
▁任意
▁磋商
▁当地人
私
▁房东
▁伤口
▁盒
▁公信力
▁山镇
▁扩
▁积极性
▁出演
菱
▁村干部
▁发货
▁乔治
▁畅游
▁申办
▁干旱
▁敌人
▁微博中
▁婚纱
▁4.1
▁ip
▁不惜
▁年率
▁专科
▁转给
▁时起
▁过量
▁车窗
黏
▁不靠
▁出版社
▁开头
▁twitter
▁摩
▁新民
▁蛋白质
▁直辖市
▁太原市
▁架次
▁倾
▁爱立信
▁墓地
戴
▁视网
▁早日
觅
▁嘉兴
软件
▁入场
铲
▁饮酒
▁严格执行
▁法人
▁副厅长
▁性价比
▁出示
▁捐助
翻
▁饲料
▁汇总
▁个案
禧
▁疑犯
郝
▁制订
▁头疼
▁七八
▁交涉
▁总值
▁伏
腹
▁反击
▁体育场
▁号牌
人民政府
▁名誉
▁唐山
▁助推
▁产品质量
▁企稳
▁多只
许
▁买来
▁中国队
▁专栏
▁出入
俏
▁道理
▁浙
▁女朋友
▁愈演愈烈
▁欲望
▁更具
▁未婚
▁广阔
▁低头
▁免税
鸭
▁林业
▁征信
尘
▁旅程
▁冲刺
经济
▁lg
▁之势
辰
▁回去
▁家用
▁座谈
▁免签
怜
哨
▁管理工作
▁只不过
▁宴请
▁职员
▁美国市场
▁靖国神社
▁趟
▁小男孩
灿
技
▁厂房
▁闭
▁借钱
▁德州
▁下跪
▁例人
▁期内
▁嫁
▁园林
鹤
葫
▁短缺
▁男士
▁好心人
▁退款
▁尼日利亚
▁劳工
推
▁讲解
桐
▁饲养
眉
▁遮
▁16%
▁减免
▁游艇
▁透明度
▁多米
▁外围
渭
▁缅
▁穷人
▁根源
▁主机
▁6.3
▁1995
▁增设
▁同城
▁脱颖而出
▁从省
▁紧随其后
糯
▁消防官兵
溜
狂
再
▁拘捕
蓉
▁体育馆
▁心目
▁捕捉
▁过敏
▁代表性
▁晚餐
▁商学院
▁模范
寂
▁面对面
▁募捐
▁外表
▁日记
▁民俗
▁为名
▁另一名
饺
▁撞击
▁两起
时代
▁中兴通讯
▁sh
▁吴英
▁专卖店
▁市场营销
▁过大
▁招牌
▁售后
黔
▁封顶
▁巡
▁跟进
▁加以
挟
▁协定
▁分列
▁屋顶
ip
▁类产品
▁归来
▁第二位
▁营业税
环境
▁八个
▁京广
安县
▁严惩
▁金融中心
▁寒假
▁醒来
▁时常
▁漏
▁黄埔
▁浮动
▁凡是
72
▁赶赴
泥
▁土地出让
▁中将
▁一等奖
▁超高
▁知名度
▁门外
▁仲裁
▁终点
赞
▁没能
▁占有
▁超生
▁质
窥
▁市场竞争
▁城市群
▁恨
▁中超
▁2.9
干部
▁关停
▁着火
▁充斥
圣
▁交通部
▁2200
舟
陋
▁标价
▁改装
▁监禁
▁电台
▁风力
▁独生子女
▁墙上
▁筹
▁辆车
怕
独
挂
▁超速
▁童话
▁孤儿
▁之久
酱
鹿
下去
艇
▁鸿
ig
▁扭曲
▁署
▁汽
▁编队
▁绑
臂
▁统
▁三类
▁每平方米
▁编造
▁得益于
▁提价
▁中奖
▁款项
▁购入
re
▁交管局
▁砍伤
▁医疗卫生
▁1990
▁水资源
歼
伏
▁上将
▁知名品牌
▁监测数据
嵩
▁进京
▁求证
▁揭牌
▁迅猛
▁领跑
▁放下
▁注销
▁各有
▁中国人民大学
▁国籍
▁右手
▁慈
▁成绩单
蝴蝶
▁寸
▁隆重举行
▁小麦
▁长得
▁杂
▁交易市场
悔
▁确有
▁二者
徘徊
滩
▁上旬
▁撑
▁家禽
▁生活费
▁背着
▁大二
诫
缸
▁机长
▁恰恰
诟
▁繁忙
▁技术人员
▁交易量
▁仿真
▁出具
▁执教
▁未果
彦
组织
▁凌
▁合成
梭
▁企事业
▁沙龙
剔
▁拐点
▁说明书
▁东站
▁药品监督管理局
▁电子书
廷
宁县
▁集装箱
▁卧室
▁零食
氢
▁伯
▁美剧
▁警报
▁巡航
▁规避
ang
▁充当
▁娄底
▁面向社会
▁意图
▁官场
▁古巴
▁积蓄
▁纳米
▁并于
▁骑车
▁金融时报
▁专职
窘
▁功夫
棚
▁迷你
▁阻
▁新郎
▁考上
▁年级
▁进化
▁严厉打击
▁显
抖
▁更改
桑
▁抚养
▁南极
▁患儿
▁存放
▁中年
▁试运营
▁医务人员
▁地板
▁连夜
▁分工
▁口腔
▁臭
▁首页
64
▁备战
馅
▁国王
旅
▁入户
机场
▁工业化
▁践行
▁罐
▁名录
▁赢家
▁灾情
▁钢琴
▁出路
▁招股书
▁一时间
▁上方
谢
▁整形
▁社局
岳
▁悲
te
▁区委书记
▁从业者
▁经济体制
▁打入
▁前途
▁兴建
验
▁狗狗
▁智利
案件
▁街上
▁腹部
凌
▁接力
▁过节
▁归属
▁选民
▁忠诚
▁极度
▁三项
▁果汁
▁输送
▁劳教
漏
▁热销
▁封存
▁戏剧
▁本月底
▁长度
▁强国
▁饿
▁钢材
▁诸
▁烟花
▁当当网
▁最高法院
▁远高于
▁考试院
▁笼罩
▁残酷
▁航运
条件
▁新闻联播
▁鼓
▁蜂蜜
▁管理制度
爵
▁乳粉
▁韩联社
▁债券市场
▁中欧
靠
▁参拜
▁脆弱
禁
▁女司机
▁华侨
__
渎
▁漂浮
▁梅花
▁通州
▁摆摊
▁1996
69
▁空客
▁收官
▁摆在
▁废除
▁回调
柿
▁前任
颅
▁养成
▁仓储
▁默默
▁谋
▁感知
▁默多克
▁建业
▁劣质
映
▁球衣
▁源自
轴
▁外长
▁生产线
▁mm
▁抛出
▁很小
▁跳槽
▁直呼
▁亿美金
▁执
▁通奸
▁用药
▁负面影响
▁父子
▁停车费
▁直指
▁失信
▁希尔
▁建设部
▁储
枫
▁南通
▁篇文章
羽
▁东北部
▁系统性
▁农贸市场
朔
▁伊利
▁小王
▁遇害
▁于本周
▁开放平台
聊
▁韩剧
▁邦
揣
椅
律
▁爱奇艺
▁不成
▁中国海
犀
▁今起
▁大学毕业
▁盘面
▁峰值
▁4500
▁总面积
▁戒
锐
▁丰厚
▁车载
▁不肯
▁准备金率
▁45%
▁恤
▁新闻办
哺
僚
▁纸质
▁耳光
▁落入
般
▁查实
战争
▁关切
▁激进
▁一小
▁马尔代夫
单位
▁封面
▁多多
猛
▁少量
▁自营
▁高薪
▁互联互通
榨
奈
▁选购
▁详
▁银川市
▁有益
竖
▁受害
▁开除公职
盟
▁取暖
▁不起
薪
撬
▁郁
▁晨
菠
▁八大
▁长相
▁普通高校
▁露面
▁造谣
费用
▁晋升
▁大人
▁追问
▁裤子
▁深陷
▁来源于
▁一碗
▁使用者
▁此轮
▁民政厅
▁收视率
▁恶心
▁赔付
▁立交
▁银泰
▁整容
▁排行
▁经贸
▁贯穿
▁苏亚雷斯
▁雇主
▁管理者
▁报酬
▁一刻
▁分裂
▁肾脏
▁松下
▁这方面
▁评委
▁离岸
▁前十
铺
▁强制措施
▁诈骗罪
▁天文
▁抢走
▁财政局
▁第十届
▁核电站
▁用车
▁叠加
▁三农
▁要点
▁洽谈
▁多样化
▁空前
析
▁饰演
▁发生变化
东县
舱
▁捉
▁产值
▁另类
▁同日
运动
嚣
▁凡客
▁平均价格
▁合作社
▁155
▁如期
▁经营权
▁最贵
▁soho
▁网址
▁270
尊
▁冠
▁尖
▁木马
▁大局
▁原型
ec
▁136
▁谢谢
孝
▁多辆
▁疲
▁收报
▁丝毫
▁平凡
▁透
▁零点
▁兼任
仪式
凳
蹄
▁一分钟
▁身体健康
▁85%
▁集聚
频
▁银行贷款
▁古镇
▁宜昌
▁文化部
▁热水
▁从业
▁不力
▁彭博
▁亚军
▁膨胀
▁勇
▁接替
▁走强
▁张家界
▁初步统计
▁好玩
▁人工智能
▁人流
▁新农
▁亏
▁鼎
▁qfii
巅
▁央视网
笛
▁南水北调
▁红酒
嫂
▁自首
▁世人
▁食材
ex
▁转身
▁火势
▁副总
▁莲花
▁全国性
航空公司
▁侨
▁引用
烹饪
▁鸣
梗
▁舍
於
▁回报率
▁www
▁所得税
▁录音
熄
▁东莞市
▁公益性
霆
▁答应
.15
斯基
▁惯例
▁国泰君安
▁角落
74
▁心愿
▁影视剧
▁心动
▁低估
▁罪行
▁行政长官
▁眼光
▁穿过
▁资
宴
▁面纱
▁帖
灶
▁127
柠檬
隶
▁多方面
▁数万
▁牵手
▁不可避免
▁高水平
▁侠
摩
墟
▁卓
▁0.1%
▁坦克
▁原油价格
▁响
▁出品
▁此番
醒
▁地段
荡
▁中国外交部
▁分辨率
▁生理
▁极限
▁手臂
▁摆放
▁抢占
▁想想
▁销售价格
▁吞吐量
▁题目
▁环境保护部
▁婚恋
判
嗅
▁振兴
▁教育部门
▁导
▁找回
▁夜市
▁收窄
▁印有
▁潜逃
沛
ir
▁震动
▁打伤
▁卡车
▁衍生
▁后市
魂
▁陈女士
嘱
▁全都
▁无可
▁发微博
▁迟
不可
▁耐克
▁艺
▁最牛
▁搞定
▁第一夫人
绽
困
▁统治
俨
▁五月
▁无缘
▁no
禾
63
▁大四
▁人格
帕
▁供应量
▁排水
▁党政
▁证券日报
▁主因
▁appstore
▁悬念
▁热播
▁小张
▁刻
▁得主
▁夸大
▁作文
▁主教练
▁财政厅
吨
▁口径
▁迈克尔
▁卸任
▁检
▁农夫山泉
▁衔接
▁留意
▁庞
▁证券市场
▁皇帝
▁超载
and
唐
▁挣扎
▁化妆
▁枪击案
.75
▁水分
▁下称
▁汇款
▁净化器
▁0.5%
▁强硬
▁过快
醋
▁下半场
▁示威者
▁改签
懈
▁工伤
桃
▁描绘
▁迪奥拉
弗
▁案情
辛
▁推向
▁2100
▁桃
▁交叉
孜
▁直属
▁区分
▁高速路
▁香格里拉
▁马桶
▁海通
▁动画片
▁思科
▁立足
▁石墨
▁海警
▁席卷
▁披
▁划定
▁威尼斯
▁恐
▁辩论
▁钢筋
▁沿着
▁王林
▁校友
▁曾多次
▁北极
▁高血压
▁传染病
▁昆山
刑
▁同类
▁参股
赖
▁分拆
▁新书
坚
▁套利
▁血管
▁店面
▁利器
蒲
▁美联社
▁界定
▁争执
▁叔叔
▁免收
▁低收入
▁填补
▁老太太
▁今年底
▁四名
▁之子
▁分解
▁专业人士
汗
委会
▁遥感
▁小贩
▁雷雨
琐
▁上下班
▁象
▁演变
▁熟知
▁不服
▁抢夺
▁推特
▁诺贝尔文学奖
▁中央政治局
▁组团
▁头号
梯
▁医改
▁着急
▁肌
▁万部
炉
▁恶性
▁务工
砖
▁校服
▁反腐倡廉
▁加热
▁亿立方米
▁两辆
▁毕
▁副所长
▁大牌
▁流星雨
▁卖房
申
▁第九届
▁被查
捍
焕
▁发了
▁接种
▁进站
▁订阅
▁高新技术
▁内蒙古自治区
▁口头
▁纵火
▁设想
▁上万
▁重达
▁菜刀
▁时节
▁饮水
▁书写
▁交出
▁财季
▁挂号
▁免征
▁佛山市
▁小小的
▁lumia
▁失衡
▁干细胞
▁忍
秒
▁区委
▁随手
▁日产
▁清醒
▁新台币
▁离去
▁谋求
芝
▁小时候
▁封锁
▁人称
▁判处死刑
▁博称
▁仪
▁通航
▁外卖
▁入狱
▁奥地利
▁各路
▁医师
▁花样
▁忧虑
囊
▁进攻
▁股份制
▁寺庙
▁热衷
▁勘探
衫
▁更要
▁交通工具
逊
刃
螃
▁返乡
▁同期相比
旦
巫
▁伍
▁京华
仲
▁绘制
▁pos
▁发烧
▁佳兆业
喊
▁抄
▁千米
▁1994
▁娃
▁就近
精神
▁uc
▁水务
▁新片
▁渔业
▁三亚市
川县
▁卡通
嫩
▁挽救
▁亿万富豪
▁有偿
$
▁回头
喉
默
▁莎
▁讨
▁除非
▁邮寄
麓
▁逃逸
▁暂未
▁董明珠
▁大卫
▁机组人员
▁偷拍
▁局地
▁放学
宪
▁社工
浴
▁fi
▁酒驾
▁笑容
▁泛滥
▁间隔
▁余个
▁诞辰
竟
学校
▁透支
▁锦标赛
▁百万元
中央
av
▁消防车
峙
▁忠
▁5.6
▁低温
卉
▁多日
羞
▁御
▁大兴
▁绑定
▁关怀
▁举报人
▁电子邮件
▁vip
▁二楼
▁为止
▁医疗器械
▁八年
▁艰苦
▁虫
▁淡定
▁哈佛
▁下限
▁特惠
▁纪念馆
窒
▁愈发
▁大闸蟹
▁国防部长
▁巡回
ta
▁拖延
▁刑事责任
▁怒
▁兴业银行
▁光环
消
▁多亿元
瀑
▁充电器
▁同比增加
▁白云
▁汽柴油
▁平日
▁到访
▁励志
▁困惑
咯
▁入院
贸
▁穆里尼奥
▁山上
▁旺
▁犯罪团伙
▁智力
▁下令
▁男方
▁在京举行
▁奖品
▁上岸
▁容纳
▁选取
贼
▁同等
▁极致
▁小于
▁逃避
▁熬
▁证券交易
▁国标
鬼
▁温哥华
▁层层
▁上证综指
▁留住
▁地处
▁引述
▁首部
▁文革
▁芦
▁内马尔
▁府
▁航行
▁还给
▁坠楼
▁热量
政策
锡
▁冷冻
❷
▁解析
▁高等教育
▁处级
▁企鹅
▁危
韧
▁美国纽约
▁后卫
阿
▁乏力
▁罗杰斯
▁大酒店
▁首条
扬扬
▁班级
▁命题
▁遥远
▁户籍制度
▁市内
▁幻想
▁不难
▁罚金
▁较差
▁拉升
▁洗衣
▁警官
▁晚期
▁强台风
▁买不起
▁恐龙
▁报废
▁流动人口
▁潮汕
▁雇佣
▁阻力
mm
▁陕
▁餐饮业
▁高尔夫
规划
▁今年年初
菇
▁大有
▁注资
▁哈佛大学
▁bat
▁营业部
聚
▁imf
▁欢
瞎
▁淡季
▁5.8
▁一口气
▁楚
▁长约
▁难免
▁服务费
紫
▁记载
▁技术创新
▁巡查
▁沉没
▁干警
▁邮
▁动摇
▁加息
▁公认
▁食药监
▁凉茶
睿
▁狠
颐
微博
▁全过程
▁发车
▁这部分
▁无比
雌
绳
▁发生争执
▁复牌
▁纤维
▁两日
范
▁3.9
▁润
▁已婚
▁大潮
颂
▁桌面
▁收缩
91
▁下落不明
▁模样
▁天生
▁剧本
▁本田
▁店员
▁基调
▁产出
靴
▁自带
▁误读
▁快件
▁销
▁跳舞
▁第六届
▁献
▁常住人口
▁大腿
▁定增
▁中央财政
▁有名
▁得不到
▁作物
泪
▁有意思
▁过境
▁黄山
雹
▁一两
▁院方
▁logo
▁粒
▁比起
▁凶
▁演示
▁合格率
掌
媚
▁兆
▁改名
▁通关
耶
▁尤为
▁一纸
▁底特律
▁兔
▁代言人
▁浓厚
▁糖果
▁前妻
od
▁六七
▁震中
▁官司
▁低端
▁海关总署
蹭
▁拦
後
沸
▁案发
保险
▁改成
▁积极参与
▁1992
▁无果
▁星沙
胸
人物
▁发热
▁收盘价
搅
▁可行
▁爱尔兰
▁承接
▁不远
▁本级
▁每秒
▁关注度
▁大麻
▁卡拉
▁星光
▁上证指数
▁开局
▁380
▁忍不住
▁躲避
堆
▁5.7
▁生猪
▁强奸罪
▁不应
▁车库
▁国土局
▁农田
▁钱财
▁正回购
▁交友
▁黑白
▁中海油
▁口感
▁镇江
▁九成
▁推开
▁漂
▁探测器
▁浦
▁凝聚
▁全城
▁气球
▁保养
▁滨江
▁震源
▁银河
▁孙女
▁华语
▁风采
掠
▁救起
▁开闸
▁宣传片
师范大学
▁曲线
▁日内
荼
▁候车
乌
▁畅销
晒
▁院线
.12
籽
▁送来
▁综合性
▁大臣
▁姚明
嵌
▁开售
▁曼德拉
▁万件
▁近距离
▁孙杨
▁空域
▁保护区
▁美国国会
煽
▁国学
▁主城
▁周某
▁办证
▁兼并
▁利比亚
▁已超
▁摄氏度
▁大军
▁狗肉
▁台州
▁资源配置
▁备
▁始发
▁敲
▁首创
▁闪电
▁专家组
▁艺术节
▁终极
▁进场
▁144
▁换成
▁枪杀
▁存活
乏
▁两点
▁圈子
▁赶上
▁一千
阪
▁公证
▁标杆
▁质押
简
▁坚定不移
▁宏观调控
▁支持者
堕
▁尺度
▁市县
氨
▁开玩笑
▁绘画
▁遗忘
▁树木
❶
缺
▁干脆
▁轨迹
▁拟以
▁中信银行
效应
▁安邦
▁挖掘机
▁辩护
▁上岗
▁哈萨克斯坦
▁145
▁婚姻登记
▁死亡率
▁决定性
▁他会
▁兴业
宅
▁堵车
分钟
▁调度
▁盛会
▁天府
▁半价
▁148
▁并用
▁高房价
▁教官
▁罗姆尼
▁专线
▁婚宴
▁风口浪尖
▁四位
▁跨省
逢
▁瑞银
矮
猎
▁敌
▁一户
▁迫切
细胞
▁做生意
▁mx
▁湘潭
▁试卷
硬
▁恐怖分子
▁一大批
▁潜
▁cnn
▁烟雾
▁低点
▁重塑
晋
▁住所
诽谤
▁清水
▁吃掉
▁168
▁龙岗
34
▁交通委
▁急于
▁未成年
蚂蚁
▁过半
▁裹
▁支援
▁四分之一
▁民主党
▁缓
▁合伙
▁巨星
▁偏好
▁较量
▁颗粒
▁新作
酸盐
▁坡
▁一票
▁菜单
▁水准
▁吉隆坡
引
▁造就
▁打压
▁捕
予
▁5.3
▁容
▁尼康
电池
▁也好
那
▁儿童医院
▁意志
▁营业厅
彪
▁211
糊
▁医患
▁实战
世界
▁手套
▁出庭
▁挤压
▁安监局
▁南车
▁各种各样
▁大户
▁无罪
▁大举
▁美术馆
▁天桥
▁建立健全
▁模块
▁触摸
▁高开
▁国情
▁中央政治局常委
▁忽悠
▁慕尼黑
▁销售量
▁盈利模式
92
皂
▁非机动车
▁马丁
▁学籍
▁运动会
▁秒杀
▁假设
▁一下子
▁升空
▁夫
聪
▁亭
▁昭通
输
▁越狱
珀
▁航展
▁小店
▁曼哈顿
▁守护
▁污
乾
▁监察厅
▁比率
▁等国
▁旅馆
▁5.4
▁立项
▁司法解释
▁朗德
▁一届
▁一站
▁三条
▁离家出走
诠
▁耶
▁不同于
似
▁工作岗位
▁生产者
▁丧生
▁保罗
▁滞后
▁看电视
▁少数民族
▁康师傅
矛盾
▁6.6
▁自救
交易
▁黑人
.98
▁下水
▁咖啡馆
▁端的
▁半导体
▁来回
沪
过来
▁话语权
▁那天
▁聘用
▁掩盖
▁一堆
▁领衔
ba
▁猴
▁复出
▁意识形态
猴
肋
ev
麦
▁施救
▁组装
▁抽取
▁真诚
峨
▁换取
▁交叉口
沐
▁报社
▁捐出
▁很长
▁附加
▁总体方案
▁一分钱
▁炒股
汞
噱
▁早些时候
▁拿走
▁火锅店
魄
▁环评
▁驻华大使
朵
炬
▁脱落
▁如火如
▁在线教育
▁批判
让
▁仁川
▁多出
▁大亨
▁二手车
▁上交
▁崔永元
▁余震
▁尽早
沸沸
▁pk
▁谎称
▁日为
▁世界卫生组织
▁无聊
▁揭露
▁三一
▁远洋
▁外企
▁学期
▁传到
▁仅剩
▁交易中心
97
▁横扫
▁孝
▁年头
▁取缔
▁山路
▁良心
宁市
▁妨碍
▁免除
▁较强
▁成品
澳
▁126
箭
▁博会
▁高职
卑
▁利润总额
▁居民楼
囧
▁意甲
▁初衷
▁大力发展
▁停课
▁赚取
▁买票
▁追逃
不动
▁大自然
▁销往
袍
▁每到
▁坠入
▁学生家长
▁开来
▁柏
▁张家口
▁大戏
▁十几年
▁毒性
▁滑雪
▁务必
▁北站
▁研究会
▁春节假期
秤
▁辽
▁高昂
▁ar
敷
▁泥石流
▁松动
▁四大行
▁蟹
制品
▁联想集团
▁暂无
▁房贷利率
科技
▁抓拍
▁东湖
▁宝座
▁身患
▁路演
▁因在
污
晴
▁情怀
▁晶
▁医学院
▁危重
▁互通
▁并入
▁真心
▁叙
▁漂流
▁冯小刚
▁尚德
碗
▁潘石
▁瘦身
▁做事
▁困
距
▁区域性
▁书画
▁廊坊
▁粮
▁分在
▁保住
▁高低
▁裤
▁政绩
▁好几
婿
▁该剧
▁并轨
▁新快报
▁进一步提高
借
▁海淀
▁画家
▁战役
故
▁相识
▁回合
▁脸部
窑
▁产妇
▁劝说
▁激素
▁柯震东
▁政党
▁获准
▁徐某
▁见面会
▁收受贿赂
▁壁
▁忽然
▁惊呼
▁一门
簿
终
▁享
▁国际足联
▁实习生
▁禁区
▁负有
睫
▁挪
▁垫
▁攀
ak
▁英国人
▁年货
▁克林顿
▁台上
▁小鸟
▁张晓军
▁第五次
▁史玉柱
蜀
▁半夜
▁内裤
▁赔偿金
▁自学
▁国家旅游局
▁野蛮
▁伴有
▁省钱
▁挽回
樟
▁早报
▁萝卜
水县
▁花生
▁称该
▁迁徙
▁坊间
▁耍
▁心跳
醉
价格
ma
▁盈
▁教科书
▁醒
▁汗
▁微生物
▁检察长
匠
▁年度报告
▁床位
▁造价
▁一具
▁通行费
▁小小
▁广播电视
▁福田
国家
▁客厅
▁陶瓷
▁身处
经营
诊
▁大呼
▁交通管制
▁衡阳市
▁加薪
炳
▁炮
▁台湾地区
▁阻挡
▁去向
▁追赶
▁裂缝
▁2.5%
▁其后
▁十月
▁抢修
▁没事
▁议论
▁纵
▁高富帅
▁集会
▁四周
▁乳腺癌
诉
卦
▁景气
▁珠
▁新浪网
▁潜水
▁787
▁月度
▁面子
▁小轿车
▁午间
▁雕像
饰
▁直线
▁夏威
▁助学
▁一元
▁一眼
芯
蜡
问题
▁游戏机
▁亲子
▁000
壶
呼
▁杀人案
▁博士生
▁执飞
拳
❸
▁申遗
▁复星
▁0.2%
▁出土
▁第十一届
▁打砸
▁辱骂
▁投标
畅
▁安全带
▁载客
▁架飞机
▁应付
▁做空
▁呼和浩特
▁娜
▁扇
▁严肃处理
▁法则
▁向来
▁真实性
▁三方
▁军舰
▁什
▁上半场
▁萧山
▁创纪录
▁扩建
▁所用
▁中说
▁两级
▁警员
▁重点项目
▁四级
碧
▁光电
▁伸
斧
▁抗日
▁滴滴
▁三期
▁仪器
▁向往
▁元宵
▁帮扶
▁送达
▁调动
▁直观
▁散户
▁塑料袋
▁公开信
▁营救
诵
▁谋划
▁你家
▁合规
倩
▁升级版
▁伴侣
藉
潭
▁为准
殷
▁大中华区
▁双眼
▁信息系统
▁青山
▁河水
亏
▁盛典
▁餐饮企业
▁研
迁
▁多层次
▁请假
▁问世
▁神马
疆
小姐
▁划算
▁先锋
▁出面
▁无偿
▁四天
▁与否
▁无一
▁wp
▁女主角
▁重现
▁捕捞
▁霸气
揪
▁纽约市
瘦
人士
▁抽奖
▁秋天
▁悬赏
报告
抗
▁量产
▁虹桥
▁竞拍
▁第十
▁肯尼亚
▁饮
▁四季
▁顿时
▁核桃
▁185
▁亿万富翁
▁65%
▁保健品
▁铁塔
▁陌陌
um
苛
▁4.9
▁彭博社
▁燃煤
扇
舸
匣
▁历年
昂
▁之日起
▁深水
▁翻番
▁婚后
▁规范化
▁十六
▁率领
▁一站式
噩
阮
▁相连
▁害
▁这会
▁两成
▁诺贝尔奖
▁多特蒙德
▁赵某
匆匆
咳嗽
庚
▁连环
▁经商
▁鲁迅
▁太过
▁一早
▁老龄化
▁彼得
▁112
▁放映
▁长久
▁海内外
筑
▁风雨
▁1993
▁反抗
▁内存
▁化石
▁西站
▁配有
▁乞
▁勿
▁股票市场
▁准时
▁客流量
拨
▁交接
▁专业化
▁债市
▁悉数
抱
▁地下室
▁扭
▁盲人
丘
▁出租汽车
▁并列
▁一女
▁流产
▁晕
▁卡塔尔
▁lv
▁车次
▁并报
▁公诉
▁再生
▁cc
▁188
▁打架
炼
椰
▁强拆
▁特区
▁二号
▁7.2
淤
▁悬
▁选项
▁老外
▁px
▁理事长
▁集结
▁省公安厅
▁即期
恭
▁万公里
窟
▁损毁
▁细致
▁让座
攻
▁停滞
▁挖出
▁cctv
▁英尺
▁公平正义
▁燕
▁例子
▁著称
▁齐聚
▁店内
音乐
▁一夜之间
▁电气
▁世界级
▁有木有
▁场内
▁高原
▁55%
▁稳定性
▁农作物
▁盆
▁战术
▁沙发
▁外星人
▁车轮
▁水产
▁牵动
▁吵架
▁海岛
▁天河
▁忍受
▁散布
右
阎
▁阿联
仪馆
▁不容
▁涌
▁改正
▁油脂
▁狐
▁翼
▁平价
▁董秘
▁中级法院
▁病死
▁人性化
▁酷似
圩
▁发病率
▁沈阳市
▁日本共同社
▁158
▁头像
▁拼命
▁礼仪
▁桌
▁自卫队
▁疼
▁权威人士
▁蓝翔
▁榜上有名
▁拥
▁壮大
42
▁51%
▁乐队
▁这支
▁宅基地
▁利空
▁ott
▁来电
▁江北
▁开场
▁民政
▁龙湖
盾
▁生气
几
▁eastmoneynews
▁公益活动
▁这片
▁汉子
棋
▁不可思议
▁为啥
▁精华
闺
嫖
▁人情
▁烧毁
▁句
废
▁减税
▁米长
镕
▁世界纪录
▁配售
▁idc
侄
俯
▁支线
泣
铸
▁声誉
▁受阻
▁样
▁中介机构
▁毒素
▁头痛
▁问候
▁一味
▁从根本上
▁近视
▁邀
▁中山市
▁镜
▁眼泪
甘
肚
▁黄金价格
▁印度尼西亚
▁自贸
▁亿人次
▁理工大学
窖
▁符号
▁费率
▁概括
▁win
▁面膜
▁申领
▁所有权
▁开建
植
枚
▁张贴
▁芳
▁灭火
▁稀缺
▁最先
▁从来不
▁文中
▁海滨
▁尊
▁帝
▁每晚
弦
▁购买力
笋
绥
▁xp
▁纸币
▁逢
▁狮
▁菌
▁巷
号店
▁信誉
▁社会保障部
▁评分
▁ces
ie
▁出轨
▁抽烟
▁1980
▁八一
▁坚
▁地道
▁虚构
▁越发
陨
▁重型
棉
▁服务质量
▁自豪
▁候选
▁苏丹
▁没用
靖
▁99%
▁路灯
▁时会
汝
▁荷
▁金牛
▁仍旧
▁数百万
▁报料
▁启发
▁维稳
▁千万别
▁想着
▁之路
▁大海
▁分割
▁治愈
▁权重
柯
▁111
▁束
▁城中村
▁脏
▁8.2
南县
▁奶牛
.69
▁分发
▁下周一
▁严查
▁母婴
斯塔
▁登山
▁买车
▁毫无疑问
▁封杀
▁主义
.35
▁社长
▁旋转
▁290
▁考量
▁体力
▁胆
▁引人注目
▁烧钱
铁路
▁肿
▁经济网
腔
▁猴子
▁数名
兆
▁管网
▁风云
▁扫下
▁国税局
娅
▁零下
▁吉利
▁阿拉伯
▁送检
▁盗取
▁联席会议
▁省高院
▁工程项目
▁下线
▁共青团
▁民工
▁金条
▁九龙
▁头晕
▁这类
▁连云港
▁操
▁筹资
吸
贯
▁主营业务
▁推算
▁摩擦
▁已近
▁双边
作品
▁头脑
胖
▁产品线
▁北约
▁将军
▁扎克
ou
▁无线网络
篡
▁保值
▁城堡
▁测评
貌
▁满载
▁轻轻
▁一个多
▁频
▁哪家
▁流血
涵
标准
▁高跟鞋
▁学霸
▁月工资
发展
▁处处
▁讲究
▁全景
脊
▁眼看
▁首饰
▁舟山
▁衍生品
▁新东方
▁之战
▁出战
▁165
乎
▁开播
▁壮观
串
▁恐吓
闵
▁雨雪
▁紧缩
▁面板
▁出海
▁本是
▁315
硕
▁不论是
▁炮轰
▁背包
▁清扫
消息
▁铺设
▁欠款
▁津
▁歌舞
▁集群
颜
▁生源
▁2600
∶
▁中央气象台
▁二环
▁数次
▁北京地区
▁经济区
▁细心
▁上帝
▁cntv
妄
▁差价
▁交易员
▁聚餐
▁东京都
▁天山
氧
▁深层次
▁佳能
▁公开审理
▁在此之前
▁温格
▁24%
▁网信
.65
▁表白
▁领导者
▁便民
▁半天
▁惨遭
▁一到
▁桌子
▁大额
▁富含
▁同伴
嫁
▁保险制度
▁湖泊
▁赫然
▁三角
▁私下
▁经营性
央企
源县
▁应聘
探
▁两场
▁四次
▁涉案人员
蚕
▁惠及
▁密度
▁随身携带
▁信阳
▁成名
▁野外
▁伴
▁淡水
▁条约
▁之初
筹
▁零售店
▁圆通
▁is
▁慎重
▁夜里
▁旺盛
敦
▁演唱
▁盼
▁剧场
▁认罪
▁播
▁改版
冻
美元
▁机顶盒
▁夏普
▁交通安全
▁深入开展
▁开关
▁镜报
▁菜市场
▁管线
胃
▁追回
汽车
▁打假
▁惊现
愧
▁劫匪
尿
▁红军
▁不安
恳
▁桃花
▁陈述
▁齐全
▁云集
▁欧洲杯
泵
▁已致
▁22%
▁大手笔
▁公职
▁酱
▁瑞安
返
▁长效机制
▁信息产业
▁坚称
▁无视
垦
▁科技部
▁已过
▁县长
▁分校
▁代理商
▁饱和
▁接任
▁尼亚
▁老乡
▁洛阳市
▁深港
▁接手
▁威海
▁尸
▁方正
▁保荐
▁sp
▁亲手
▁拦下
▁抢险
▁寿
楠
窝
▁千里
▁慢性
▁函
寂寞
▁地税局
▁高质量
▁世界银行
▁趣味
▁北车
▁不住
▁一班
▁175
▁光棍节
▁住房贷款
▁庆典
▁持仓
▁多大
侧
▁高等
▁昭通市
▁站长
▁第三轮
▁沿途
▁结局
狼
▁310
▁党组织
▁团聚
专
▁资本主义
氮
▁试飞
▁单程
▁刘女士
▁3600
▁多公里
▁垫底
▁高企
▁命案
▁数百名
哗
▁无锡市
滕
▁限期
▁王菲
▁招投标
▁湘江
▁空难
贫
▁做过
▁未知
▁7.3
▁老化
▁盛行
▁握手
▁值得一提的是
▁之名
▁低俗
▁责成
▁全局
▁金球奖
▁山水
▁禽
▁祥
▁变质
▁流域
琦
▁贴心
▁来访
▁应是
▁自燃
▁玩笑
肝
61
▁地产商
▁问卷调查
▁改建
▁一宗
▁场馆
▁余年
▁海峡
▁吴某
▁找出
▁百名
▁安全感
涡
▁中国社会科学院
腐
▁着陆
▁650
▁春运期间
▁两部
▁一等
▁病床
▁省区
▁7.0
▁伞
▁安阳
▁又称
fi
敢
▁交会
▁著作权
▁中年男子
▁腾
▁除此之外
妍
▁高一
愈
▁侵略
▁保质期
▁牢牢
禺
耽
▁上次
▁美国国务院
候
▁122
▁小龙虾
▁蓝筹
▁潜艇
柳
▁美国联邦
▁猎
▁亲生
▁高分
▁步
麟
▁电站
▁毛主席
艺术
▁野心
他
▁死者家属
▁何在
▁溪
凹
▁转而
伴
▁而后
▁福岛
▁触动
翟
▁炫
▁1900
▁井下
67
▁370
▁只用
▁幸好
▁卫报
▁139
▁印度洋
▁一趟
▁场外
▁手册
江市
▁主观
▁几千
微信
▁330
▁序幕
▁腐败问题
▁有色
all
碟
▁默
▁魔兽
拇
▁制片人
抓
▁同性
▁嘉年华
勃
▁微克
▁轻度
▁老旧
呵
▁卖点
▁退回
▁弗
▁偷走
▁驶入
水平
用户
▁各区
▁查扣
署
▁映
网络
▁安居工程
盔
绕
▁多功能
▁工信
▁圆满
▁履职
▁短片
▁cr
▁时装
.68
▁红星
▁爱人
▁脉
▁壳
▁开机
▁泪
▁军演
▁劫
▁横琴
▁雇
▁三点
▁诊疗
▁方针
▁人民代表大会
▁垂
▁外汇储备
▁恰
▁保费
▁西城区
▁古典
▁削弱
议
▁确切
▁手环
▁截图
▁特邀
▁广告牌
▁揭
▁克拉
▁丹阳
▁融创
▁事态
▁越高
述
▁一年级
▁每斤
▁李家
▁双汇
▁宝安
堵
▁党和国家
▁良性
▁欧债
▁三倍
▁字体
▁造血
▁多所
▁随处可见
▁参数
▁民进党
▁民国
▁已故
▁摊位
▁cs
第
▁编程
▁武汉大学
懂
狸
▁超大
▁迈进
▁340
▁踢球
学生
▁着实
▁山村
▁取证
▁法拉利
▁猜想
黎
▁乐山
▁禁烟
蹿
▁起因
▁旅客列车
▁始于
▁王立军
▁一员
▁居高不下
摆
▁亚运会
谷歌
▁汇集
锌
▁异性
▁同居
樵
▁网签
▁事关
▁大同
▁云南白药
▁之道
▁纷纷表示
径
▁总工程师
▁龙华
▁迈入
霖
km
▁公共安全
淳
▁面世
▁该区
▁债权
▁从严治党
▁拉开序幕
▁补课
▁永恒
▁两套
▁逆袭
▁作坊
▁候鸟
▁改制
▁明确要求
▁联名
▁咖
▁两座
▁免疫
▁租借
▁谅解
挠
▁无线电
雏
订
藻
▁个人住房
▁橙
▁有线
驾
▁增收
▁恋情
▁变形金刚
▁750
▁方舟子
▁蛋白
▁开张
▁宣言
鄱
▁共产党
▁斑马线
▁器材
▁个人账户
▁次列车
庇
▁债权人
▁增长点
▁加码
届
▁三维
闫
▁服役
▁管理员
漯
▁避险
▁教师节
▁中度
▁总分
▁民政部门
▁台阶
触
▁管理费
▁发短信
▁家政
▁查找
▁新村
▁量子
▁速率
▁伦
▁阵
▁超值
愚
▁庄园
▁百强
▁龙虾
▁高等学校
▁上海浦东
▁商讨
▁西雅图
▁楼面
▁月均
▁抬头
▁近乎
▁投资额
▁圈里
▁内陆
▁切除
▁之手
▁365
聆
慨
▁区长
▁执业
▁捐给
▁保暖
▁妙
▁电视电话会议
电影
▁燃放
▁艰辛
▁0.3%
▁祸
▁用人
▁关乎
▁步行街
▁不足以
辗
▁买菜
▁境
▁舰艇
▁浴
▁冠名
▁京津
▁启
▁列举
▁出货
▁饼干
咽
▁档次
▁中投
棕
▁交警大队
▁550
▁鄂
惊
▁历史性
▁已获
oo
▁车里
.22
速度
▁轻生
▁优衣库
乙
▁倒下
▁星座
▁邻
僻
▁6.4
▁连连
▁特有
▁卡片
▁本年度
ow
帘
▁23%
▁倾听
▁推介会
珊
▁自治
▁政府职能
▁被扣
▁诚意
▁药企
▁亿多
▁缩
暗
▁内需
不了
▁潜伏
▁锐
弄
▁义工
▁云端
斐
▁冰毒
▁斯特
▁赞同
▁话语
樊
▁滋生
▁海边
▁破损
▁致癌物
▁采摘
骆
▁四月
▁跃
▁说服
▁而据
▁新疆维
▁贯通
▁1.5%
程序
▁开放日
▁何处
▁州长
▁人因
▁以至于
▁研究成果
▁疲弱
▁教学楼
▁收治
▁价钱
▁限定
炜
▁斜
▁十几个
▁收为
▁未满
▁掌声
戒
▁村镇
▁滩
帖
▁路线图
▁掏
▁章子
▁无缝
.46
▁肠
▁磁
▁越是
▁桥下
▁清查
▁温岭
▁短线
▁过户
昕
▁芦山县
▁二氧化碳
▁贫穷
▁授课
▁大一
▁中途
拜
▁前沿
▁和田
▁发声
▁周杰伦
▁烫
▁收录
▁脑袋
▁剧中
▁医疗费
黛
▁裸官
奕
绞
▁四十
▁职能部门
▁可拨打
▁笔记
▁计入
▁灭
▁推高
▁奔跑
▁王府井
▁扬言
▁七天
▁亿多元
▁五名
ter
▁与众不同
▁停靠
▁钢铁行业
▁浙江大学
▁相约
▁唯有
▁拉诺
▁小事
▁充分利用
▁从前
▁男朋友
芙
▁掌门人
▁除去
埃
▁东南部
▁公交站
▁周口
▁二十年
▁干涉
ine
▁林森
▁文献
▁樱桃
▁停水
▁我家
▁倒逼
▁人士处
.25
▁综艺节目
▁画作
▁诗人
▁彩虹
▁慰安妇
邑
op
▁遍
▁清凉
惜
▁公约
ov
▁外国语
▁师范大学
▁感人
▁红米
择
▁船长
▁两岁
▁破案
▁开源
▁尼泊尔
丐
出去
▁124
▁连锁店
▁四种
▁现金流
▁家务
序
▁科级
▁楼上
▁击落
▁受贿案
▁变迁
▁诗歌
▁混凝土
▁右侧
▁萧
▁肇事者
.11
▁型基金
俑
▁国有银行
腥
▁弗格森
▁无所
▁南湖
▁衡水
▁莫过于
▁核心区
▁恰逢
▁骨灰
▁不超
窃
▁危及
▁总价值
▁安信
哭
▁自然保护区
▁汇金
体系
▁游人
▁对照
▁紧紧
臀
▁横跨
▁哈里
▁较前
镖
薯
▁手枪
▁求救
.45
▁中文版
▁摩托
▁巨资
▁外逃
尔自治区
▁殊荣
▁潮州
▁避孕套
▁变现
▁不减
▁前段时间
▁刻意
▁武术
彤
▁公然
▁一档
株
▁越大
▁审慎
▁获胜
▁之地
楷
截
▁受邀
▁侵占
▁商丘
▁决算
▁点到
▁珍珠
▁卡尔
▁下手
熙
▁起码
▁三分之二
▁沉淀
▁数十名
▁陆军
▁喀什
▁杰夫
▁一圈
▁升学
100
▁老汉
▁审结
▁天弘
押
▁雷电
▁司法部
▁新进展
▁敦
▁激
荒
辩
▁矿工
▁即刻
统
▁大哥
▁交行
▁评选活动
▁历来
▁本金
▁改增
▁吉祥
▁减产
▁售后服务
▁齐鲁
▁习俗
▁触控
▁单月
▁问政
▁涌现
▁五十
▁安心
▁质监
▁议程
▁捷
ee
▁sec
▁母子
▁华山
曾
▁末日
▁亲情
▁七夕
▁阳性
▁西红
▁伤心
▁中南
bs
▁泽
卤
▁盛传
脐
▁海湾
▁百家
▁2700
群众
衬
▁新机
▁周克华
▁不然
▁九月
▁迷人
▁店家
齿
▁包养
▁居多
萝
▁每当
▁椅子
▁班车
芹
▁终审
▁保管
▁颇具
阔
▁疑惑
▁定性
▁折射出
▁底价
▁数十年
▁极高
▁万左右
婆
▁玉林
▁反响
▁0.4%
▁马尔
▁批文
▁底层
悍
▁web
▁悠
坦
▁出局
▁查证
▁隔夜
▁领海
▁德比
赴
▁逐一
▁千克
▁安慰
▁今年初
▁广东省委
介
▁纠
▁城建
▁前去
▁白菜
▁以房
▁多套
▁全能
▁鬼城
▁回馈
▁天一
▁纪检组
▁象牙
▁通气会
▁实为
冠军
▁第八届
始
▁鸟类
▁去过
▁光盘
▁绕城
爱爱
▁地震局
▁账面
▁剥离
漩涡
▁农村土地
▁省政协
▁19%
▁街区
▁勘查
▁固有
▁头顶
▁窝
▁四是
▁望远镜
▁突发事件
41
▁捷克
蝎
遴
▁129
▁棚
▁代号
时期
▁越来越少
耿
▁减灾
▁泉
▁扬子晚报
栓
▁一旁
▁阴雨
▁开市
▁交通银行
▁国安
▁一会儿
▁不光
▁王小
▁国际贸易
▁正版
▁注意安全
▁中环
▁保健食品
▁妥协
▁大院
▁织
▁促成
▁食盐
▁简易
▁第七届
▁日内瓦
▁结婚证
▁小便
▁长征
忘
▁2800
▁离家
▁幸
暴
▁很强
▁赛前
▁共和国
▁嘴里
▁凤凰古城
▁全军
▁用电量
▁格式
▁万至
胆
▁信念
▁房祖名
▁沪市
▁冰岛
▁服务区
宽
og
昼
▁找个
▁食客
挚
▁任正非
▁娄底市
▁到手
▁轮椅
▁五家
▁不解
▁第二名
▁赛车
勺
▁数最多
▁大树
▁惨剧
▁核算
▁嫁给
廉
▁当当
▁辞退
▁剧组
▁豫
▁做人
▁输液
▁二年
芙蓉
▁满分
▁21%
郴
▁瓦斯
▁限时
▁饱
▁中日关系
▁中组部
▁艳
▁饭菜
▁问卷
臭
▁每张
▁咬伤
▁向下
▁领军
▁还好
▁知晓
▁胡同
▁这点
▁换来
▁旗号
▁交谈
▁光大银行
▁二等
▁双腿
▁出狱
▁野田
▁3200
▁雷政富
李
猩猩
▁遮挡
▁贫困县
▁轮流
▁有线电视
▁太大
琼
▁索取
▁工业园区
亦
贞
捂
▁配额
▁妥善
▁上街
▁忌
▁众所周知
▁手势
▁送货
▁公墓
▁喝水
暇
▁避让
.47
▁随时随地
▁华西
▁白沙
眠
▁生产日期
▁人均收入
▁浙大
▁动向
▁中招
▁势必
▁势
▁市容
▁宇
▁重大项目
▁万港元
拌
拽
▁运价
▁字头
▁十字
▁邓文迪
▁抗旱
▁上缴
▁安全事故
▁沃尔沃
▁一地
▁一说
▁28%
▁煤气
▁获得者
代表
▁盒饭
▁区政府
▁一例
▁日程
▁带宽
▁对决
▁裙
▁失明
▁涨势
▁裸照
▁后经
▁nasa
平县
鲜
▁打进
▁抄底
▁居家
▁防盗
▁放生
▁银行存款
▁发型
▁风向标
▁老总
▁爆红
▁道具
▁严谨
pi
▁大专
▁高架桥
▁数目
▁主业
▁元年
妆
▁大喊
▁at
荷
▁惊艳
▁云商
ob
▁托运
▁投资银行
▁两类
址
笼
▁听力
▁有色金属
▁戒指
▁长跑
▁故乡
▁5.9
▁平行
.88
旅游
▁好心
▁手动
▁悦
▁切换
褪
▁不幸身亡
▁电量
▁英里
▁整车
▁颗粒物
▁养老院
▁吸纳
▁录得
▁吉尼斯世界纪录
▁自然灾害
▁爽
▁供述
固
▁黄石
▁金银
▁带队
▁交界
杨
滴
▁楼继伟
▁岭
▁外套
▁纽交所
▁辨别
▁供养
▁派对
▁运费
▁十条
▁自查
▁单个
▁普通高中
▁五星
▁男主角
▁一步步
▁房产证
▁青奥会
▁持久
▁井喷
朴
▁围墙
▁车流
宛
▁最低水平
▁一首
▁聚美
▁罗湖
▁年满
▁淋
▁光学
誉
▁为生
▁失效
▁网络媒体
▁港澳台
▁后方
蝙蝠
▁触发
▁韩亚
▁收支
▁国务院发展研究中心
▁过山车
▁评测
▁问到
濮
▁南国
▁消灭
▁胡某
▁真假
▁平面
▁诉至
▁上台
▁监管局
▁厚度
▁金融体系
▁拘
▁撤回
链
▁天宫
▁自驾
▁淡化
▁凤凰网
▁奔赴
▁口中
▁截肢
▁一词
追
▁率为
▁过关
▁督办
▁方向盘
恐
▁稳妥
▁打麻将
▁龙泉
▁北京市公安局
▁某种程度
裕
▁固然
▁念头
▁打扮
▁破灭
▁长发
偿
▁食物中毒
▁诱人
▁面条
▁难求
▁不去
阳区
▁保险业
▁堵塞
报道
▁犯罪分子
▁上海证券交易所
▁反倾销
.97
▁相处
▁用作
▁工程学院
▁拉美
汽
▁安全监管
▁蓝图
▁太极
▁两千
昊
▁121
佑
▁片中
▁张朝阳
▁不法
▁顺序
▁渣土
▁7.6
▁推手
▁生产力
▁散落
▁公共财政
▁防水
▁鲁甸县
▁济
▁效仿
▁打动
▁鹏
▁新学期
蟑螂
▁前海
▁事故现场
充
▁黑社会
.13
▁分布式
▁一伙
▁自驾游
▁只得
▁施压
▁7.8
茫
▁觉
▁th
▁验证码
▁电子设备
▁茅台酒
钠
▁协
▁是非
▁奇特
▁信息网
▁元到
▁合一
▁洪磊
▁媒
老师
丙
▁大巴车
咬
▁初一
▁立马
▁晚宴
▁威力
▁热水器
▁戴着
▁6.7
贱
▁相伴
▁7.4%
▁阿迪达斯
▁主持会议
▁规划局
▁近三年
▁鲁尼
▁乃
▁境地
族自治县
▁回扣
▁左侧
▁顺利完成
▁握
▁1991
▁连线
▁千余
▁肝癌
▁风险管理
▁风险投资
▁覆盖率
▁范冰冰
▁多样
▁分院
▁接地
▁淮安
吞
▁顺应
▁这段
▁水污染
▁放贷
▁岗位职责
▁转售
▁摘得
▁扑救
▁贵阳市
▁冷水
▁五成
▁巡视员
▁连任
▁五位
▁首府
▁这天
▁财长
▁振
隔
▁汉族
膳
全国
淄
▁尘埃落定
▁干什么
▁专柜
▁经济犯罪
▁量刑
▁宇航员
▁运河
穗
▁晓
▁求职者
文学
▁有无
▁但据
扰
▁妇幼保健
▁不许
▁凯特
▁产假
▁押金
▁口角
▁专区
▁劳动合同
▁顺畅
▁先天性
▁始
▁短时
▁异味
▁比基尼
蚌埠
▁正向
▁王毅
▁释
.78
▁冀
▁撤出
▁药房
▁遗弃
▁蜂
▁副董事长
▁星球
示
▁监听
▁产物
▁美誉
▁名将
▁毛巾
伐
▁仓位
▁天安门
部长
▁窝案
▁督导
▁对立
适
▁展览会
▁制售
▁宾
▁油画
▁sim
▁高山
▁中产阶级
▁太太
拎
▁射手
丧
▁涉毒
▁巧妙
▁剂
▁压制
▁品有
▁对称
▁大西洋
▁灾后
▁背部
▁海里
▁宝鸡
▁猛烈
.50
▁承
▁言语
▁瓜子
▁法律责任
屑
▁警务
膀
▁保钓
▁225
▁夫妻俩
▁供货
▁岛上
甜
▁报刊
▁从没
▁便于
▁刚好
▁假药
.07
▁总人口
▁岸边
▁飞天
▁实施办法
▁实实在在
▁堡
▁即将来临
赠
▁零钱
▁度假村
肿
▁惨
▁实际行动
▁不景气
.19
不清
拒
▁刑
祁
▁分店
▁nfc
▁深感
筋
舜
▁再生能源
▁含义
▁博彩
▁善良
纵
不出
▁按揭
▁运力
▁几种
伙
▁除外
.00
▁增进
▁积雪
▁坚信
▁多部
▁地理位置
▁拍下
▁就任
▁中路
▁致富
筝
▁想象力
▁蒙古
▁8.3
▁晨报
哒
▁发展前景
泗
▁几周
肥
▁递
▁县域
▁乱收费
▁熟人
▁亡
▁重创
铜
事实
▁好于
▁深厚
▁创新能力
上去
▁敲诈勒索
▁热带
.16
▁任免
▁登顶
▁广西壮族自治区
雍
▁期刊
▁初三
▁折磨
▁修理
▁超人
▁进食
▁蒋介石
▁运载火箭
la
▁新闻稿
▁四项
乒乓
▁1989
▁浦发银行
贸易
辍
匝
▁亲身
▁足足
▁抑郁
巢
▁审讯
▁出境游
▁军用
▁头衔
▁墙壁
▁楼梯
▁收跌
▁升幅
▁帅
▁国内航线
▁之风
▁电讯报
▁独一无二
▁决不
▁头等舱
▁每逢
▁医药费
▁同质化
▁致其
▁因公
▁羊年
▁入室
.28
▁门票价格
▁出厂
寻
▁每家
▁龙头企业
▁公映
▁再有
▁倒卖
▁之家
▁担
▁接过
▁下次
▁不下
▁中型
▁会议室
▁带入
▁南下
兽
.24
▁研讨
找
▁没错
▁乙肝疫苗
▁拟将
荫
▁风水
▁之星
▁万桶
▁想不到
▁转运
▁响起
.14
▁最大化
收入
▁心理学
▁对策
▁西山
▁暂缓
▁维尔
▁本应
▁该省
塑
符
▁不容乐观
▁母女
▁公共卫生
▁方言
▁难忘
▁炫耀
▁贵族
▁众议院
▁爹
意识
▁炸药
叔
▁理赔
.05
▁相比之下
▁鹅
▁四核
▁社团
尼亚
▁专案组
▁追责
▁笼子
▁不好意思
▁趋
▁正当竞争
.10
▁包容
▁远东
▁排出
▁仍会
▁启示
▁尿毒症
皖
▁榜样
▁脑部
▁兰州市
▁旅途
▁委屈
▁1986
▁民房
▁证券时报
▁获知
▁中资
▁多伦多
氰胺
江区
铬
.84
飓
▁版图
▁美洲
▁党支部
▁昌平
▁245
▁还称
瘤
挑
羹
人心
▁通风
▁强制性
际
▁抢眼
ul
▁仔
▁粮油
▁宝马车
▁飞行器
▁追加
▁手机号码
▁状元
▁鱼类
▁欧股
▁热词
▁三周
▁离奇
▁金正日
▁肠道
▁剪刀
▁亲爱
▁重挫
酪
▁星际
▁替补
▁通缩
▁新闻报道
▁本周一
▁万里
▁中止
▁持续增长
▁回老家
▁自住型
▁笑话
▁茂名
检查
▁用手
▁柳传志
▁计价
高管
▁im
▁伦理
认
▁校内
▁赶赴现场
▁盐城
▁奖牌
▁风潮
沽
▁冲出
▁先前
▁争抢
▁贝克汉姆
▁潭
▁普通话
臣
▁诊所
▁衰竭
▁这篇
▁平息
▁科大
▁不菲
▁硅
▁行至
▁尽情
拭
▁挂出
▁价格调整
▁领投
▁央视春晚
禹
▁稍微
▁消费市场
▁尚有
▁闸
嘀嘀
▁千人
▁总工会
▁套取
▁逆势
▁今年夏天
▁接听
▁面粉
▁fn
▁途
▁审美
▁下同
▁时有
▁跟风
▁再见
▁仍为
▁铁路运输
▁标本
▁哈维
▁将汽
▁私营
阀
▁尚属
▁威廉姆斯
▁陈列
▁用力
疼
▁鼓浪屿
▁坐飞机
▁执法局
▁加深
▁雷阵雨
▁初次
▁演艺
▁亚欧
▁近代
▁相较
▁预料
▁高雄
▁试用
▁突破口
▁华盛顿邮报
▁上赛季
▁少林
▁高危
▁德甲
河市
▁果然
▁风味
▁遇见
▁万一
霍
▁嫩
▁林业局
▁繁殖
▁空袭
▁特种
▁摩根士丹利
▁上架
▁低下
▁宝洁
皱
▁过得
腌
▁流水
▁居首
▁唤醒
.08
▁疏导
▁拿来
▁急速
▁村落
▁万美金
▁陆家嘴
▁党纪政纪
▁清廉
▁乘务员
▁盲
▁骨头
▁全校
▁汪洋
▁有助
▁引得
▁480
崇
▁亚冠
贩
▁李阳
▁日讯
▁双轨制
▁弯
框
▁卧
▁电线
▁肠胃
▁蛮
▁坦
▁废旧
▁132
▁冰桶
▁废止
▁三分
乔
▁公祭
▁性骚扰
▁六月
▁严控
▁胡锦涛
疗
▁木有
▁放进
▁运气
▁小岛
▁重量级
▁碧桂园
▁机密
柄
▁预见
▁液
纠纷
▁一分
▁基金业
▁上千
▁用心
▁攻
▁交易会
▁停业
▁储量
▁纵观
▁发起人
▁ne
▁停下
▁育
坠
▁毛利
▁双流
▁短板
▁总编辑
▁社厅
▁社会公众
▁市政协
▁两融
▁贴近
▁不像
▁追捕
▁平均年龄
▁36%
▁156
▁朝着
▁剥
棺
▁反正
▁看不见
罄
▁洗车
▁结冰
▁龙门
▁超额
▁闭幕式
▁打人者
▁龙岗区
▁美团
▁傲
▁豪门
▁下雨
▁破除
▁王亚伟
赡
▁滨海新区
53
▁琴
▁自费
▁银幕
▁红杉
.04
▁业余
▁承销商
▁早点
ys
▁班子
▁单方面
▁邮票
▁乘机
▁突围
霄
▁代工
埠
▁入园
▁mv
▁译
▁财力
▁7.4
▁昆虫
▁耗
▁万次
▁黄灯
▁非正常
▁车头
▁海面
▁该店
▁大姐
▁之王
旷
▁1.6%
▁视听
▁福州市
▁不清
▁低廉
功能
▁周边地区
▁香港媒体
▁差别化
髦
▁寺院
▁三口
▁城墙
▁评论员
▁一盒
▁攻坚
▁时长
▁廉租房
▁百胜
▁饮品
tv
▁寻租
▁从即日起
▁倒车
▁惊险
▁蜜
▁英国政府
▁围挡
凶
.91
▁1985
▁朝中社
▁夸
▁车费
胰
犁
妓
▁打败
炖
▁五千
▁星期五
▁定论
橱
▁恐怖主义
▁身份证号
▁简洁
▁这架
▁133
▁徐才厚
▁连胜
▁秋冬
▁文本
▁咸阳
▁娄
▁南瓜
▁英国伦敦
▁不大
▁摊贩
▁撤职
▁投身
▁知情者
祸
▁维多利亚
▁代理人
廊
孟
蜂
▁印证
▁正宗
ell
▁警戒
▁春城
▁侧面
湖区
▁滚动
▁综合征
▁建起
▁会否
汾
▁as
▁管理系统
▁低谷
▁俊
▁状告
▁文书
▁忠实
▁国税
▁更多
▁轮番
▁初步判断
▁打拼
▁汽车行业
▁睡着
▁胃癌
▁大王
▁受限
▁防晒
▁史无前例
▁逛街
▁庙
▁救援队
▁文物保护
▁一万元
▁财政政策
▁通宵
▁大江网
资金
▁易观
▁外婆
▁缓缓
▁数值
▁批示
▁宗旨
▁大单
▁督察
▁开口
▁气愤
62
▁同名
▁索罗斯
▁以南
▁单笔
师傅
.94
贺
▁屡次
▁精子
▁大河
▁七大
▁拍卖会
▁山顶
▁隐性
▁勾
▁墙体
▁轰动
▁颈部
▁死去
▁下个月
参
▁心仪
▁冲绳
▁石家庄市
咏
▁圣地
黯
▁大为
▁9.5
▁峰
棍
▁熟练
▁赠
▁火化
▁1987
▁车速
▁拨款
▁明亮
绯
▁通缉
▁里程碑
▁消极
▁清洁工
▁压岁钱
▁科长
▁假释
▁遥控
▁美妙
▁准则
▁1984
▁评定
▁坠机
▁邪教
▁俞正声
▁抵御
▁有奖
▁大省
▁控制中心
▁市场价
▁交流会
▁放量
▁折腾
▁后天
咎
▁趁着
▁德国队
▁高风险
▁拾
▁中风
▁主干道
▁中暑
▁县市
▁中国足协
▁建房
▁暴露出
▁浪
▁无处不在
▁东城区
ut
▁污染源
▁盘活
▁祝贺
▁围堵
▁世界末日
▁同情
▁斑
洼
▁启程
▁因犯
▁手腕
▁署名
▁核试验
▁遗失
.17
▁犹豫
尔默
晾
▁奋力
▁主页
缚
▁尤文
动物
▁栏
▁排在
呆
灼
▁迎合
▁申城
▁公车私用
▁多亿
▁强冷空气
▁烫伤
酥
▁号楼
▁起薪
▁建华
▁7.7
▁时空
▁复古
▁血压
▁宣讲
▁坝
▁0.25
▁录
▁探亲
▁持卡人
▁邻国
▁登革热
ard
▁出名
▁兼顾
▁张晓
▁身心
咒
▁戴上
▁金币
▁佛罗里达州
▁法医
▁具体情况
▁摄
雀
▁技术支持
▁地名
▁控制权
▁之多
▁搞笑
▁仇
▁1988
▁总体规划
▁废品
獒
▁村支书
▁欧阳
▁前三名
▁多头
▁多媒体
▁建设银行
▁震感
▁掩
▁紧急通知
还
▁信中
▁文档
▁缩影
▁审视
▁年检
▁醒目
▁捕鱼
▁中国香港
▁处处长
▁渡
▁政委
▁挪用公款
▁争夺战
▁黄金时代
▁顶部
▁二年级
▁2025
▁植物园
▁貌似
▁不设
▁圆梦
痕
天下
▁张家
▁无条件
▁解散
▁看中
▁诺贝尔
▁眉
▁黑洞
▁桥面
▁热门话题
▁235
▁后代
▁br
渝
▁爆竹
▁newfortune
▁沿岸
▁影城
▁浓烟
▁白人
▁刚需
▁中山大学
▁看书
▁安监
▁平顶山
▁出逃
▁强有力
▁传送
▁三元
▁翁
▁要说
▁续航
▁慈善事业
▁遗书
▁调休
eg
▁尾盘
▁引人关注
▁此刻
▁2019
▁勘察
▁非农
▁名家
▁无偿献血
82
▁寻常
缝
89
.26
▁纠纷案
▁反感
▁之大
▁全面实施
州区
▁屈
▁宣誓
▁眼神
▁自然人
吻
▁面值
▁已到
▁卫生巾
▁研究部署
▁保有量
▁可观
▁洗钱
秦
▁疑虑
▁摇滚
▁绝非
▁伯南克
ox
▁不必要
▁喜好
▁人有
▁脑瘫
▁体积
▁互助
锯
▁吊销
iv
族自治州
▁放火
▁更强
▁控烟
嫉妒
▁取而代之
▁杨先生
▁周报
▁烦
▁杨达
扶
▁国脚
▁地级市
▁最严
▁困局
▁钱荒
▁凭证
▁服务项目
▁西双版纳
棠
▁460
▁雷士
▁路虎
▁能为
▁客房
▁蒋洁敏
▁秦岭
▁报送
▁麦克
▁堆积
▁三层
▁观影
▁时要
▁时限
闪
▁素有
▁首映
漓
▁财政补贴
晕
▁物价指数
绚
陇
伍
▁夏日
▁几十万
喘
冈
iz
▁爆破
▁名副其实
▁告破
▁葬礼
▁熊市
▁首份
▁体育中心
▁紧缺
▁粗暴
▁桂城
▁蓄水
▁国考
.85
▁6.8
▁中证
▁工期
肴
.76
▁独有
▁娱乐场所
▁更能
考试
▁早早
▁万份
▁对准
▁通讯社
▁两国关系
▁领涨
▁相恋
▁三环
▁一遍
▁二中院
▁圈地
▁生姜
▁较长
▁不翼而飞
炙
▁揭阳
▁亿户
▁联邦政府
▁评出
高达
▁需求量
▁开销
▁翻倍
▁皮革
▁中国红十字会
▁心疼
▁深处
▁群众反映
驼
魔
慷
83
▁俄方
▁一丝
▁心血管
▁粮食安全
51
▁第一场
▁发行股票
▁当即
渔
▁距今
▁路桥
▁国际货币基金组织
嚼
趟
▁治国
▁退休金
▁暗藏
▁链断裂
▁工委
▁小金库
▁入冬
▁绿卡
.86
▁奋战
▁时有发生
睁
教师
▁实事
.09
▁专程
▁清退
▁决
▁有的是
▁海事
▁冀中
na
▁薄弱
▁金矿
▁郭台铭
▁这边
▁海盗
▁想过
内容
▁罗伯特
▁图中
▁在意
▁专稿
.48
▁马尼拉
▁二孩
▁爆燃
▁院内
▁机电
乃
▁宁愿
忧
骁
▁投保
▁伸手
▁主营
▁骗走
▁赏花
▁来得
▁134
▁着装
▁城镇职工
▁现代农业
.74
▁国贸
▁故居
▁频现
▁林某
芦
责任
▁下水道
▁查阅
▁终将
▁猎豹
ag
▁团圆
▁国有资本
▁已知
▁足迹
▁诱骗
▁商量
▁分销
▁德拉
呐
▁折叠
▁天气预报
鹭
▁严正
▁穆斯林
▁老龄
▁教程
▁青海省
▁传染
▁154
▁欧盟委员会
▁庭
▁拉斯维加斯
▁带薪
▁第三位
▁跟上
▁禁用
尝
▁最高峰
▁体量
▁乔丹
▁养猪
狙
璐
.56
▁西北部
▁泄密
87
▁课题组
▁落成
▁书包
▁大中型
▁戒烟
▁德国总理
▁空降
▁信息中心
.29
▁角度看
恕
▁丢弃
▁分钱
▁大势所趋
▁辩护律师
▁3.5%
▁天花板
.44
▁堪比
▁两层
▁取款
▁737
▁话剧
▁设计方案
渣
▁马克思主义
▁总长
▁主题公园
然大波
避
▁还债
▁仅用
耕
▁功率
▁普遍存在
▁137
▁电费
▁触目惊心
杜
▁2022
▁sc
▁主编
▁总能
▁坏账
▁硬盘
▁严密
▁有位
▁布拉
▁卫生部门
▁极有
▁举报电话
▁激起
▁借机
▁两万
▁1949
▁正视
▁大餐
▁来源不明
▁雀巢
▁服务体系
▁体操
▁江城
▁搬家
▁港人
▁摊主
▁溺亡
朋
▁渔政
▁谎言
憋
▁着重
▁农业银行
陶
▁惨烈
▁一文
oc
▁运往
▁九个
▁施工方
青年
.32
▁互换
▁出租屋
▁油耗
▁押
▁面孔
▁税后
▁天期
▁帅哥
▁开赛
▁风投
乍
▁装载
▁不可或缺
▁米饭
▁贫富差距
▁便会
▁27%
.37
▁贫困地区
▁套装
.18
▁园长
▁计费
▁电信业务
▁四人
▁严打
▁公款吃喝
▁惨淡
▁惩处
▁黎明
▁军官
▁招待费
▁绝望
▁服从
▁租住
of
▁秒钟
▁任天堂
▁疏
▁近十年
熔
恨
▁专人
滋事
▁地步
▁正品
▁受不了
▁补办
▁那年
▁三千
状况
▁难点
▁日圆
▁十万
▁广告投放
▁光谷
.31
▁影迷
▁抵抗
▁省直
▁推进改革
▁第六次
ha
▁主播
▁普通股
▁银行家
▁贫
▁关店
▁经营报
劫
琨
▁洗手
▁白云区
▁写入
if
380
合理
▁大胜
▁车企
▁两度
▁通货膨胀
▁议
▁肺炎
▁1978
▁人用
闲
▁出走
▁永不
孚
▁瓶子
▁惊叹
▁赤字
▁触犯
▁路易斯
▁研究部
▁扣留
衢
▁隔壁
▁一辆车
▁胜出
▁掩埋
▁街道办
▁热衷于
▁姐
▁外交部长
饮
▁奔波
ill
▁最新进展
▁铁建
▁处境
▁逃脱
▁全网
▁mu
▁安宁
驿
弯
▁泳池
▁每隔
叹
绪
▁廉
肤
▁彩电
穷
▁发作
▁带薪休假
▁编码
▁悲伤
▁逝者
寸
▁减负
▁起步价
▁斯里兰卡
▁巧
▁208
▁呼吸道
烨
不开
▁马力
茵
▁驻足
▁预留
▁打招呼
▁养殖户
▁接警
.67
▁油炸
▁周恩来
▁失眠
▁杆菌
▁脚下
▁被称作
纲
▁司法局
▁引人
彗
▁刘云山
▁无不
▁被子
▁客户服务
▁内饰
▁产经
▁人手
▁反驳
.96
▁饼
▁参议院
.87
▁段子
▁两孩
▁江阴
▁柔
艾
袭
痒
▁通勤
烘
▁几近
.42
▁流浪汉
擒
▁党委委员
▁连发
▁现今
萤
▁点至
▁开门红
▁体征
▁寒风
▁恰好
▁华西都市报
▁7.7%
▁朝鲜半岛
斋
剃
工人
▁变化率
▁绿化带
▁热点问题
▁上海市政府
合作
耸
▁周强
▁随身
▁燕郊
▁国泰
▁余姚
▁准考证
.66
▁小贷
▁少儿
▁酒鬼
▁现实生活
混
▁涨跌
▁以北
▁承诺书
▁共赢
利亚
裁
▁外汇市场
▁结识
▁贤
不绝
eb
▁复活
▁稳居
▁西南部
▁韩方
▁英国首相
▁汕头市
抨
▁勇于
▁本该
▁先天
▁传人
▁每户
▁品牌价值
▁发卡
▁宋卫平
▁成型
▁第一届
▁纸条
科学院
▁肖像
▁公安民警
▁毅然
▁消费量
▁拍出
▁路况
漫
▁热气球
▁香港特区政府
▁怎
▁否决
▁游泳池
不得
▁金融风险
▁水务局
▁公司员工
▁讨薪
▁轮奸
▁亿部
▁阿拉
▁调查核实
阅
▁分值
磕
幼
▁西沙
▁胡萝卜
▁供求
▁车管所
涩
驯
▁恩施
▁获释
▁更长
▁软银
▁深远
▁下沉
▁假冒伪劣
芭
▁小雪
▁揽
▁城乡建设
▁偏远
▁体育报
饷
▁亲吻
▁走入
▁地中海
▁路程
▁看作
▁华泰
▁淋巴
▁出线
.23
陈
缪
▁参选
▁26%
▁继而
釜
▁家家
▁brt
▁腿部
▁宽容
▁个人财产
▁舱
▁205
▁羽毛球
▁大学城
赐
污染
▁缺钱
▁称呼
▁信件
偏
▁提早
▁五项
ey
▁克隆
▁浓郁
▁活跃度
▁优异
▁卖萌
▁晚点
▁真人
▁体型
▁关键在于
▁日夜
▁施工人员
▁水厂
羁
▁领略
▁中医院
▁帅气
▁展馆
▁决定书
▁布朗
▁救济
▁大屏幕
灌
▁诱导
▁初值
.33
▁大屏
▁切入
▁有余
▁趁机
▁避税
▁两架
▁优品
▁借用
▁炼油
▁非法经营
▁信号灯
▁日照
▁僵局
▁酒类
▁没关系
▁领事
▁南充
▁低空
ik
▁三无
▁中国工商银行
▁千名
▁预告片
.38
▁中国籍
辙
▁联储
又
烹
▁体温
▁市场主体
▁革新
▁请来
▁依规
▁窃听
▁亚航
▁谈恋爱
▁5500
▁恰当
▁拍拍
▁其妻
▁供不应求
蜡烛
▁捕获
▁随迁
愤
榕
▁空地
▁意想不到
▁占款
倦
▁会计师
▁污水处理
▁耗费
▁收看
忌
▁五环
▁化学物质
▁包机
▁尤文图斯
纪律
逃
▁技艺
▁韩国政府
▁开具
专业
.02
▁吻
▁伊始
▁此人
▁树上
▁香水
▁发表文章
▁开征
▁任用
▁而来
▁降级
▁派驻
▁战绩
▁一年期
▁败诉
▁摄像机
▁掉落
▁严寒
▁850
▁电话号码
▁常德
茨克
▁上当
▁会员卡
▁居民收入
▁全日制
▁规模化
▁重中之重
▁病逝
▁中亚
▁缓和
▁插件
▁黄标车
溪县
崎
键
▁警戒线
▁提供商
▁戒毒
▁四肢
▁保税
▁街坊
▁史密斯
▁发债
▁海归
\
▁xx
▁演讲时
▁恋人
褚
▁素养
▁保洁
▁万能
▁检疫局
▁其为
▁2.3%
▁泡面
.73
.03
玮
▁旅游景点
▁每名
医生
▁鹤
▁护航
▁成功率
▁干活
▁粗略
▁防务
▁外衣
▁成败
▁就职
钞
▁相遇
躯
慈
嬉
▁揭幕
▁切勿
▁成千上万
▁正对
▁证券期货
▁连日
▁双人
▁哲
▁失职
▁惩治
祸首
▁专辑
▁邵阳
▁宜居
▁草坪
▁公用
▁闹剧
▁缓期
▁地缘
▁大唐
▁牵涉
▁屋内
▁南美
▁都江
▁必不可少
▁深层
▁第一期
▁管家
▁七月
▁199
▁总领馆
瓯
▁息息相关
▁防腐剂
▁奇幻
▁sm
▁服刑
弘
▁收涨
▁高利贷
▁搭档
▁跨国公司
▁圣彼得堡
▁7500
▁1080
▁178
▁米左右
▁狂热
▁早间
▁陆地
▁杨元庆
▁无处
▁奥利
▁真人秀
▁最难
▁备降
▁不离
▁另一家
▁爆裂
▁拐卖
秸秆
▁闻到
▁发生意外
▁名声
稀
颓
焊
▁数据挖掘
▁严格控制
▁1982
舵
▁平淡
▁园内
▁迈向
▁电厂
▁置于
▁明年初
▁螺旋
▁广义
▁防火
▁宿
▁自闭症
▁站上
▁武侠
▁初级
▁分期
会议
▁商业价值
▁三甲
.79
惫
▁眼科
▁检修
▁帮帮
屈
▁官微
奋
今
▁空置
▁愿景
▁地质灾害
▁征兵
▁中层
▁各市
▁尖叫
太多
▁发到
▁亿余元
▁程序员
bc
▁ii
碘
▁吵
▁此处
▁秋裤
▁金星
▁一字
▁知识分子
▁新世界
▁的士
▁欠下
▁亚太经合组织
▁畜牧
▁亚洲杯
▁越过
▁点火
▁京剧
▁诱
▁囚犯
▁第一轮
▁大礼
婴
▁梅开二度
▁协警
▁探望
▁过重
▁责任感
▁圈内
▁浓缩
▁井盖
▁社会科学
▁师范学院
▁文体
▁大街小巷
▁前三位
▁证监局
如此
▁公共资源
▁创业投资
▁泰山
▁爱车
▁贵金属
▁财产损失
▁获益
▁原地
献
郁
▁季节性
华人
▁黄洋
▁洲
吼
▁高品质
逆
▁境内外
▁电子报
▁特区政府
▁郎
▁取胜
▁厂区
54
▁存货
▁人行
▁最能
▁班上
▁股神
▁输血
▁承建
▁代理律师
▁空管
▁挂失
▁墨尔本
▁中线
▁租用
▁玛丽
▁妹
▁背上
▁零售额
多年
诡
▁遗留
▁散装
▁宪政
▁腐烂
▁真能
▁推翻
▁幽
▁嘴巴
▁起初
▁8.8
▁偶
▁享用
▁委员长
▁毒贩
▁冬日
▁零售总额
捕
▁唯冠
▁前置
▁饰品
柴
抠
▁减缓
▁大将
▁中科
▁卧底
嗨
▁西宁
▁国家海洋局
▁按计划
▁产下
亥
▁双规
▁15000
▁2.2%
▁神木
▁为题
▁黑客攻击
▁禽类
▁删
▁年份
▁康泰
▁没钱
▁征服
▁圣诞老人
▁怀念
▁蓝海
▁招商引资
▁林毅夫
▁图标
▁今明两天
▁列车运行
▁风气
▁爱德华
▁第一部
并
320
艘
▁兽医
▁副厅级
▁特地
▁人才培养
▁几款
▁新手
▁世上
▁初二
▁南亚
▁白云山
▁经济危机
▁诈骗案
▁圣保罗
▁手脚
▁愈
▁第一条
▁满月
▁界限
▁diy
▁猛增
▁牧
▁矿产
▁特效
▁财政资金
▁燃
▁部件
.06
▁早年
省委
▁以防
.92
▁举行会谈
祀
▁肇庆
肩
▁调任
弊
▁用以
▁第三批
▁支持率
▁无非
▁绳子
饱
▁竞标
储
侥
▁个人隐私
▁半左右
▁养护
▁社会福利
▁加工厂
▁罢
▁英拉
演员
▁济州岛
ark
而来
▁走失
▁创新型
▁饲养员
广场
▁交由
社会
▁显示器
▁太低
▁解密
▁两块
▁取向
夕
▁发泄
安全
▁票面
▁阵阵
▁生活习惯
▁伯克
▁商品价格
▁东方网
随
猕
▁前台
▁侵入
奏
▁直面
▁解锁
▁探险
▁硫
▁导航系统
▁湘鄂
遥
▁茂
▁主犯
▁47%
宣
▁标示
▁本案
▁路网
▁获赠
▁未曾
▁空缺
骼
▁双脚
▁幸存者
▁乌拉圭
▁枝
▁刑警
▁事迹
▁效能
▁观音
匀
ub
▁慎
▁违法违纪
81
▁驻马店
▁qdii
▁许家
▁单双
▁用到
▁不仅如此
▁武大
▁人头
.63
▁后人
▁720
▁家门
▁冷藏
▁塌
▁照相
▁右翼
.36
▁胎
▁红火
❹
▁一中院
▁沙市
▁识别区
▁八月
▁字眼
▁不太可能
曦
▁广受
▁十字路口
▁44%
▁温室
铐
▁高招
▁莫名
▁以期
▁法兰克福
番
▁偏离
挡
▁公安局长
▁台北市
旋
▁政治家
▁uber
骑
▁筑
▁选用
▁当街
▁厨
甬
▁它会
▁台网
▁何以
.93
▁俄语
素质
▁地为
▁派发
▁主力军
氓
谱
▁环线
▁款式
▁市场占有率
▁构筑
▁高地
▁结余
▁对口
徽
吧
▁洲际
▁确权
▁岸
▁37%
▁城商行
▁吃喝
▁通报批评
▁班机
衰
▁怀化
▁编译
▁面貌
▁跌落
▁西门子
▁38%
cc
涂
▁向东
▁自贡
▁西非
▁行星
▁一连串
▁特供
▁透视
▁机动
▁聘
困难
▁152
▁未见
▁在售
▁苦恼
被
玻璃
▁长水
态度
▁该村
▁tr
▁比拼
▁财经频道
▁组件
▁西侧
▁满满
▁亿万
▁尽力
▁弊端
▁救护
▁汽车站
▁综艺
▁一脚
扼
▁将成
▁庙会
▁1.7%
▁买到
▁防守
▁魔法
▁技术开发区
轧
幸
▁联系方式
▁炸鸡
▁一键
▁持有人
插
84
拉斯
▁肢体
▁和讯网
▁屠
▁核定
▁农机
▁袁隆平
▁分辨
▁温柔
▁坦承
▁普惠
▁刘德华
▁抢先
▁饭后
▁逃犯
▁王晓
▁签发
▁岩石
▁酿成
▁生化
▁孕
▁著作
喵
▁钢厂
▁对付
▁经适
▁代售点
▁副区长
▁衡
.83
▁不断扩大
▁河西
▁协会会长
▁来华
▁生子
▁复习
赏
▁默认
▁id
▁直通车
▁ab
▁小品
▁扬尘
▁证券法
▁松江
▁窗外
食品
▁一点点
▁中国台湾
▁保安厅
▁凶猛
▁国务院法制办
▁还清
▁痛心
▁百米
鼻
▁边上
▁体育局
▁肆虐
▁守住
▁代谢
▁执掌
▁手握
兔
▁格林
▁指甲
▁毫
柚
▁146
▁弯曲
▁尝
▁轰炸
▁产地
▁海燕
▁两艘
惑
革
▁日以
▁男神
调查
▁中性
▁关押
▁之作
52
▁轻轨
代理
▁税制
▁漫步
▁而今
▁以致
娩
▁集成电路
▁五花八门
▁33%
▁键
▁999
▁聊聊
▁母校
▁内设
▁小将
▁拜访
▁削
▁占地面积
▁中国人民解放军
▁扫墓
▁288
父母
▁集团股份
▁庆丰
▁第一代
▁完好
▁免疫力
▁吸金
▁切糕
▁大方
▁巴厘岛
鉴
▁鸡西
▁严肃查处
▁归纳
▁开放式
密鼓
▁多斤
抵
▁理应
▁ap
▁其父
▁大图
▁三年级
▁黑心
▁金陵
▁力克
溢
▁月入
▁塌方
▁维度
▁凝
▁筹码
▁空间站
▁取名
▁五天
铁路局
▁家化
▁女单
▁巡演
▁频出
▁精简
偷
▁走到
▁厦门大学
▁村子
▁大头
▁黄瓜
▁健康状况
▁刚过
▁因病
▁后门
裴
▁抗癌
▁国家体育总局
▁节水
▁贷款额度
▁目击
▁尸检
▁友人
▁难过
▁一改
▁激战
担
▁词语
▁局部地区
▁美国国家安全局
拣
▁每平米
▁素材
▁红绿灯
虞
▁背面
▁他家
邸
▁分支机构
▁暂定
▁精细
▁消防人员
▁公章
▁新奇
▁化身
▁爸爸妈妈
钧
琢
▁或者说
▁唯品
大街
▁术
▁接管
▁售假
▁丽水
▁中小型
▁虚拟化
▁大山
▁一侧
▁有害物质
丰县
▁国事访问
tc
▁信托业
▁一查
▁潜入
▁亲民
▁镇长
裙
▁伤情
▁一新
▁钻井
▁广州日报
▁新乡
▁抬高
▁0.6%
▁cbd
▁宁静
▁中卫
▁郭敬明
祝
▁215
▁天王
▁厅级
逝
辅
▁迷信
▁优点
▁知情权
▁兰博基尼
▁三十年
▁下课
▁商行
▁检讨
▁荣誉称号
▁之夜
▁小猫
ra
▁新形势下
割
200
▁完后
肌
▁照料
<
旁
▁外商投资
▁迈阿密
▁经济效益
纷
▁房主
▁股份公司
▁新年伊始
▁存贷
▁根本原因
▁外壳
▁慈溪
▁午盘
▁私密
▁首脑
▁爱上
材料
▁记忆力
▁建局
▁炎热
▁电力公司
▁共鸣
▁处女
▁美金
▁行政许可
▁服务公司
▁保险资金
▁乳房
▁小康
▁金日成
▁特质
焦
▁基石
▁献上
▁情书
▁支柱
▁本着
▁喜悦
▁淮
▁敲响
▁聚合
▁小行星
孩
▁朝方
▁流浪狗
蛟
▁马拉松赛
▁定居
煲
▁马自达
讲
▁度假区
▁罗斯
▁典范
▁跨行
▁竟有
▁惨案
▁yy
▁刺鼻
稚
▁共同努力
斯克
▁骤降
▁非正式
▁熟食
厦
▁可行性
▁导购
▁行政部门
函
▁屠宰
▁优惠券
▁乘用车
翅膀
▁裔
▁在此期间
▁理工学院
▁采取行动
噬
稻
▁胖子
▁和尚
▁平均值
空间
挝
▁退学
▁矛头
▁成泽
▁保税区
▁选定
▁微波炉
▁宰杀
▁监考
▁777
▁碳酸
▁解开
▁匹
毗
▁陆金
▁高速铁路
踊
▁要花
▁下岗
▁开水
▁刑侦
▁之美
.54
▁核武器
▁中小学校
▁过早
▁文昌
▁借壳
▁冰川
涤
▁李泽
添
▁俗话说
▁衰老
▁那不勒斯
▁一周年
▁刘汉
▁柳州市
▁辅
蔗
▁微妙
▁谋杀
▁主意
胺
▁主旨
▁阿斯
▁恒生
▁危急
▁新颖
▁冲高
▁毕业典礼
▁劳斯莱斯
▁一会
▁红薯
▁未获
▁慌
▁指望
▁似的
▁卖地
▁代名词
▁宣扬
▁昭
▁金店
▁快车
▁仅限
央
▁中金
▁赞助商
▁威尔
▁种族
▁大热
▁学前教育
▁女演员
▁矿山
▁开花
勃发展
▁再次出现
浮
▁包邮
▁外墙
▁桌上
▁太快
▁展厅
▁要钱
▁史克
▁执政党
▁姆
▁伊丽莎白
▁自此
▁街边
▁菜鸟
▁戈
▁极易
姬
▁苏州市
怨
舒
▁王志
▁停用
成本
▁无权
▁明知
▁料理
▁华润集团
▁预备
▁国信
▁密切相关
▁央
▁晚些时候
违
▁一战
▁裸体
目标
▁探寻
胡
丑
.39
形象
▁新闻媒体
▁抗日战争
▁滨
▁网络平台
▁富力
▁西装
▁前女友
渲
▁沿江
▁政策性
▁表格
▁管理机构
劈
▁符
▁广告语
▁阴天
▁基础性
▁阵地
▁县处级
▁太湖
▁滞销
▁随之而来
▁旁听
▁近一半
▁一代人
▁存折
▁狂欢节
隐
魏
▁演变成
蟒
▁九年
厮
▁水产品
.49
▁演奏
▁音频
叮
▁玉溪
▁单品
▁江河
▁序列
▁东北地区
▁严防
▁菲方
▁昂
▁坎普
▁应为
▁册
▁兔子
▁一次次
▁报告会
▁五人
▁cm
璧
▁冷清
恙
▁澳网
▁科研人员
▁李亚鹏
▁黄先生
▁em
▁举起
▁整齐
▁再用
▁杂交
▁法制办
▁迎春
▁建设工程
矢
▁最爱
▁特工
▁赢取
▁还贷
▁三款
▁跳入
▁沉船
▁插座
数据
▁求学
▁mt
▁中金公司
▁奢
▁顺德
.72
▁化学品
炸
▁德国人
▁高尔夫球场
▁辞
▁前两天
▁差额
▁换届
▁放水
▁ebay
▁蓝宝石
▁杆
▁菌落
▁鲜有
泳
▁告示
▁类节目
▁华春
▁小额贷款
▁社会工作
▁跳伞
▁时而
▁江门
游戏
栅
▁再创新高
▁直通
▁葛兰素
▁民心
▁明珠
▁存贷款
▁份子
▁外币
▁不争
▁公司业绩
ent
召
芮
趾
▁收钱
▁对焦
军区
▁极力
▁198
▁奥林匹克
▁轻信
▁2050
▁营业执照
▁粉尘
▁赞赏
▁展区
奴
弓
▁其一
▁两位数
▁420
▁这群
▁倾倒
证书
▁在读
▁一书
▁柔性
▁暂行条例
▁控股集团
▁an
▁华中
▁投毒
▁不公
▁承销
▁过路
经验
▁异议
▁如愿
▁别克
▁异物
▁不弃
▁漫
▁岭南
2014
▁上称
▁存单
▁10.5
▁铝业
▁堪忧
▁十四
▁录入
▁特约
▁起征点
阻
▁雪花
▁体罚
.34
嗜
▁基因组
▁al
巨
▁天赋
▁吃火锅
▁寓意
手术
澎湃
▁百城
▁联席
▁49%
―
▁单车
▁解说
▁境界
▁城里
57
方式
▁王室
▁居委会
▁福克斯
▁加元
▁色素
▁三聚
▁逃税
▁公立
▁等同于
▁算了
▁少于
▁十位
▁卡西
▁充裕
▁坚实
▁国开行
▁酷派
▁组织者
▁人道主义
▁零件
▁创造力
▁顺势
▁奖杯
▁奇瑞
▁言行
▁金融监管
卢
▁考试网
▁纽约州
▁大碍
▁估价
▁错峰
▁福彩
▁ad
▁那边
▁存入
▁森林公园
▁财政支出
▁期末
▁车辆通行
事业
▁红霞
▁炼
▁主食
▁大部地区
▁讨厌
▁时间段
▁总统府
▁环境监测
▁表扬
▁换上
▁房车
豹
计划
▁电子信息
▁怀旧
▁积压
▁哈密
▁鲜血
▁出价
▁限于
.01
▁燃放烟花
ib
▁群岛
▁ppi
▁心声
.89
▁内测
摇
砷
你
聘
ion
▁相声
缮
▁强奸案
▁冲撞
▁一盘
▁转会费
▁万千瓦
▁地方法院
喧嚣
▁办公用房
▁追查
▁光鲜
▁部落
▁首航
文明
▁港府
▁家暴
▁养活
肯
▁香精
▁投资规模
▁蒂姆
▁小城
▁反向
▁西门
▁去除
▁下载量
▁弟子
▁剩女
▁搜查
▁主旋律
▁产业结构
▁替换
▁波特
▁武力
▁紧急情况
▁多分钟
▁听听
▁择机
▁却说
▁日复牌
风险
▁章程
▁旱情
篮
▁奥斯
烤
▁国新办
▁相匹配
▁32%
▁伤残
▁小企业
▁呈贡
▁许昌
▁好坏
▁重任
▁品味
▁郑某
▁鑫
▁原谅
▁特产
▁亚裔
▁安全局
▁侵袭
net
▁妻
▁缅怀
.57
▁经济型
▁并存
▁北师大
.59
▁小牛
▁东城
沼
▁失利
▁传统节日
▁江淮
▁重头戏
▁下楼
▁大客车
罩
▁巨亏
▁第三季
▁三代
▁头戴
▁唱片
▁鹰
▁桂冠
▁周星驰
▁审查起诉
▁聚众
▁镜片
▁大案
▁重构
▁暗黑
▁领奖
▁景色
▁快速路
▁fl
oy
▁小汽车
▁十七
▁消协
碑
▁处理厂
▁十余年
▁欢呼
仆
▁肺部
▁加纳
▁信息网络
▁日经
▁国门
▁主人公
缓
▁梯队
▁这儿
▁虫子
▁厌
胳膊
▁166
菩
▁围殴
▁招待
▁油菜花
▁单向
▁秦皇岛
▁万立方米
▁明令禁止
▁机舱
▁张高丽
▁囊中
▁重金
▁返航
▁前三甲
▁渠
▁植树
▁兽
▁降雨量
.43
▁房山
▁伤病
▁不敌
▁监护
ry
▁送入
▁冰冷
▁天前
▁追缴
▁丰收
▁可视化
▁帐号
▁案发后
▁水电站
▁不正之风
虾
▁红牛
▁流畅
▁同盟
翁
▁故宫博物院
▁生殖
覆
▁融资额
▁户型
▁企业主
▁好了吗
脆
遛
冒
▁社会秩序
▁投资总额
撇
▁中以
▁展现出
沁
▁税前
▁居民身份证
▁高性能
▁承担责任
▁美白
▁人来
▁下乡
▁多件
▁周转
▁完胜
踹
▁钢贸
▁wind
▁温情
俱
▁iv
▁震区
▁离场
▁马方
▁失灵
▁授信
▁伟
▁增开
▁ge
▁永嘉
▁募
▁给钱
▁新近
▁走近
喇叭
▁充实
▁恶搞
▁热钱
▁发光
▁办好
▁执纪
▁多余
蹦
倚
磷
▁四方
▁驻华
▁降临
▁or
me
▁臭味
▁每公斤
▁腐败分子
▁救生
▁优美
▁大观
▁高二
卫生
.82
▁化工厂
▁玩转
▁该名
▁中东部
而不
笨
▁转机
▁责任制
糕
▁巨无霸
▁春风
吹
▁阵痛
▁亲朋好友
▁东区
▁常有
▁浴室
槽
▁吸食
▁知音
▁匪
▁插入
机构
▁路人
▁海外投资
▁查验
▁精神疾病
▁这颗
▁日历
续
▁拉面
▁盟友
▁真理
▁电信业
▁酿酒
▁外国游客
▁回流
▁我能
▁皇后
▁房地产商
▁闭门
▁超低
廓
▁监督员
▁班次
▁会展
▁巨款
▁老字号
玺
▁影帝
▁youtube
疹
▁之心
▁中来
▁地向
▁稀
.64
▁草地
▁开班
▁私有
▁期货价格
▁套数
▁0.8%
▁看得
▁交纳
▁富商
▁被害
▁千亿元
肺
▁合作项目
▁钢铁企业
▁伊尔
▁数十万
▁国产手机
▁锅炉
▁万年
▁违反规定
▁财政部长
▁血糖
▁驻地
思想
▁巨额财产
▁监测点
▁职称
剁
▁霍尔
人民
▁英国广播公司
▁博文
崎骏
▁收拾
▁移居
▁不甘
▁灭绝
▁阻拦
▁偶遇
▁车流量
▁天翼
one
▁航段
跟
▁骑着
▁大修
▁投影
▁九寨沟
▁百亿元
▁锋
▁军民
▁不容忽视
▁第四个
▁唐慧
▁绝不会
▁考入
▁截获
▁这台
▁要价
▁先期
▁宿舍楼
▁执着
▁上场
▁充气
▁数码相机
实实
▁中雨
▁热血
▁货架
▁一米
▁选秀
▁技
▁隐身
▁过时
▁转正
▁卧铺
行为
▁环球时报
▁司令
▁达州
▁日出
牢
▁1.8%
▁尖锐
▁包揽
▁全职
▁四国
▁医科大学
▁科学院
▁吃惊
▁头版
▁小林
▁西城
▁破冰
▁性行为
▁跌势
.55
▁爆米花
▁巨响
▁句号
▁比价
▁大力支持
机关
▁政坛
匮
▁梳
▁几何
海峡
▁融资难
▁前十名
▁珍稀
▁管理模式
▁工业园
▁迷失
▁英媒
▁扮
▁世卫
▁悲痛
▁复核
▁自理
▁出港
▁入网
▁信贷政策
▁46%
▁外资企业
▁心得
▁站立
▁两边
▁第二代
▁合法性
▁外交官
▁万条
▁万公
▁可不是
▁拆分
▁党纪
▁犯罪事实
▁三网
▁第十四届
▁漏水
迎
▁斯托
唏嘘
▁申通
▁地里
▁离任
竭
▁总导演
▁素食
▁外事
驰
▁芝麻
▁十佳
阳湖
▁速递
▁流泪
▁病症
国强
厨
良县
察
▁贫血
▁工友
▁构想
▁融化
▁孕育
▁不合
▁少不了
▁领导层
▁42%
▁白热化
▁上衣
▁仿
▁偏爱
屎
镀
▁全班
▁轰
▁交通部门
▁131
副
▁免税店
悚
▁安抚
.
▁仰
▁气势
▁见过
▁法律援助
▁案子
▁水果刀
▁桃园
▁模
▁逮
▁拟向
.61
▁星期六
▁右边
ook
▁张德江
▁投案自首
▁欠薪
▁总领事馆
▁少见
▁呼唤
▁010
▁1.4%
▁菜品
▁陈水
▁救助站
▁鼠
倘
▁焦作
sp
否
▁冷战
▁可望
▁查清
慎
▁适
▁三轮
▁宴
禽
鲤
▁锐减
憧憬
▁上山
▁159
▁接轨
▁疾
▁业者
坎
▁考试成绩
ml
▁甜美
▁空置率
▁受益者
▁被执行人
▁雨伞
▁墓葬
▁证人
▁屡见不鲜
▁背负
▁口水
岷
▁dax
缤
▁花旗
▁丘
▁第一款
▁溢
▁日媒
▁国家外汇管理局
▁足球场
▁烤肉
▁宠物狗
缭
▁学界
▁年关
▁初中生
▁反垄断法
▁锦江
▁大幅提高
▁误会
▁烈
▁居民家庭
开发
▁头球
2013
▁要约
▁基层干部
▁垫付
▁奇观
▁华远
▁考题
▁注明
▁企业名单
▁海运
▁不上
▁基辅
▁田径
▁航海
▁聘任制
研究
.58
▁告一段落
▁怀抱
兼
▁结案
昌县
▁赛区
▁摩天大楼
▁窄
▁出入口
▁泰州
▁冠以
▁坠
▁综合治理
▁家庭成员
▁急救车
▁服务提供商
▁司令部
▁通讯录
▁虚报
馍
▁解聘
▁谈起
▁研究室
▁抽样
▁古墓
▁交通厅
惧
贷款
▁贵宾
▁汉阳
▁ca
▁pr
▁am
▁鸿海
▁使用率
▁博浪
▁专机
▁接盘
▁叫好
▁荷花
▁氧化
▁监护人
.20
▁居住地
▁3300
▁乳品
▁新纪录
▁部手机
▁挫折
▁起家
▁开卖
盗
况
▁藏品
▁棉被
▁如是说
▁女工
▁税款
▁贡
▁九州
▁病患
▁经受
▁氯
▁染色
▁390
豁
▁扣分
▁批量
▁剧毒
▁暴打
▁小康社会
.27
伞
厉
▁超重
丈
▁cac
▁清零
▁出厂价
▁两份
▁犯下
▁并不多
▁高层次
▁欺负
▁选美
▁江水
▁最高点
辨
▁代表队
▁农家
▁纸牌
▁将车
▁弥漫
▁值钱
▁galaxys
▁厄瓜多尔
▁优于
燃
▁电影票
▁可不
▁发财
▁漫游
▁一并
▁两党
▁西游记
▁造访
▁雪山
▁坐落
▁拜年
▁430
▁终值
▁这则
▁新桥
▁有种
▁余元
▁法师
▁风控
▁恋
▁粒子
▁西伯利亚
▁死缓
▁总统大选
▁感恩节
▁一环
▁善后
▁生命力
▁掀
▁多样性
▁交界处
▁二月
络
建设
▁敬业
朋友
▁丰台
▁米处
▁放慢
▁金秀贤
▁遗产税
芭蕾
▁二字
▁国际奥委会
▁广告公司
▁视作
▁双江
▁富士
▁取票
▁刀具
▁实则
▁艰巨
▁外地人
▁快讯
靶
▁提炼
▁烈日
祈祷
▁倒退
▁爱护
▁尊敬
▁首张
▁设区
▁指导价
▁生态圈
▁长白山
▁明晰
▁新德里
闯
▁吸入
▁总站
梵
▁面上
▁契税
▁衰落
▁棋
▁元首
▁两轮
▁外电报道
▁当家
▁精密
▁囊括
▁星空
▁护送
▁万圣节
▁河里
▁决策者
痰
▁总裁兼
▁客票
▁应邀
▁蜜蜂
呵呵
▁老爸
▁wta
▁特制
▁车牌号
▁双层
▁攻势
▁呼叫
.62
а
▁联合国教科文组织
邪
▁一步之遥
▁高频
▁标记
▁1983
尧
▁胃口
▁工作效率
▁万众
▁第一阶段
▁订制
▁穆迪
平方米
▁法学院
▁12000
琉
ick
▁股息
瑜伽
▁查理
巾
▁秀场
▁方方面面
杂志
匈
▁现存
▁2.6%
▁mar
▁17173
▁国有化
▁永辉
▁清朝
▁mac
熬
▁统考
▁最深
▁休市
▁特首
▁新品种
服务
▁副组长
▁午饭
▁力求
▁摸底
▁采矿
▁阴谋
▁歇
為
▁控告
▁诚实
▁推上
▁其所
▁奉化
眉山
咳
▁坐火车
▁买方
▁安居
▁少有
▁稳定增长
▁影星
▁儿童节
▁永康
▁六一
▁勤奋
▁河边
▁通报会
▁从今天起
不过
600
▁218
▁政治局
▁莫耶斯
▁田园
▁火花
宕
▁优越
▁日本央行
一时
▁创始
▁甲骨文
▁东经
▁重大突破
之处
唯
▁一脸
拖
▁婚纱照
▁冷链
▁接班人
盏
▁坐镇
▁政界
▁孙某
▁lng
斯坦
▁会后
▁重温
▁升起
▁发行量
▁我爱你
▁变异
▁初始
▁惯性
▁做个
▁饿死
▁12.5
▁北侧
▁梅德韦
▁胆固
▁星期日
▁处女座
▁选择性
▁全球性
▁答题
▁寨
▁第三名
▁丧
▁铜陵
▁鲜活
▁错失
▁牢记
▁参演
设施
▁大白
▁助阵
▁一车
▁爱美
▁小马
▁国度
▁警钟
翡翠
▁蓄意
▁食欲
▁持续时间
▁品牌形象
▁惊奇
悖
▁往事
▁高居
▁在校学生
▁149
▁明火
▁颁奖礼
▁反省
▁守法
▁获奖者
▁水管
▁感染者
▁定罪
▁古人
▁国立
▁普及率
.81
▁重生
▁说走就走
▁战友
▁自助餐
▁问答
▁乌镇
▁牛仔裤
▁巧家县
▁经济舱
▁连同
▁联姻
▁女装
豫
任务
▁推断
谬
▁刚刚开始
过去
▁一城
▁遣返
▁母亲节
▁神圣
窨
▁灾民
▁俄国
▁马路上
▁二三十
▁双赢
▁时至今日
▁141
回来
▁万日元
千元
暑
▁喂食
▁税务总局
哇
▁小学校长
▁先试
▁国足
art
▁测定
▁48%
▁净增
▁何去何从
▁热点话题
▁牧民
▁680
▁面具
不知
▁切断
▁扩充
▁幕
▁反倒
▁大满贯
▁中南海
▁标致
▁阿布
▁愈加
窦
▁操场
▁市价
▁经济圈
▁0.7%
▁市场秩序
▁资金来源
▁东侧
▁不间断
▁多来
▁防线
▁住院治疗
▁常熟
小说
▁战后
▁动脉
▁竞相
▁高级中学
确
▁有所增加
▁血迹
茜
▁年龄段
▁排斥
▁建筑工地
▁控股公司
▁该镇
掩
▁配图
▁结账
▁店老板
▁安防
▁毁灭
▁交通管理
▁爆炸物
▁建交
▁2.1%
剧院
▁大作
▁呼和浩特市
侯
▁有轨电车
▁魔鬼
▁黄花
▁酒业
▁苦苦
▁拉手
▁舌头
▁列岛
▁双节
鞠躬
▁从政
▁养殖场
▁保障局
▁重病
▁发挥作用
▁泊位
▁竞争性
▁当着
▁宋林
▁出新
▁空头
▁刑罚
▁资本运作
▁昨天中午
▁得罪
▁图形
▁两车
▁多点
拷
▁闯进
▁坏事
▁车用
▁经济总量
▁手写
▁阅卷
▁论述
▁威马逊
▁外省
拼
▁宽带接入
▁两处
▁马车
▁初审
▁快餐店
▁围攻
▁杰克
ong
▁集锦
▁数个
▁空心
▁坐下
▁购机
▁曲靖
▁中药材
▁正以
▁铜像
▁克莱
▁热刺
▁2.4%
▁精细化
▁家庭暴力
▁酒水
▁讲台
▁大河网
▁支招
孕
▁提质
▁特许
▁堵住
▁氧气
▁核心技术
▁平安夜
▁新闻频道
▁抱团
▁煤老板
▁颇受
穆
▁名城
杠
嬛
▁中联重科
▁染
▁1945
▁尾巴
▁31%
▁托马斯
▁多于
▁称作
▁附带
▁6500
▁干线
▁靖
▁秘鲁
▁冰冻
▁密切接触
宋
▁看清
▁背离
▁前晚
▁生机
▁深海
▁子宫
公路
▁铁道
▁金刚
▁两岸关系
▁物业公司
▁34%
▁王梦
▁侦办
▁偏见
▁选票
▁摩尔
▁隐秘
59
▁有钱人
▁驱逐
▁交易系统
▁逼真
▁限速
▁赶超
▁进口量
▁屠杀
▁裙子
▁嘉定
▁举牌
▁乐天
▁排放量
舰队
▁国库
▁安康
▁奈
▁趋向
▁物理学家
▁卷土重来
▁忠诚度
▁伪装
译
▁iii
▁中央党校
▁7.3%
▁铭记
▁皮克
▁增产
▁魔幻
▁捷豹
▁参考报
▁助学金
▁无从
est
▁审定
行动
▁兵团
晓明
▁五四
▁三只
迅
▁利于
▁几张
▁7.6%
▁弱化
▁这事
▁遭拒
▁邀请函
蹊跷
▁中外记者
▁造纸
▁节日期间
▁受骗
▁关键时刻
▁崇拜
▁警用
▁一列
▁另一半
▁解体
▁公交公司
▁变速箱
▁权重股
力量
▁日中
竿
▁只想
▁力推
▁ph
苯
▁开园
▁我校
葛
▁特大城市
▁一跃
▁传统产业
▁借着
▁江宁
▁再说
▁城市居民
▁布满
▁答记者问
▁bc
各
▁圆明园
▁利比里亚
▁相邻
▁婚前
▁知名企业
▁一排
▁巴西队
分析
▁肃
▁接纳
▁最低点
▁连涨
▁一角
伺
▁柴静
烫
紊
▁淡出
▁贴膜
▁每分钟
.53
▁扎根
▁地市
¥
▁山地
▁该股
▁中央委员会
▁替考
▁阿尔及利亚
▁重整
▁缔造
▁金秋
▁只见
▁术后
▁片段
▁李建
▁清点
▁科尔
衬衫
▁第二年
▁写出
▁张志
▁中医药
▁瓷
▁点位
手段
▁真空
寥寥
▁成像
▁见状
▁两所
▁名胜区
▁颠覆性
▁给力
政协
▁吉林市
▁天上
▁176
▁商业街
观念
▁申银万国
▁李安
▁既定
▁毫克
▁比前
▁雷人
▁并行
▁143
▁计量
▁中西
mg
▁妇联
▁沙特阿拉伯
▁箭
▁飞抵
▁mb
殉
▁申花
▁湘潭市
▁迫于
工具
汹
▁图文
▁园方
▁办公大楼
曰
▁惩戒
▁地狱
▁跃居
▁断电
▁柯达
▁杯子
▁闭环
▁令人担忧
▁几分
▁登台
绰
▁点亮
▁北京市政府
▁突如其来
▁同一天
▁rqfii
亩
▁装扮
▁今冬
▁公务车
▁魔术
▁同月
▁下巴
▁旅行者
▁日早
批评
▁下一阶段
▁流通股
▁第十八届
▁东道主
▁高喊
▁尾号
▁不起眼
▁3.2%
▁老人家
幌
▁蒙面
▁好比
▁年销售额
▁喊话
▁举债
▁贸易顺差
祠
▁少将
▁平房
▁步步
▁aa
▁液化
▁银监局
▁易信
▁休克
暧昧
▁极少
▁布伦特
▁万字
▁拍到
▁他杀
▁快来
▁过夜
▁投资收益
▁当众
萱
▁假钞
▁扫黄打非
▁玛莎拉蒂
▁长虹
▁怨
th
▁牵引
▁内向
▁汪峰
▁亚太区
▁大大小小
服装
▁再造
▁147
▁沃尔
▁海淀法院
▁史蒂夫
▁交通局
▁管委
▁首秀
▁仲
▁圆满完成
作风
▁深情
▁欣
▁挺进
▁律
兄
▁巴尔
▁实属
▁周期性
▁153
▁限贷
▁评判
狠
▁地产股
旱
▁取得成功
▁蒂托
▁警察局
▁王文
▁毛钱
▁上班时间
▁余件
▁出发点
▁触摸屏
▁别说
▁副处级
▁清迈
▁乐购
▁人社
▁当属
▁女孩子
▁电召
▁超强
▁分量
▁新举措
▁过低
▁爆棚
▁二中
▁公平竞争
▁纸媒
▁莫迪
▁缴税
▁鲁能
▁乐清
▁折射
▁评议
▁再次发生
▁越来越近
▁不知不觉
峻
▁产销
▁终究
▁一两年
▁致病
▁避难
▁恐怖组织
▁航空业
▁牢
▁洁
▁刺伤
▁生下
▁怀柔
▁不爱
▁林书豪
▁客轮
▁摸索
▁倍感
▁升降
▁内脏
▁29%
▁干部职工
▁香味
▁另一
▁禁售
钛
▁期货交易
仇
侨
▁1979
搭
▁变暖
▁照常
▁1.3%
▁下台
雷斯
▁apple
▁楚天
▁化学武器
▁中枪
▁永久性
▁产品设计
▁视网膜
▁拓
и
▁来不及
▁if
骥
挺
沫
▁网络空间
▁开考
俄
酒店
▁总产值
▁九号
▁科研经费
▁行医
▁中转
溉
▁行径
▁坪地
▁商谈
▁保鲜
▁储粮
▁品位
▁煮熟
▁打交道
▁亚历山大
▁刚出生
奔
赌
▁985
▁艾瑞
▁友情
▁奴
束
▁楼层
▁政客
▁2.7%
▁跳出
韬
▁此行
▁警方正
▁心思
▁救市
▁射杀
▁挡住
▁弱势群体
▁厦大
▁校园内
▁鼓楼
▁招工
▁太阳系
▁过世
▁困难群众
▁一大早
▁格拉
▁产品价格
▁星期一
▁节气
▁孝感
▁青年人
▁竞争者
▁腕表
▁处方药
逼
▁严重后果
绷
▁节节
▁数为
▁房奴
▁可信
▁风俗
▁叠
▁轴
▁一刀切
▁进出港
▁涨到
隋
▁共设
▁白马
▁660
▁支架
▁第二阶段
维尔
▁至上
同学
▁并举
▁涉黄
▁便秘
▁工商行政
▁桶装水
▁现如今
▁曾一度
肖
▁全力以赴
▁足坛
▁上下游
▁一回
▁加利福尼亚州
▁埋单
▁一模一样
▁个头
▁南京大学
▁风头
▁购房人
▁美元兑
▁清白
▁抽签
▁解雇
▁顾虑
▁按键
▁维持原判
奚
▁贪污贿赂
▁珍
▁芯
▁中美关系
▁吉祥物
▁靠着
崽
▁大后
▁定格
▁总署
▁处方
▁踏实
▁房姐
铂
▁买不到
▁人能
▁订婚
莆
▁coo
椒
大会
▁东北虎
▁wto
▁二期工程
▁巧合
▁440
▁如实
▁法国巴黎
▁呼救
茅
.52
▁排序
▁金融资产
烦
▁各行各业
▁公益事业
▁盐业
▁乌云
▁天坛
阶段
▁价差
▁完备
悠
▁小城镇
▁香肠
▁驱
▁海宁
▁接吻
▁别样
▁水源地
▁车程
▁教父
澈
▁补给
▁逃亡
▁培
▁大势
▁华商
man
▁触电
▁班长
平市
▁爱马
▁美林
▁放飞
▁保送
▁打火机
▁遍地
▁上一年
▁脱光
褐
▁本部
▁出家
预
▁迫降
▁价格比
▁234
搅拌
▁救命
▁革命性
▁牛肉面
▁想必
▁底下
▁142
▁非凡
▁上期
▁抗争
览
忏
▁1.2%
.41
▁致以
▁新店
▁打新
酶
▁拉姆
▁聊城
▁天鹅
▁塔利班
▁保湿
▁炒房
56
▁美日
▁不计
▁四川大学
▁畅读
▁中下旬
▁马斯克
▁国际金融
▁数日
▁拜登
援
▁三里
▁单边
▁下体
▁绿色通道
▁老奶奶
▁取景
▁略显
▁郭德纲
志刚
▁有罪
▁临客
▁耶伦
▁做大
国际
▁亮丽
▁单打
▁化肥
▁通用汽车
▁钢企
巍
▁方丈
▁建于
▁构造
▁差评
▁航空运输
▁衣着
▁该不该
▁四点
▁听众
▁施工现场
▁enfodesk
粑
▁缺水
哮喘
▁松花江
▁扔进
激
▁案一审
▁前年
▁奇妙
▁岳阳
▁经开区
▁勒索
▁协议书
▁疑因
▁淮南
▁个人信用
▁十天
潇
▁关机
钵
▁重演
▁尿液
▁猎头
▁险些
▁善意
彻
▁留存
▁湘西
▁鸭子
▁呼格
▁日美
邂逅
▁冲入
▁文山
▁林肯
▁note
抉
▁邮储
▁非公
▁攀爬
▁港区
▁霍金
▁金字塔
▁年产
▁前首相
事故
▁婚外情
▁百货店
▁克里斯
▁五彩
▁卫士
▁前线
▁幻
▁水货
▁航道
▁野猪
▁渣
▁mark
▁女主播
▁环绕
▁承压
策略
▁骑士
▁起售
▁雕
▁退化
▁恶意软件
▁获此
▁离退休
▁治污
▁前端
▁水涨船高
▁凯旋
▁人身安全
▁in
岚
▁平和
▁时不时
▁详情请
▁大学教授
▁交通枢纽
▁没见
▁坚果
▁天涯
о
▁互信
▁哈利
▁数家
▁随行
▁塞浦路斯
▁同仁
▁依法行政
▁鼓舞
▁迎客
▁紧紧围绕
粱
▁液化气
▁拨付
▁学到
▁递增
淆
▁说了算
▁小李
▁通俗
▁万平
▁驶离
▁530
▁取水
▁承德
▁二世
▁避暑
▁引燃
阶
▁pps
峪
▁深圳证券交易所
▁艺术类
▁认真学习
▁结果表明
盼
▁教育资源
▁杀入
▁颠
▁死角
▁此间
填
南区
踵
▁令人震惊
▁紫色
▁清淡
▁月生
▁骑马
▁致人
▁瓜农
▁尖阁
▁祭扫
▁攀枝花
▁授
▁阿克苏
▁国家有关
▁个个
▁农村居民
▁观摩
▁国家邮政局
▁联系人
▁艾伦
▁孔雀
▁内蒙
▁裸露
项目
▁太贵
▁环保法
▁韩媒
▁顺风
▁从容
ers
fc
▁第一季
▁光顾
▁本息
▁斗门
▁雅安市
▁油门
▁该厂
▁药用
▁围巾
▁美化
▁孟建柱
▁小猪
▁党工委
▁剑桥
▁军区
罂粟
▁回乡
▁省城
▁高居榜首
▁大鹏
▁平均气温
▁直播间
▁后勤
▁雨量
▁几条
▁收尾
自然
▁主任委员
师大
▁上百
▁财政预算
▁宝石
▁5.5%
▁供认不
▁舟
▁姜伟
▁曲折
▁昏
▁战火
▁169
▁适量
ti
▁发行人
▁柔软
塞湖
婪
▁成瘾
▁大都市
▁人财物
▁298
▁丢掉
▁格力电器
迟
▁姑
▁明朗
部队
▁公测
▁过热
▁金服
▁兼容
▁入睡
▁53%
▁跌倒
▁训
▁难民
▁忙于
▁青铜
决策
▁肯尼迪
▁公开招标
▁违禁
▁纷争
▁bl
▁一日游
▁177
▁喂养
▁恩爱
▁克鲁
▁判令
▁抵消
三大
▁国家一级
ce
▁排列
▁投递
▁建筑业
▁出击
▁双休日
▁泡菜
▁投稿
▁一岁
▁公务机
▁520
撒
搓
▁备考
狄
▁副驾驶
▁追随
▁利益输送
▁罗湖区
▁该款
▁老子
▁红十字
▁外交政策
媲
▁这三
▁明信片
▁霸主
▁亿韩元
▁游走
▁第一年
呛
▁终审判决
▁山庄
▁海峡两岸
▁看球
▁社保局
▁胃肠
瞪
▁业务量
▁王思聪
▁北京市民
▁喜庆
▁照射
▁尾气
梧
▁电磁
▁一二
橙
▁水龙头
▁强生
▁相符
▁唐代
▁紧接着
▁扔掉
▁灰尘
▁隐形眼镜
状态
▁数百人
▁这本
▁撞死
▁不良反应
▁隐忧
▁积极探索
▁密云
▁普选
粕
▁夜总会
▁翻新
▁网络攻击
▁曾于
▁高举
▁查韦斯
▁烟酒
▁止跌
▁一众
▁三中
.77
不下
.21
钾
▁彻查
分之一
▁原文
婺
▁暖气
▁省辖市
▁制片
▁安全法
▁比如说
▁武林
▁关节
▁地税
▁亿次
▁妥善处理
弧
▁藏身
肢
▁政府军
卧
▁开裂
▁万象
▁干货
▁眼角膜
▁夺取
▁3800
▁交投
▁坚挺
▁巢湖
▁汉中
航空
▁失火
▁房市
▁加班费
▁拼车
▁日落
聋哑
▁决策层
▁7.8%
▁长微博
▁打断
▁疑为
▁怪圈
冉
▁插手
▁虽说
▁答卷
雯
▁花掉
▁收盘报
▁安庆
利益
▁专员
▁金奖
▁女网友
▁人保
▁负债率
茹
陡
喉咙
▁四环
▁下落
▁婚庆
▁万庆
▁龙海
▁领空
▁购进
▁电能
▁畅谈
▁一袋
▁诉讼请求
▁补偿款
▁体能
▁三门峡
▁景德镇
▁业务收入
糙
▁明代
▁期满
▁一百多
▁深切
▁丁磊
▁投档
▁转战
▁现时
▁投降
▁输给
▁etc
▁十号
▁达赖
▁集体土地
▁含金量
▁最优
管理局
▁保洁员
▁责任事故
▁起航
▁二氧化硫
▁兹
▁西游
▁总行
▁果蔬
▁刘建
▁交钱
▁良机
▁团长
▁晴天
▁笑脸
▁愤
酯
ass
▁开罗
io
▁法定代表
▁童装
.71
▁民兵
▁鲜艳
▁息
▁美国宇航局
▁九大
▁来信
▁只为
▁186
▁最重
▁推广应用
▁滚滚
▁无须
▁逼迫
az
▁诉状
▁借壳上市
广告
▁服务水平
▁谍照
▁负荷
▁萌萌
▁出卖
▁信赖
▁回事
暮
▁女职工
价值
▁龙舟
▁pp
▁月光
一人
▁徒手
▁老城区
▁层级
捐
▁售楼
▁一秒
▁过失
▁面馆
▁血拼
▁新生代
▁荒唐
▁五角大楼
▁死伤
▁士
杖
▁驾考
▁一包
▁龙江
科技大学
▁荣登
▁身旁
▁处理结果
▁小升初
▁葬
▁是否是
▁茅
▁情报机构
眨
▁大年初一
▁巴洛特
▁不动
▁isis
▁如厕
▁另行
▁餐桌上
▁领事馆
▁最佳影片
▁怎能
▁转弯
▁四强
▁国家开发银行
▁暴风雪
▁仅靠
▁历届
瑜
▁舰队
▁城南
▁澄
镍
▁尼奥
▁板蓝根
▁冰块
▁战平
▁黑幕
▁侦察
▁决不能
▁移动用户
▁必定
▁二等奖
▁财团
.80
▁征战
▁拍卖行
▁所有者
▁加固
▁能耗
▁施政
▁裕
▁王者
.30
▁标明
▁德阳
▁爆发式
▁新开工
▁牢固
▁工资水平
▁遇冷
▁绝不能
▁申请者
▁全党
泊
▁部将
▁欠缺
▁不负责任
▁数亿
▁穷游
▁公分
涮
▁电讯
▁喝茶
▁突袭
▁睡前
凿
ge
▁整天
▁孤立
憨
▁横行
▁图表
▁工作作风
火虫
▁43%
▁推倒
▁假装
▁3.1%
▁巴克莱
▁不良影响
▁敬老院
▁耗尽
▁迪斯尼
▁大展
▁外媒称
▁科室
▁动人
▁截然不同
▁到来之际
昭
▁恶臭
▁沉睡
▁购得
瓷
▁海信
▁连跌
▁丰富多彩
▁心存
▁质问
▁破碎
▁管理体制
▁零距离
tr
▁重拳
▁灵活性
▁镜子
▁外环
肾
▁牧场
▁降低成本
▁蛮子
▁侵华
▁idg
投资
▁旅游节
监督
▁兰考
▁供货商
▁总医院
▁两头
决
▁豹
▁专利申请
▁参议员
▁生还
▁之情
▁来京
▁何方
▁抑或
▁开拍
▁贪污罪
▁裁
▁快到
▁客源
▁引渡
▁箱子
绵
▁澳元
▁李明
▁风口
▁近半年
仰
▁fbi
▁该报
▁一揽子
▁蓝领
嗓
▁打造出
▁独居
▁互利
▁自民党
▁tvb
▁沿用
‰
▁炮弹
▁馆长
踞
▁手术室
▁发明专利
▁分批
▁.....
面积
▁吴先生
▁纪念品
▁以西
▁电击
▁维也纳
▁歌词
▁中心小学
▁科考
▁股票交易
▁环城
▁着眼
泾
▁萧条
▁出头
▁151
▁身体状况
▁岳父
▁负责同志
▁翔
▁绝佳
▁群体性
贡
▁248
▁不通
▁纹
▁列表
大使馆
▁再起
刨
▁利亚
▁范儿
▁科维奇
▁尽头
▁大便
▁北京师范大学
▁民资
麒麟
▁电视广告
▁小美
讹
▁装满
▁宣战
园区
▁手绘
▁标配
▁大好
▁乐乐
會
▁捕捉到
▁宝钢
▁东阳
▁限牌
▁不俗
▁收购价
皓
▁契合
之地
▁皇冠
▁性命
▁忧心
涪
▁事前
▁立法会
▁文案
▁致信
▁不约而同
▁情节严重
▁国王杯
▁林志玲
▁小姑娘
▁过渡期
▁改观
▁行李箱
马云
褒
▁寄托
▁无论如何
▁纪念碑
甚
▁四类
▁面额
▁顶风
▁足球队
▁煤油
▁大体
拥
▁税种
▁天线
▁集约
▁废水
昵
苍
▁紧张局势
▁焦裕
▁存有
▁七旬
▁上马
不去
▁四条
蚁
职工
▁甲级
▁调查取证
河区
▁广汽
▁诱因
▁不经意
▁空港
▁进货
▁最短
▁工业区
▁贼
饵
▁万平方公里
▁斯坦福大学
▁恒星
▁碰上
▁佛像
▁作息
▁聘任
▁这艘
▁重阳节
▁更多人
▁吃药
▁浮现
▁染料
▁衰
▁钓
▁近东
缀
▁好几个
▁空巢
▁讨要
▁尼尔
▁纯收入
▁悠闲
▁不绝于耳
▁行业标准
▁堆放
▁首付款
▁均值
▁骚乱
▁交易价格
▁当务之急
▁应声
▁邮局
分子
▁造福
拓
▁力挺
烙
▁看空
▁筹款
▁太小
▁南门
▁失落
▁雪地
▁ok
▁航空航天
▁便携
▁印制
▁汤圆
▁卢浮宫
▁各式
▁逝去
▁城北
▁迎宾
▁盼望
.60
▁服务站
棕榈
▁与时俱进
▁平度
▁了不起
▁六年级
▁亲近
▁ak
爸
▁院子
▁越野
▁4.5%
▁招揽
▁贾跃亭
屿
▁起诉书
▁丰台区
▁岛内
▁名气
▁税收政策
▁提成
▁应届生
▁喷发
▁网络文学
▁离异
▁平平
『
▁党建
▁伤痕
▁勾结
管局
▁光辉
▁曹某
▁集市
▁侵吞
迈
▁科学研究
▁台媒
▁朝鲜劳动党
▁商务厅
肚子
▁410
▁警犬
▁变数
▁鉴别
▁后遗症
▁买房子
▁海淘
▁地形
ea
▁网络广告
▁力气
▁火速
不足
▁好日子
海区
▁提高警惕
▁两台
▁利用率
悬
▁微弱
▁1960
▁收高
▁触角
▁自强
▁据传
▁必胜客
▁救灾物资
▁佳节
▁米线
▁钻戒
▁开战
▁伙同
▁昨夜
▁插队
▁消防安全
▁面向全国
▁家境
惯
▁丁书苗
▁肉毒
西县
etf
妥
▁稍后
▁豪华车
▁增压
▁基本工资
▁发展潜力
▁美国白宫
▁悔
▁出租房
晟
▁以东
▁买得起
▁托雷斯
▁冷漠
▁培训中心
不安
▁专心
▁一两个
▁公司总裁
▁火力
惬
▁市属
▁冲上
▁量身
▁环境影响
颈
▁理查德
▁pptv
▁丈母娘
▁光棍
▁交易商
蒸
▁一队
▁上万元
▁华夏银行
▁扰民
▁象山
▁沿海地区
▁各界人士
▁打个
隅
▁微小
▁约旦
▁主导地位
▁加沙
▁预装
邕
▁画幅
▁大众网
▁牛排
▁线条
▁正大
▁一对一
▁需谨慎
▁前男友
▁av
▁附上
▁变脸
闸
▁最炫
▁192
▁移动电话
▁妹纸
▁援手
▁小龙
▁当面
▁上身
▁仅限于
▁先机
▁揭发
▁简约
pr
▁无情
▁双色球
▁全天候
▁分组
ss
▁慧
琏
▁千万美元
▁中小城市
▁歌剧
▁歌迷
▁江山
▁大到
安区
▁1950
▁任职期间
▁法宝
▁出人意料
▁作秀
疡
▁漫天
▁保持稳定
▁门窗
▁脸色
▁起始
▁开馆
▁早产
▁精通
▁疏忽
▁大半
▁41%
▁现役
▁分会
▁展品
co
▁时分
和园
▁乐于
▁冒用
▁监护室
▁霸
妇女
▁抢红包
▁俗
▁口香糖
▁亿千瓦时
▁音响
扑
▁特困
▁一般来说
▁上百万
▁月间
▁受困
▁逆行
▁过错
▁人多
▁克罗地亚
▁感应
▁调低
人才
▁学雷锋
▁深圳机场
▁保温
▁博士学位
▁不需
▁株
〈
〉
▁52%
▁加分
▁半年前
▁客运量
不来
▁冲洗
▁该书
句话
▁挥舞
▁造势
▁罗本
▁叫卖
▁惩治腐败
▁虐
▁喷泉
▁汤姆
▁起伏
▁明清
▁癌细胞
▁读取
ins
殃
▁毁坏
附
▁国家赔偿
dp
▁不断完善
se
▁布鲁塞尔
丫
▁眼花
▁踏入
▁涉外
▁朱某
▁六旬
─
▁抚
安市
▁坏人
▁朴素
▁龙卷风
▁落到实处
▁多钱
▁新星
▁拳头
▁汽车产业
▁闪亮
▁贺岁
▁外科
▁右腿
▁首播
牙利
▁中国农业银行
▁炫富
▁日系
▁期为
▁南侧
▁联合声明
海军
▁不出
舔
▁行窃
▁景谷
▁1.9%
▁近几个月
▁交了
▁消防支队
揽
电子
▁做些
▁午休
▁卫生院
联赛
▁手头
▁蜜月
▁险情
▁概念车
▁西藏自治区
▁姓氏
▁教会
▁理发
▁指纹识别
▁鸟巢
▁粉色
▁心头
af
▁其子
▁开服
训练
▁流星
▁综合症
▁师德
▁指使
▁仿制
▁残联
▁市场监管
▁治疗费
▁服药
▁奶油
院校
▁挡风玻璃
碚
▁cd
▁考取
▁闹钟
▁安全漏洞
▁反差
▁钱款
▁cl
▁雕刻
▁最低价
▁政要
悲
▁管好
▁六十
握
▁主任医师
▁湖州
潜
▁股转
▁两月
▁病危
▁往常
▁下文
▁犯人
▁死难者
▁抽象
▁窃贼
.40
▁0.9%
▁胁迫
▁回访
▁测序
南州
▁总成交
▁微观
▁三百
▁看成
▁货品
▁才华
▁ce
▁肉制品
▁首开
▁顺义
▁吴敬
▁隆重开幕
▁画像
▁紧跟
▁巴勒斯坦
▁傅成玉
▁护卫舰
▁校外
▁相貌
▁苍南
▁看不
di
▁入门
▁收储
ef
▁敏锐
▁身子
▁首站
不已
▁稀奇
太大
▁转折
▁小苹果
▁二三
偶
▁金融业务
▁城镇化率
▁ex
▁大江
▁腾冲
▁会为
▁做市商
▁本想
绿色
肛
▁低速
▁杰拉德
▁水流
▁辩称
▁电子眼
▁李春城
▁本色
▁落选
▁借款人
▁金融股
▁演化
▁两三年
▁张建
▁楚雄
▁何某
▁闻讯
▁永安
愚蠢
医学
▁自焚
▁肉眼
▁良知
▁黑作坊
▁手机软件
▁屋里
▁暴富
激素
▁王建
▁演进
▁大到暴雨
赔
da
河县
睦
鱿
▁斌
▁瓶装
第一
奉
▁李东生
汪
病毒
▁银行行长
滚
▁范加尔
▁一串
▁晚年
▁代工厂
▁斗殴
▁el
▁掩饰
▁纵容
▁博览
文件
▁备份
▁无障碍
▁警卫
▁资本金
▁157
现象
▁每人每年
▁中国网民
▁低至
芋
▁局限
▁试题
刁
高级人民法院
▁升迁
▁先驱
▁3.3%
凭
▁偏差
▁全员
品牌
▁复查
▁不治
▁163
▁金融街
▁综
▁提出申请
▁不详
▁黄冈
▁56%
▁刘洋
▁住处
▁著
▁98%
▁微软公司
化器
▁驾驶室
▁三八
▁滋味
革命
▁六级
▁孤岛
▁悠久
▁东营
垣
▁金花
▁企业级
烁
桔
▁互补
▁这栋
▁新民晚报
开展
▁风声
▁汇丰银行
频道
▁绿灯
▁奖得主
▁掉头
▁征程
▁倍增
▁钢管
▁画上
▁一男一女
▁中专
▁茨
▁精明
▁带回家
▁采编
▁各式各样
▁多户
▁缺点
▁规章
▁最高级别
▁宣传教育
▁近几年来
▁印花税
▁覆
▁寿司
▁期指
▁源源不断
.70
▁中国大学
▁淀粉
▁州市
▁绕过
▁未公开
▁上当受骗
▁几大
▁马里
▁改扩建
▁胸前
▁平方
▁凯迪拉克
▁却成
▁取得联系
尔德
▁犯罪行为
▁根基
▁光彩
▁旅游团
▁早起
▁抢劫案
▁弹道导弹
▁暴力事件
▁纷
▁游戏规则
因素
▁应聘者
▁上阵
▁科员
▁罗永浩
▁甜品
▁起身
▁之力
▁分支
▁觉醒
▁更多地
豌
▁打下
▁江汉
▁小强
▁三者
▁630
▁建工
▁金九银
▁庄严
▁显露
▁鲜为人知
▁王军
▁扫地
▁1.1%
▁奥运冠军
▁违停
▁边框
▁样板
▁夜空
▁王朝
▁百分之
▁所涉
▁晚饭
▁部级
▁胶带
霾
▁abc
▁退票费
▁单人
▁改写
▁抗议者
▁北极熊
▁名师
▁共同体
墅
▁穿衣
▁4800
▁刷牙
▁大字
▁撑起
瑕疵
▁螺
▁指明
are
手可热
工资
▁用时
500
▁gt
▁普法
▁婆
▁快点
▁本地人
▁己
▁歌唱
▁合法化
▁out
▁布鲁
▁市场部
▁社会治安
▁贩
▁可取
▁应运而生
▁终生
▁红牌
▁可兑换
▁可获
鄞
▁怪物
▁子弟
▁年生
▁八强
▁让步
▁183
蝶
▁一派
▁并不大
▁书展
▁贾康
▁捐资
▁离婚率
▁区块
▁纸巾
▁两根
▁加斯
▁环境质量
▁说好
▁郁亮
▁高级官员
▁怎样才能
▁欧亚
▁自杀身亡
▁层楼
行驶
▁粗放
物理
▁私信
▁配料
▁交锋
▁日报社
▁维和
▁消费额
▁画廊
▁重仓
▁实效
▁ev
▁不由
覃
▁限售
▁荣兰祥
』
▁俄罗斯联邦
▁1958
▁国土资源厅
▁新鲜出炉
▁慕
▁教师资格
▁深证
夭
▁市住
▁床单
▁热身赛
▁建厅
▁翻身
▁迫在眉
▁bb
▁选择权
▁单反
▁真伪
▁耳熟能详
▁餐饮行业
比赛
冥
▁询价
▁脸谱
▁强强
▁包子铺
▁第七次
▁耀
▁万宁
▁领养
▁鲜奶
е
▁宜宾市
▁外包装
▁湿度
▁拒载
▁桑迪
劳动
▁难受
▁时才
姑
▁cp
▁萍乡
▁金沙
▁回味
ack
▁电路
▁姜文
诬
▁近百名
▁高烧
▁稳中
▁汇源
▁绿茶
▁持续性
▁济州
复杂
▁失实
▁编织
▁每条
▁南华早报
▁一如既往
卧撑
▁迷恋
▁化疗
▁学生会
▁膜
▁明智
▁不信
▁乡政府
▁科比
▁63%
▁不在少数
▁盛世
▁拘役
▁黄龙
▁普约尔
热闹
▁冲破
剿
夯
▁技校
▁分段
▁中南部
▁签注
▁起源
▁洞察
▁驾驶舱
▁lbs
汲
▁限量版
▁明码标价
▁创造性
▁台词
▁制度化
▁小孩子
▁履新
▁国际标准
▁美国公司
▁地被
▁长颈鹿
共和国
▁新式
瞧
▁勾勒
▁择校
彼
▁安葬
▁当心
▁启幕
▁铁轨
▁停止使用
▁王牌
▁顺便
▁54%
烷
▁果农
▁圆形
▁一号线
▁字母
▁覆盖面
▁不曾
800
to
▁集中度
▁接报
淌
▁农林
▁相近
▁取保候审
▁出站
湄
▁表示感谢
▁体育课
▁穆勒
▁黑熊
▁风貌
▁人际
▁北京站
▁204
▁师范
▁推崇
▁楼价
▁物流业
▁偿债
▁讲故事
运输
朽
▁尚福林
▁尝鲜
▁罗马尼亚
▁全面完成
▁中宣部
▁潮湿
▁哥斯达黎加
▁使人
孰
▁回笼
▁轨
▁暂行规定
▁电机
胞
▁轻型
▁底气
▁竞得
▁大众汽车
▁召唤
蜕
▁国际米兰
▁薯片
▁百合
▁比利亚
▁鸣枪
▁落空
▁运输机
镐
▁肆意
▁宣示
▁炉
欠
▁一目了然
▁一成
ds
▁帽
▁剧集
▁近些年
▁心爱
▁哈尔
▁开年
▁请问
▁尽管如此
▁样式
▁报表
▁谋利
▁裸奔
▁紫外线
柔
建华
▁比达
▁顶峰
▁绝杀
▁阿萨德
▁农副产品
▁无知
▁主创
▁压抑
▁多平方米
▁街景
▁排毒
▁见识
▁已达成
名称
▁信息管理
▁旭
溅
▁名词
▁外援
▁转手
▁当代艺术
▁下探
北区
▁候机楼
▁亿至
▁今夜
▁外资银行
▁局限于
▁关进
▁午夜
▁摄入量
▁加权
▁墓碑
▁抓手
▁转眼
▁200%
▁人口老龄化
▁个州
▁hold
▁运到
▁批发价
▁中国银联
pe
說
▁打扫
▁生命周期
▁教导
▁三楼
▁偷盗
▁好不容易
▁艺龙
▁国米
▁说不定
▁民居
▁大跌眼镜
▁西昌
劝
▁按年
▁策
▁年时
▁静态
▁球友
▁文明办
▁麻辣
▁1.25
▁绵
▁最高值
▁弥
赢
嘘
互
▁应用软件
▁转化率
▁泥土
▁意见建议
▁巴拉
▁产业基地
▁谈谈
▁华侨城
▁金马
置疑
▁172
▁胜诉
▁510
▁风生水
▁cz
▁垃圾箱
▁不说
▁绳
▁特里
▁雨天
▁慢性病
▁工场
▁投毒案
▁周知
▁城市规划
▁无形
▁收入水平
▁游乐
进去
▁潘基文
▁奔驰车
▁看不懂
▁有所不同
▁第十三届
▁打倒
▁旅行团
.51
▁菜农
▁本地化
沓
▁勇士
▁反射
▁全国人民代表大会
▁听见
▁特使
▁天安门广场
▁由市
▁涵
▁纪念活动
▁支教
▁更让人
▁多美滋
出版社
▁逆向
▁创伤
▁韩正
▁心肌
▁漂白
▁黑榜
▁后排
▁平谷
▁麻醉
▁代办
▁郑重
▁折算
▁梯田
▁双核
左
▁重拾
▁定律
▁典礼
▁过冬
▁岁末
▁传授
▁受挫
▁备用
▁日止
▁手掌
▁抚慰金
郫
▁水体
▁课本
▁朱莉
▁故意伤害罪
▁普降
▁琳
▁299
▁眉山
▁转播
▁患癌
▁法人代表
▁哈格
▁讲师
▁文凭
▁哥们
▁1976
▁张家口市
▁新疆生产建设兵团
▁撞伤
▁栏杆
▁气象专家
▁推到
▁抗震
▁入主
▁第九次
溧
▁前夫
▁王道
▁百个
▁560
▁文汇报
办法
▁走遍
▁夏令营
绘
▁车友
▁摄像
▁大连市
▁大伟
▁科技园
▁师大
▁货款
▁具体措施
▁经由
▁此种
▁污染环境
▁sz
▁上汽
▁手机短信
▁另一边
▁变身
▁起至
▁纹身
▁毕节市
▁防伪
▁万万
▁研报
▁一气之下
生物
▁设计者
▁恐怖活动
▁财务报告
▁李晓
▁誉为
▁为官
▁扫黄
潼
节目
煮
▁首歌
▁过火
糟
▁挤出
▁女老师
▁蓄
▁龙岩
▁不均
淘
▁雪球
▁输入法
▁今明两年
▁紧邻
踝
▁巡游
▁饮水机
▁房门
▁居留
▁托福
▁理智
▁13.5
▁顺差
▁侵权行为
▁关键技术
傣
专家
▁切入点
▁绑匪
▁第二期
▁留念
▁必需
▁纪念币
▁身在
▁晒太阳
▁明月
生产
▁阿尔维斯
信号
▁烟头
▁越秀
▁鉴
▁快线
▁矿物质
喽
▁nhk
▁山洪
▁评比
▁er
▁海监
▁大坝
▁家装
▁客运专线
▁牧业
▁苏醒
▁单体
▁网上商城
▁典
絮
▁僵持
▁黄浦区
▁代表作
▁公文
▁军事演习
钻
▁存钱
▁宾利
▁木材
▁大商所
▁礼服
▁红河
▁厦航
▁保定市
▁花销
▁点滴
▁文具
扮
▁萝
绩
▁原子
▁执行力
▁国家知识产权局
▁熟睡
▁中央组织部
▁利益集团
▁定时
▁保本
▁供气
槟榔
sc
▁卖方
▁来得及
藕
撮
▁犹
▁699
▁美国商务部
▁收市
募
▁专供
▁投注
▁博大
薰
▁盆地
▁广大群众
▁简短
▁法令
▁皮鞋
▁欠债
▁幼童
岔
▁适用房
▁中所
▁砍杀
耐
▁灰霾
▁坏死
▁痛点
▁黄浦江
▁埃尔
▁帐户
▁逆市
▁绿皮书
▁3400
菏
▁部际
▁创办人
▁跟不上
▁离谱
▁受惠
▁工伤保险
▁视频会议
▁坐车
▁一团
▁违
▁领证
▁范佩西
▁宏伟
▁启东
▁美国财政部
▁曹操
▁调味
▁剧目
▁推特上
▁亿左右
▁勾兑
▁体面
▁万方
合同
▁冬至
资料
▁aqi
二环
锚
▁极强
▁gl
▁资源税
▁从轻
▁调整期
▁池塘
▁旅游者
▁专列
▁使领馆
▁立方
▁打起
▁三日
钩
▁通胀率
氟
递
▁6.5%
▁总投资额
▁硬着陆
狩
▁飞来
▁排骨
▁新婚
旅行
▁肚
▁联合体
ok
驻
郊
离子
▁奥迪车
替
▁周先生
▁风吹
▁租客
▁广元
▁破旧
▁大腕
▁督查组
▁留有
pp
▁几十个
▁百思买
究
▁挑战赛
▁突破性
▁停职检查
▁急救中心
▁全线贯通
癖
▁武装人员
▁上瘾
▁神华
▁国际法
咀
▁年轻化
▁生殖器
▁大本营
▁跃升
▁第一件
植物
▁麻雀
肘
▁162
▁盗窃罪
▁一箱
▁誓言
▁受过
▁非但
▁逃走
上下
▁阅
▁剂量
▁狠抓
▁生命安全
▁感激
▁市场准入
▁里奇
▁淘金
▁乐居
鹅
兄弟
▁两队
▁统统
安排
▁蛋黄
▁圆圆
▁一吨
▁超车
▁动能
▁劣
▁华硕
▁逃票
▁年长
▁谨防
▁脸书
▁疗法
幻
▁号文
▁冒雨
▁移民局
▁两件
▁整洁
▁年度人物
▁iptv
▁百万富翁
▁韩磊
▁比比皆是
▁浓浓的
▁陈晓
▁探究
▁招待会
▁马甲
▁成份
不愿
包装
规范
▁接诊
▁工作站
▁步步高
明星
▁强对流
▁一应俱全
▁安全岛
▁油条
▁首回合
▁分至
▁林志颖
林市
▁加开
▁颁
▁明确指出
▁糟
擦
▁开元
▁书院
up
▁看做
▁emba
▁咖啡店
▁耀眼
▁大峡谷
▁那一刻
▁手下
▁着眼于
▁007
▁寄生虫
▁慈善机构
▁挑起
▁整数
▁国家大剧院
▁金门
▁罐头
亢
▁男篮
▁不留
▁放眼
渍
▁中国邮政
▁美人
▁县公安局
▁油菜
▁宝安区
踪
知识
▁居于
▁爸
▁农家乐
不胜
▁副作用
骇
▁打掉
▁62%
▁当官
▁赋
▁男青年
▁深市
▁中南大学
▁渣打
▁初恋
▁偏向
▁根本性
百万
▁腊
袱
▁不幸遇难
▁母乳
▁不休
▁新路
抄
▁雄性
▁橙子
gl
▁欣喜
▁火烧
▁天体
▁老街
▁三五
▁足额
▁树林
▁东门
▁207
▁天文学家
▁抓起
▁探月
▁结构化
▁中游
▁爆满
▁洗手间
▁清代
▁迅
▁中心医院
▁菲尔
▁蒂诺
▁行政化
▁档期
▁福田区
▁做工
mb
▁郭某
▁第三代
▁山羊
▁礼盒
▁稀释
▁监理
▁敲门
▁玉兔
▁赞叹
▁事务局
▁宜春
▁新锐
▁文广
▁赤裸
▁滑落
▁拥护
▁就业机会
▁核对
▁万物
▁疗效
▁杨梅
▁往日
促
▁全国工商联
▁喝完
▁四川省委
▁总之
聋
▁步枪
▁随地
▁计征
▁有事
▁全盘
▁脂肪酸
▁东山
▁参加考试
▁阿基诺
过程
▁考证
▁个人电脑
▁ettoday
▁不受
▁青奥
▁吉尼斯
▁海巡
▁大厨
▁采纳
▁点点
▁舍得
狱
▁飙
▁水池
▁电瓶车
▁太子
▁如是
匪
▁近两年来
▁业务员
▁打虎
▁住址
▁过硬
▁妇科
▁担责
▁踪影
▁点后
▁不为人知
▁四起
棘
▁雨夹雪
▁止步
瞅
▁菲尔德
罕
▁世界遗产
▁下海
▁一路上
▁同台
▁轻质
▁构成犯罪
▁辅导员
▁内战
▁中式
效率
▁砖头
▁第一份
▁音乐剧
▁一封信
▁百公里
▁引诱
韦
▁香港大学
▁发声明
▁几百元
▁弹窗
▁血案
▁就读于
▁边检
▁广告商
▁布兰
▁4.1%
▁反转
▁卡牌
▁暴增
▁追寻
▁飞越
▁延安市
▁平原
▁香港特区
▁同仁堂
▁近百
▁字幕
▁难逃
▁成本上升
▁技师
▁莫名其妙
不振
▁小丽
▁火灾事故
贾
pg
ach
▁爱国主义
▁斯科
▁税收收入
铝
▁陷入困境
▁准备金
▁抗击
▁停业整顿
槟
mmf
▁充满信心
▁环岛
▁软硬件
▁招致
▁每人每天
▁保护伞
▁旱
▁认出
▁老爷
▁返利
▁柜
▁丝路
▁换个
帐
▁独岛
▁创客
▁早饭
潢
▁幸亏
▁复原
▁驱逐舰
▁五年级
▁非遗
▁百日
▁客舱
▁分担
▁二套
▁受制于
▁请愿
▁骚扰电话
十年
▁新闻记者
▁再三
▁飞速发展
▁文史
▁全运会
啦
▁领头羊
煞
▁招商局
▁小熊
▁中签率
▁唯独
▁消法
▁梯
半岛
▁中央社
▁十四届
▁女同学
▁大笔
▁so
▁信用社
幂
▁181
▁洗碗
▁保单
▁担负
▁2.8%
槌
▁re
▁撒切尔
▁滑行
▁湛江市
ep
▁所处
▁著名作家
▁这道
▁经济衰退
919
▁星云
▁修补
▁负债表
▁稿件
▁横向
▁吓人
▁契约
▁热炒
▁丹东
▁过瘾
▁失独
▁送回
▁常住
tt
▁遥控器
▁不含
▁195
▁配发
▁生物医药
▁长龙
▁硫酸
▁全面推行
▁厘清
▁西区
▁新机制
▁支柱产业
▁债基
▁赞誉
▁舍不得
▁接班
▁余位
▁导火索
▁改良
▁买个
▁海绵
▁动感
▁季军
▁国务委员
▁女足
▁质感
▁医治无效
稠
▁171
▁西单
▁焦炭
卜
通信
▁不免
▁导入
▁邵逸夫
▁粉碎
▁失恋
▁成本低
▁花露水
▁歌声
猿
▁商标局
▁涌动
▁驱车
▁看房
▁始终保持
斥
▁军机
▁政治部
湾区
▁旅游区
▁势在必行
▁预先
▁掏钱
▁每一
▁身陷
▁贴息
▁攻关
▁建筑师
▁银河证券
▁碑
▁儿科
▁幸存
▁家教
▁202
▁通信业
▁预览
➊
▁克里斯蒂
澡
▁470
▁冲向
▁玛雅
▁友谊赛
▁歉意
▁用户数量
▁亿台
▁判罚
▁几日
▁违约金
厥
▁os
▁中报
▁免票
▁多渠道
▁共产党员
▁参赛者
▁崇尚
▁估
▁万到
厌
胀
▁饮食习惯
▁停飞
▁依赖于
do
▁现代人
▁大佛
▁史诗
▁凭着
▁水利部
▁液晶
▁输掉
▁稳中求进
▁陪审团
▁多长
▁立案查处
▁贴着
▁河内
▁贬
▁小白
▁老将
▁振奋
▁冷却
▁日志
▁制动
▁173
▁舰船
▁纠纷案件
导弹
▁卡特
▁日语
▁越秀区
▁580
▁恶性肿瘤
▁ol
▁这头
▁修路
努
▁稀有
▁疆
▁人世
▁十倍
▁马凯
▁错位
滋
▁满脸
▁极少数
▁余起
▁点心
▁抽出
qu
▁朝鲜人民军
▁记分
羌
▁称得上
▁旺角
猖獗
▁陵
▁南加州
▁各县
▁阶级
邀
▁怎么回事
▁仪表
▁智障
▁快门
吏
娥
▁流言
▁发工资
▁邻里
▁赏月
▁婴
▁国有土地
▁各省市
▁第三天
恺
▁盘子
▁阐释
基金会
▁飙涨
▁通水
觑
▁冰山一角
▁赌球
▁39%
▁关掉
▁黑天鹅
▁做市
▁转折点
浓
▁刮起
▁技术手段
▁盘旋
▁触底
高速
▁成钢
罢
▁热卖
▁广告宣传
▁汉服
▁渣打银行
▁释永信
涿
▁职业道德
挤
▁高尔夫球
销量
▁告终
▁钟表
▁门头沟
认识
▁鲜肉
▁情趣
▁汉江
▁联发科
▁一球
▁废物
▁情结
▁亲笔
▁温差
▁贝克
▁家庭收入
▁神木县
▁政风
加州
▁窗口期
▁非上市
▁万千
▁外加
▁劝导
▁账款
sa
渐
▁展台
▁不买
▁自建
▁万福
▁拆解
▁欧莱雅
惨
▁举手
格尔
嫣
▁持证
▁工作进展
▁查尔斯
▁片面
▁胶片
▁松鼠
▁途牛
▁一栏
▁上天
▁跟帖
▁中山路
▁拳击
▁头目
▁坐拥
左右
▁数千名
▁写给
▁铅笔
▁成群
俯瞰
▁展位
▁几百万
▁7.9
▁默哀
▁水里
▁呼吸系统
▁纪实
▁花都
▁再审
▁考评
▁余杭
▁1970
翰
▁满满的
▁得手
▁加收
▁财付
▁联系电话
▁首架
▁突击检查
▁掌上
▁勒令
▁单机
▁票务
▁介于
▁网商
▁立冬
▁审判庭
▁海涛
▁可比
▁儿时
▁轰炸机
▁一万多
▁腹痛
▁炒菜
▁胶原蛋白
▁吸血鬼
▁福音
▁大大的
▁世代
▁人际关系
▁狮子座
胚
▁寄予厚望
▁不至于
▁中产
而上
▁海选
▁让利
▁傲慢
▁中银
▁信阳市
▁而生
▁油烟
▁去掉
▁联合推出
▁五百
▁欠佳
▁名古屋
▁迫不及待
▁此起彼伏
▁不全
▁脑死亡
▁佳彦
▁开课
▁执行长
▁也门
群岛
▁监测站
▁常人
▁删帖
▁功能区
▁思潮
▁挥霍
▁招办
▁安利
▁江泽民
▁两支
▁拖鞋
▁裁减
▁老妈
▁太久
▁黄海
▁爱情故事
▁组合拳
▁垃圾处理
▁放权
▁热力
东西
▁绕道
▁相片
▁跑马
▁必要性
國
▁自卫权
▁方可
▁1955
▁我院
▁世锦赛
谩
▁地级
▁厉行节约
▁几万
▁南岳
▁壁画
▁掉入
▁九鼎
▁本世纪
▁公式
▁万多名
▁民宅
▁亮出
▁附中
▁潮商
领导
您
▁纤
▁影后
▁66%
▁征管
祛
▁小规模
▁日有
▁兵马
▁夺回
▁从今年起
▁摔伤
▁裂
▁南山区
▁辨认
▁万斤
▁广告费
▁过长
▁或多或少
牛奶
▁轨交
▁基尼系数
▁宝山
表演
▁盗窃案
▁剪纸
▁卡住
▁雅典
▁湖水
▁安全套
▁经检测
▁手艺
▁有效性
▁中职
▁发电机
▁便衣
▁代课
▁事业性
yn
▁进口车
▁老实
田县
▁不孕
▁羊毛
▁用气
▁零花钱
▁1954
▁大型超市
慰
▁拉拉
▁出警
▁以人为本
▁党政领导
▁美观
町
▁即时通讯
▁黑手
▁通州区
▁妇
▁常务委员会
▁发扬
▁路基
▁符合国家
▁省外
▁见解
▁影视作品
▁物业管理
▁不得而知
▁亚洲地区
▁尽量避免
控制
▁便民服务
▁促进会
▁鱼塘
dc
❺
▁mg
▁两省
▁湖南大学
▁初步查明
▁大神
措
▁渗
枸杞
酚
與
上来
▁组织部长
▁第一股
▁奔走
▁家族企业
▁中国青年报
▁展映
▁真有
▁怪异
▁终年
▁标榜
▁中央财经
▁外观设计
▁外人
▁寒潮
▁塞进
▁华中科技大学
▁铺开
▁遗迹
▁必修课
炽
▁催化剂
▁航班号
▁3100
ym
▁埃里克
▁一条街
▁法国人
辖
▁垃圾焚烧
▁热带风暴
▁文理
建筑
▁专营
▁宰
▁大成
▁古董
▁战斗力
衍
▁城市道路
ant
▁老式
电话
▁名表
▁大区
▁在校生
▁调配
▁胡春华
▁廉洁自律
▁尼尔森
▁新宠
▁小屋
▁雪上加
缕
▁光圈
▁大润发
▁软着陆
▁伙伴关系
逮捕
▁首当其冲
▁耕
▁航拍
▁北海道
▁同程
▁不得已
结果
▁宾客
▁原装
▁造船
▁通电话
▁扩大内需
▁山林
▁盗墓
▁亿年
▁在短期内
▁焦急
▁署名文章
▁可享
▁拖后腿
▁倾销
▁物件
▁涨工资
▁致癌物质
▁同伙
▁逃出
▁资格证
▁高校学生
叠
▁20000
▁详解
▁抓紧时间
▁紧迫
璀璨
▁判决书
▁游园
▁第三十
▁seo
▁拳
▁离境
▁接通
赦
▁理顺
▁借给
▁盛开
▁柱
▁政策法规
▁国产品牌
物品
▁传开
▁守候
▁生二胎
▁预选赛
▁个市
▁称有
▁刑期
琅
▁案值
▁模板
▁刷屏
▁痛哭
▁臭豆腐
▁勤劳
▁明显增加
大涨
▁光华
▁历史纪录
▁四线
▁ba
▁执意
▁禁忌
▁但会
▁亲临
▁191
荤
▁克莱斯勒
▁海洛因
▁篮板
▁会以
▁新意
▁工作量
▁果壳
▁改判
對
▁雅培
▁年幼
▁高息
▁河村
▁殊不知
▁64%
▁领队
▁神仙
▁农业大学
▁写成
衡
▁61%
ber
▁二十四
ah
▁卸
▁写字
▁实事求是
▁写信
人次
▁短途
▁第四代
▁真情
▁山头
▁多倍
➌
▁高呼
▁开挖
▁珍藏
▁阿姆斯特丹
绊
弥
▁不明朗
▁重约
▁ma
▁预热
▁站稳
鹦鹉
▁出厂价格
▁究其原因
▁注册商标
▁私家
▁洗脚
▁在手
▁广西南宁
▁联合早报
▁海豹
▁快车道
▁电影票房
▁招来
▁韩美
▁习仲
▁改款
▁欠费
▁植
▁毁容
▁古装
俺
▁暴发
▁安娜
▁驱动力
▁nsa
腊
▁无业
▁洽谈会
▁袖
▁吞下
news
▁格雷
红色
梓
▁相隔
▁书中
▁延庆
▁副部级
▁赞扬
▁林立
▁市民化
▁中国国际
▁后备
燎
酣
▁筋
▁非典
▁入党
▁满地
▁不雅
▁地方性
▁警局
▁自传
▁翻一番
▁船票
▁险资
▁收发
▁usb
涕
▁几经
▁迎面
▁影展
▁半壁江山
▁硕士生
▁适用法律
▁维系
▁皇室
▁科技股份
喔
▁然
▁服务行业
▁党风
桦
▁敏
➋
▁王家
赵
▁元凶
▁旬
▁寄宿
交所
集团公司
▁南疆
▁吃喝玩乐
▁价款
▁反华
叉
▁义卖
▁对内
外科
▁转卖
▁几小时
耘
▁上涨幅度
▁远比
▁护肤品
▁有大
▁投用
▁连通
▁亚戈
▁大打出手
▁燃料电池
▁第十次
▁结算价
▁停售
▁本能
▁镇上
▁朵
▁第三产业
▁巡警
▁同年
▁总产量
▁政协主席
▁性爱
▁举重
▁临界点
▁节礼
▁本意
▁美学
▁河口
▁显眼
▁手足
▁此基础
睾丸
▁fifa
▁夜景
▁164
▁咨询电话
▁地盘
▁求生
▁点前
ns
▁停下来
▁失窃
▁降水量
十岁
▁富时
▁并不知道
▁英美
▁评委会
驭
▁车险
哑
▁刊载
▁劳累
▁溃
▁下山
▁劣势
▁成语
▁仇恨
▁变换
▁权益保护法
遗
▁娘
▁埃弗顿
▁古树
▁科技成果
▁变卖
▁万余名
▁长长的
▁经销
歇
▁百花
▁长辈
▁踪迹
▁72%
▁历史舞台
▁国九条
经理
▁稻
.90
н
▁决不允许
▁民意调查
▁落泪
▁有幸
▁普拉
▁高发期
▁出没
▁洗发水
不掉
▁维克
▁北欧
陵县
▁刘晓
▁收费员
▁301
颊
▁开立
▁弘
▁手机卡
▁二层
▁调离
▁埃塞俄比亚
uc
▁哈撒韦
记者
▁八旬
▁教委
▁应收
▁羊肉串
▁当期
▁新街口
▁卡里
▁摩纳哥
▁找人
▁安全员
▁协办
▁十分钟
▁成渝
聞
▁恩里克
▁惠州市
▁薯条
▁普吉岛
▁努
▁送审稿
▁异动
▁眼前一亮
▁加装
▁美国国防部
冤枉
▁打成
▁万起
▁服刑人员
中学
▁税额
▁台下
▁上周四
▁切割
▁管理水平
▁哭笑不得
▁零星
▁充分肯定
▁共用
▁高明
▁百科
▁重庆晚报
▁约翰逊
▁生命垂危
▁无烟
▁络
▁易燃
▁到家
▁施暴
▁职业病
▁私企
▁内分
▁泉城
▁主体工程
螺
▁制式
▁词典
▁身份证件
▁奶农
bl
▁降薪
▁搜房网
▁文物局
▁洗浴
▁五保
▁动植物
▁小作坊
▁诺奖
▁举例
▁两面
▁涨超
▁车模
▁迅猛发展
▁汗水
▁不复存在
▁防灾
▁思念
▁富国
宠
习惯
▁血型
镁
▁交费
▁过万
▁多半
▁主题曲
▁惨败
▁白条
▁接见
▁开奖
▁陈家
▁悲惨
▁中心区
▁售楼处
▁全队
▁中国富豪
▁抗菌
▁统战部
▁数周
▁抗衡
▁结成
▁上海铁路局
▁案中
▁铁岭
▁学校食堂
▁晋江
▁误以为
▁缺位
▁8.5%
▁汁
▁李敏
▁核能
▁管理体系
▁有车
▁肢体冲突
▁风景线
▁凉爽
▁政商
▁洗礼
▁最全
▁经济指标
▁国会议员
▁李开复
▁另一人
▁科技馆
▁感性
▁成行
▁克里姆林宫
▁187
▁非法拘禁
▁请勿
▁增长幅度
方法
▁地王
▁阴霾
▁部长级
▁行事
▁1981
▁路由
▁大类
▁容留
▁偷渡
瀚
▁急诊
▁湖面
▁用户群
▁数万元
蜀黍
▁其二
▁复印件
羯
▁及时发现
▁向外
▁雷诺
纱
▁陈伟
▁长队
▁全村
▁处决
▁外貌
▁老赖
▁专户
▁唤起
▁制假
竞争
▁日用品
▁空乘
▁下雪
▁灵敏
▁虚拟现实
▁新法
▁大礼包
麾
▁个税
▁焚
▁秦刚
▁206
▁203
▁联商网
▁井冈山
▁渗透率
▁花朵
▁2.9%
优势
▁涨至
▁抚顺
利润
睛
▁交口
▁杨雄
▁施密特
▁甲午
▁角膜
▁桑切斯
▁特莱斯
▁阳江
▁爆炸事件
▁年票
▁遵义市
▁黄光裕
▁中国空军
更
▁额头
▁均线
▁中概
锥
▁就行
殆
▁户外活动
▁余次
佟
▁吐鲁番
▁外伤
▁顶端
▁人体器官
▁炭
ner
▁闪耀
▁放手
▁残障
▁午
▁出版物
▁安吉
▁果粉
▁奥赛
▁950
▁公开场合
▁摇摇
▁最低温
▁季末
▁明细
基金
▁群发
▁西乡
▁新潮
▁不二
▁文化交流
▁立减
▁万块
▁拉着
▁白富
▁罗宾
拉尔
硫
▁积分榜
▁坦诚
▁法律顾问
▁白岩松
▁百佳
吊
矗
▁辖
▁条幅
▁新鲜事
袂
▁好不好
ort
▁好运
▁期末考试
▁1110
▁林先生
▁孩童
▁255
▁路站
▁严明
▁稳固
▁祝愿
▁凤凰卫视
▁法律依据
▁党的纪律
▁李大
▁汕尾
▁斯大林
▁犯错
▁煤价
▁产后
▁照样
▁汇市
▁超级计算机
保护
▁161
▁事主
▁不失
▁链家
▁民事诉讼
▁桑拿
▁国宝
▁游轮
▁泛欧
▁江夏
▁结伴
负担
▁滋润
▁收复
▁文明城市
▁倒挂
▁泰坦尼克号
▁奔腾
▁租户
▁一连
▁安放
▁下半时
▁看涨
▁周年纪念
▁不折不扣
▁忧
▁建军
▁酸菜
▁惊慌
▁苦难
▁金融公司
▁中非
▁宽度
▁打听
▁妨害
▁已成定局
▁不育
▁粉末
▁四地
▁腐败现象
▁订立
▁单词
▁增城
▁黑帮
▁涉农
▁冬瓜
▁缘于
▁双反
▁乐团
迷离
▁朴实
▁蓝光
▁珠峰
▁来宾
▁这时候
观察
▁称要
▁峡谷
▁踏青
▁一桌
栾
▁寄养
▁ct
▁俄联邦
▁包包
▁原件
▁系列产品
▁mi
▁报批
▁邪恶
▁三等奖
▁点子
▁龙山
▁时政
碳
台县
▁牵连
▁瓷器
▁复杂性
▁亚平
▁各异
bo
▁征兆
▁杭城
▁搞好
扫
家辉
▁博园
▁放过
韩
成功
▁责
▁虹
▁几句
悉
▁购债
▁多屏
▁彩民
▁中国气象局
▁880
▁砍掉
儋
▁军衔
▁口服
▁饭局
▁216
体育
▁塞尔
▁讯息
▁三座
▁同店
▁社科
▁远大
▁中新社
▁佳丽
▁等值
▁袁贵仁
▁201
▁借力
▁不出意外
▁市州
▁立下
▁窃
▁赶集网
ri
▁妮
▁前夜
▁理发店
▁mooc
▁关键因素
▁六项
▁深蓝
▁并作
▁创造条件
▁极速
▁第八次
▁将建
▁学分
▁迷路
▁不尽
▁四年级
▁情商
▁人到
▁早报网
▁最坏
▁红嘴
▁马拉加
▁图集
▁边疆
▁闹事
▁察觉
▁不亚于
▁果冻
▁购买者
▁身孕
▁官房长官
▁施工单位
▁诚品
▁拉菲
▁最火
▁援
▁自由贸易区
▁左边
▁发审
▁佛罗伦萨
▁文理科
励
▁斯德哥尔摩
▁言论自由
▁覆盖全国
▁相聚
▁救火
▁那场
统一
▁奇异
▁该游戏
▁古建筑
▁合照
▁羊城晚报
▁制胜
▁布斯
▁黑钱
▁光耀
▁无序
▁版面
▁之高
▁武警部队
酗
▁攻读
▁中成药
▁出汗
▁黄岛
▁续集
▁修养
▁在线视频
▁首飞
▁树枝
▁中低收入
▁充电站
无几
▁国际品牌
▁反对者
▁好去处
▁安切洛蒂
▁纽带
▁波尔
语言
▁冒烟
▁拉近
▁分给
▁独占
▁墙面
赚
▁送出
▁此地
▁战舰
▁前身
▁数罪并罚
▁宝兴县
科夫
▁死后
▁哈哈
▁百事
▁行进
▁远处
▁索马里
▁誓
▁遇险
▁出钱
▁玉石
▁敏捷
▁高高
▁走来
▁之意
▁些许
▁氧
▁伙同他人
▁阳澄湖
▁台前
▁名誉权
ash
▁省属
▁陵园
▁犹太人
▁少年儿童
▁如意
▁化为
▁千方百计
▁行政区域
忆
▁海岸线
▁警醒
▁孙中山
▁3700
▁杂志社
委员
炭
▁东兴
畜
▁香洲区
▁公务人员
▁海珠区
▁捐精
▁参军
▁议长
▁因伤
▁居民区
▁战线
▁实录
▁入库
▁避孕药
▁贪污受贿
▁与会者
▁这轮
▁住进
▁自然资源
▁吹响
▁东阳市
▁可靠性
來
▁努力实现
▁把关
▁包头
▁法网
▁防暴
▁世界冠军
檀
▁圈钱
▁诗文
▁面容
▁百货业
▁sk
▁路旁
▁去往
▁交织
▁71%
绅
▁房山区
▁赵先生
▁缉捕
▁报请
▁海事局
▁吸取
▁收货
▁社会学
▁创新性
祉
▁研判
▁保释
逍
▁营养价值
▁永福
▁连年
▁海浪
▁唯美
▁贫民
▁1961
▁权钱交易
▁太极拳
▁依法查处
▁北京西站
钝
▁注意事项
▁灯泡
▁听从
▁中国建设银行
规模
▁多则
▁长江大桥
▁穿行
驱
▁不妥
拧
▁大兴区
▁元涨
▁牛羊肉
▁瓶装水
▁免费送
▁振荡
▁频谱
▁在乎
▁硬性
▁护肤
噢
▁雅士利
▁博主
▁活性
▁液态
▁飙车
時
▁宜昌市
小平
▁疏解
▁芳香
▁水费
▁博纳
▁口音
▁流行语
▁划出
虑
▁超前
▁网名
布局
▁kg
▁封建
▁狱中
▁10086
目以待
▁遥
错误
▁213
▁敬意
▁开锁
▁ie
▁养育
▁黄晓明
属于
▁原产
搂
▁第二十
韭
▁火电
▁女兵
▁屈臣氏
▁经贸合作
▁一金
▁富春
▁萨拉
▁打字
▁爆表
安卓
▁天河区
▁打牌
▁楼道
▁病菌
aw
▁别忘了
▁阿凡
▁抗拒
▁张海
▁包月
▁物价部门
▁实验区
搐
▁任意球
▁焦煤
▁成指
诧
▁试驾
人节
▁林地
▁卫生纸
▁宏大
沮
▁扔下
▁9.9
▁红楼梦
▁赔礼道歉
▁死鱼
▁各族人民
▁驳斥
▁忽
俘
飘
▁深思
繁
粗
▁申万
ud
ian
▁不快
▁两桶
▁停机坪
位置
▁中国外汇交易中心
纳斯
雲
▁泪水
▁床垫
▁传导
▁小腿
▁秦淮
▁任教
▁长子
▁彻
▁最热
▁功课
▁一至
▁下个
▁迫切需要
▁年休假
▁专栏作家
▁管理部
▁天里
▁边缘化
▁微薄
▁流动资金
▁古籍
▁糊
▁小盘股
▁预付卡
▁中远
庄村
▁畜
▁健康成长
▁积极开展
▁长出
▁庭长
▁吉他
▁兄妹
▁林丹
▁包间
▁新秀
▁按下
▁加大力度
▁代孕
▁城西
▁进水
報導
▁腹地
▁海军陆战队
▁正月初
▁开审
▁吕梁
▁划伤
抒
▁主政
▁厦
▁深入调查
▁机体
▁本溪
▁资金投入
▁出征
▁一遇
▁公共利益
▁休斯敦
▁三本
▁手提
▁大爱
茎
▁起跑线
摒
▁闯关
▁新旧
▁东芝
▁浙商
▁粮食局
▁惊吓
▁三岁
▁李文
▁中广网
▁清风
▁检查组
▁中华文化
▁业务部门
▁反问
▁亨利
▁报称
▁0.12
▁落差
▁怀有
▁集训
▁好处费
亳
▁就行了
▁外债
▁洗头
▁仁爱
捞
▁多边
▁无害化
▁增效
▁泥潭
▁明哲
▁水量
▁318
垢
▁作价
▁国家林业局
▁无人问津
▁议价
▁办公桌
▁高标准
▁火药
▁生命财产
▁货船
▁html
▁波音公司
▁干道
▁毛衣
▁那位
▁酷爱
勃勃
▁据市
▁狂奔
▁兴隆
▁时尚品牌
▁领先地位
▁不远处
▁精装
▁海伦
▁上届
▁祖先
▁一瞬间
▁县区
意见
▁达尔
▁水利工程
▁常驻
▁引以为
▁起源于
▁德里
▁康熙
▁谨
▁安定
▁停摆
▁直航
▁既得利益
▁弱点
▁一扇
▁父女
▁搬进
▁所作
▁桌椅
▁环球网
▁率达
▁不在乎
▁北京路
▁呼吸困难
▁煤炭行业
▁好时机
▁卡斯
▁攻入
ind
▁卡卡
▁泰勒
伯特
▁产品销售
▁点儿
▁乳企
▁一帮
▁星系
▁跨年
▁杰克逊
眼睛
▁或会
措施
论坛
▁执法检查
▁樱
▁使出
▁严重威胁
▁陈天桥
▁纯净
▁诺贝尔经济学奖
▁左腿
▁大运河
▁希尔顿
生意
唔
▁公益金
科院
▁汽车品牌
▁跌入
▁扶贫开发
▁日因
▁煤电
▁各个领域
▁高强度
钼
▁秦始皇
▁同价
▁八九
不成
▁补水
▁减小
▁项链
▁红外
▁冰城
▁好感
▁容器
▁卡内
▁预赛
▁沉迷
▁北汽
方向
▁第一站
▁领跌
▁五分之一
▁小川
▁脉络
▁跳进
▁全套
▁控诉
▁形式主义
▁灭火器
▁腰部
▁一年多来
▁签到
▁舒马赫
▁狠狠
▁文博会
▁会堂
▁渐行
▁就业人数
▁不严
▁南沙群岛
▁迎新
主席
▁共同社
▁有多
▁桂花
▁3.6%
▁中是
▁电热
▁西沙群岛
▁看护
▁911
900
▁期价
▁山口
▁年夜饭
▁手稿
▁悬空
▁归功于
▁飞信
理工大学
▁梅州
▁雅芳
▁ste
饿
▁叉
▁读懂
▁公益广告
▁片方
▁短裤
足球
跤
▁连片
▁opec
▁笼
▁升任
▁新世纪
▁毁掉
▁小灵通
▁炎
▁洪峰
▁暴风
▁史料
▁安全气囊
▁饭碗
▁再添
障
▁停办
▁切身利益
厘米
▁鼓掌
▁好时
▁开走
▁水深
▁募股
关节
▁补丁
▁开盘价
▁雪铁龙
▁在世界上
▁消退
▁安乐死
▁突变
▁预想
▁短裙
▁一氧化碳
▁达人
▁危房
▁宁可
▁喷雾
▁日化
▁检举
▁飘红
▁军事行动
▁五里
▁高层论坛
▁里约热内卢
▁转行
▁惜
▁密密麻麻
▁休学
▁下场
▁博士后
▁紫金
▁昨天早上
▁失守
▁填充
▁217
▁潜能
▁变性
▁近海
作家
▁非常规
▁派送
博会
▁xbox
▁铺天盖地
▁探底
▁唐某
▁高尚
讪
▁台湾人
▁改动
▁上铺
▁蒙古国
▁国家版权局
▁洗脸
▁黄牌
▁辰
▁冲绳县
水库
滁
▁利用微
▁芬
▁ed
▁日光
▁猪油
情况
里亚
▁不相
▁冲走
▁具体内容
▁琼斯
▁外商
▁无害
▁监制
▁选聘
▁看守
▁定下
ank
▁防洪
▁银行业务
▁选房
▁喜讯
▁纵深
▁会馆
▁五类
▁一朵
▁好奇心
▁ems
▁摄影家
▁规范性
▁款物
▁自由主义
▁矿产资源
▁公交车站
▁鼓楼区
▁泉水
▁神情
▁血液循环
▁强降水
▁雅居乐
▁操场上
▁167
▁谷物
▁没多久
▁司法厅
▁一心
起伏
▁外包
▁先到
膺
▁高压线
▁日晨
▁乘飞机
▁红豆
▁泄
▁半成品
▁资阳
▁大队长
▁驰名商标
匹
▁神经系统
▁昨天晚上
小编
▁醉驾
碰
▁正门
▁李光耀
▁本土化
▁双卡
▁关系密切
▁误食
▁寿险
▁军营
▁会诊
所有
▁徐绍史
▁提供线索
▁6.9
▁ec
▁可转债
▁器官移植
▁58%
▁想像
▁原生
▁秘籍
▁劳动节
▁阴阳
▁冲浪
▁值机
▁装配
▁1957
▁白金
选择
▁叫车
佰
▁黄海波
▁无用
▁提法
▁多亩
搀
▁239
▁光是
▁脆
▁信封
▁十项
▁易于
▁菜价
图书馆
▁喝醉
▁变色
▁540
過
▁借记卡
▁老伯
▁宴会
▁龙井
▁李俊
▁皮卡
▁ota
▁摸清
嘲讽
▁腊肉
十年代
▁口语
▁变态
▁只能靠
▁政局
▁一代宗师
ive
▁铁饭碗
▁头皮
▁天巡
▁徐先生
▁欧足联
▁理事
访问
▁贴身
▁mo
情绪
▁优选
▁蒸汽
▁废料
▁赛马
▁人行天桥
▁延缓
▁土地储备
▁打分
▁首支
▁清爽
▁勃
▁矿区
或
▁前辈
▁卖得
▁皮包
垂
▁女生宿舍
▁昌吉
▁威尔士
▁无牌
商会
▁警服
▁发展壮大
▁两院
▁很久
▁代表大会
毋庸
▁较弱
▁详尽
▁很多年
▁男星
▁mwc
▁无期
▁舌
▁白雪
▁机票价格
▁生物学
▁打黑
▁脱险
▁高歌猛进
▁热电
▁大坑
▁精湛
溃
▁筹措
▁老照片
▁阻断
▁售票机
平衡
▁王海
▁震后
▁起拍价
▁慈善家
▁昌平区
▁182
▁一怒之下
▁劲松
▁恶作剧
▁木质
▁很棒
▁免检
▁用房
▁群殴
▁据估计
▁厄
▁餐厨
▁多一些
膀胱
▁糕点
▁百色
▁养鸡
▁印章
移植
▁苏荣
▁十周年
吐槽
▁银牌
理工
▁洗净
▁访客
▁医治
▁王大
▁库存量
▁春夏
▁爷爷奶奶
▁校舍
▁惠誉
▁第十五届
▁盖章
▁职级
▁天象
▁白发
▁矿泉水瓶
▁十里
谣
▁到时候
▁马某
吆
▁音译
▁旋
▁证券业
▁大公
▁心率
▁土壤污染
▁用过
▁克制
荐
▁太重
体制
▁左眼
▁有太多
▁意料
▁喜羊羊
授
▁披萨
▁三件
▁一节
▁财新
▁仍能
▁节庆
▁获得成功
▁复读
▁市郊
▁大炮
▁略微
▁代步
▁低水平
▁家用电器
▁蓝天白云
▁考官
▁艳照
▁豪赌
▁新泽西州
▁绘
执行
▁定期存款
▁亨
涟
▁盛况
▁冬春
▁亲子鉴定
▁库尔勒
▁滥
▁厚厚的
▁新兵
▁观景
▁驶
▁讨说法
▁柜员
▁第一张
▁趋紧
▁李纪恒
垫
▁热浪
▁耶鲁大学
▁法制晚报
▁宏观政策
▁胸口
▁中国政法大学
▁内江
诿
▁准妈妈
▁便携式
竞
▁大庆油田
▁肩负
▁坐地铁
▁8.1
▁偏股
▁流媒体
▁环境治理
▁数位
▁首要任务
厢
tb
▁系数
奸
▁日间
户晓
▁可致
▁欢乐谷
▁因子
▁染发
萎靡
▁留下来
▁二环路
▁海天
▁一汽大众
▁商住
▁足球赛
▁虚高
▁边际
▁病变
▁问鼎
▁布鲁克林
▁这回
▁一曲
▁核发
▁8.4
▁弄虚作假
▁指涨
▁网络科技
▁横空出世
▁并购案
赈
2012
▁多张
▁网秦
▁硕士学位
杉
▁共性
▁比较严重
▁厉以宁
▁端游
▁行政村
▁戏剧性
▁无异于
▁主战场
▁劳伦斯
▁盘查
▁掩护
▁纸张
▁de
▁恒指
▁文华
▁愈来愈
▁精灵
▁张柏芝
▁4200
▁继承人
▁找准
商店
▁ui
▁党的领导
鳞
▁长短
▁功利
▁吓坏
▁第五个
▁真话
▁三江
▁人像
▁染色体
▁癌
▁卢森堡
▁白俄罗斯
▁框
ore
▁跳楼自杀
▁先例
▁摆设
▁本山
▁根治
谊
▁脱离危险
▁激怒
▁监测中心
利斯
▁付钱
峡
▁上海交通大学
▁串联
▁俄总统
▁gartner
▁宣传周
▁光祖
▁七条
▁扬州市
▁红罐
▁阵风
▁转化成
▁海参
▁汽油价格
▁当红
▁符合规定
▁号段
倾
▁能效
不及
▁大行其道
▁江中
▁基督教
▁少则
▁张伟
▁曲靖市
▁酒楼
▁奉上
▁喝咖啡
▁两难
▁各级党委
▁德尔
▁许久
▁内政
▁节目组
▁塑料瓶
▁化验
▁藏族
▁196
▁月球车
▁煤化工
▁财政拨款
▁玩忽职守
▁尘
▁从重
爹
▁外来人口
▁江边
▁大鱼
▁执照
轿车
▁地表
▁原著
▁更进一步
▁铺路
▁山谷
▁驰
▁一扫
▁崖
▁符合标准
▁5100
▁白菜价
不堪
▁该州
▁因患
不着
▁废弃物
▁生计
▁肉食
▁毕业证
▁嘉实
▁绳索
▁红肿
▁调降
▁安妮
▁清远
▁京都
▁重仓股
▁更难
▁职权
▁经侦
▁腊八
▁伊布
▁十亿
▁军国主义
▁酷暑
处分
▁大吃大喝
钨
▁安全事件
▁民办学校
▁表彰大会
▁合理性
▁户外广告
▁桂林市
▁游乐园
▁没到
▁延时
▁下决心
▁特长
▁过会
▁石林
▁群里
▁发泡
▁大方向
▁凭借着
▁出版商
▁市场机制
▁68%
▁出奇
▁人潮
▁1973
▁新天地
▁认清
▁麦克风
▁文化传媒
▁亏本
▁怪兽
▁片子
▁罗申科
▁济宁
▁做点
▁未遂
▁67%
▁游船
▁总成绩
竺
▁工程施工
▁独立性
▁行政复议
▁金鹰
老虎
▁无穷
▁失血
▁纪律处分
▁一不小心
▁技术性
▁悉心
▁取现
▁惯
▁乘务
▁交税
▁科夫
▁看得见
▁信息流
▁需在
飞机
▁rim
▁减压
▁更快
▁欺
镯
▁月经
昏
▁炮制
▁工作日内
▁第二场
▁拉德
▁净收入
▁特卖
▁一言
▁不来
损失
▁养家
▁顺着
▁如图
▁郁金香
▁多时
▁司法公正
▁312
腹产
眷
▁美银
▁我军
▁反光
▁学士
▁57%
▁失调
▁文人
▁每亩
▁征婚
▁增高
▁国家文物局
▁红海
▁亚丁
▁回击
鹃
▁毫不犹豫
▁小巷
▁法语
▁放款
▁雇用
▁没落
▁纸箱
▁193
▁预谋
▁nex
不断
▁数天
▁交巡警
▁排量
▁西南地区
▁泳
▁上月底
▁危险品
老人
▁余辆
国际机场
▁两分钟
朱
▁厄齐尔
▁300%
▁资源整合
▁中立
▁适房
▁津津乐道
▁极地
▁399
▁风行
诞
▁夜班
▁航空母舰
▁美德
▁写真
▁308
▁收容
▁城市交通
▁霸权
瞠
▁坠下
▁山坡
▁花篮
▁久违
不明
▁廊坊市
▁各色
▁数十亿美元
▁吃水果
▁平潭
▁指着
▁摇头
▁一堂
▁北京城
▁波斯
事件
▁鲜明对比
▁不实
▁冈
▁弹药
▁智联
▁深航
▁阿尔巴
▁坦桑尼亚
▁出错
▁滋
大桥
▁高学历
▁亚当
▁洗脑
烛
▁高等法院
▁容貌
努力
▁稀少
▁立功
欺
▁广泛应用
▁心酸
▁领导职务
珺
▁谋生
▁正月
▁大悦
▁向阳
▁采暖
▁空运
哆
▁大洋
▁神曲
▁没想
▁穆尔西
▁客户经理
▁影音
▁mp
▁pl
▁难以置信
▁莉
▁罩
▁寄出
▁病魔
▁分队
▁小户型
▁当今世界
▁厚重
▁杨洁
▁来势
▁遵
▁众院
▁伪装成
叮嘱
博物馆
▁网路
▁238
▁专用道
饽饽
▁药价
▁缘何
▁入门级
▁湖中
▁机车
▁一切都是
▁上半
▁拼爹
▁中资银行
▁得奖
▁置身
▁饰
公河
▁改组
▁雷克萨斯
▁620
▁山药
▁事实证明
▁季度末
▁烤鸭
▁吸管
▁超长
▁不太好
ue
▁宿迁
娱
▁密封
▁联合国安理会
▁干部群众
▁配色
▁流感病毒
▁猎杀
▁拉大
▁示
▁袋子
▁拦住
▁不多
▁课外
▁得意
▁过激
▁机率
▁为数不多
▁绵延
▁推动力
▁收购价格
▁先河
▁惊醒
尘上
▁贫富
▁卖出去
▁雅思
▁副镇长
▁游记
▁轰轰烈烈
▁创收
▁西街
外交部
▁民族主义
▁工资收入
▁老王
▁固化
▁荡
▁活下去
▁德拉吉
▁大排档
▁普通商品
▁常说
▁反补贴
崖
▁德意志银行
▁传谣
▁系统工程
▁自我批评
▁回首
▁抛物
▁党和政府
▁新手机
▁华西村
▁肉鸡
▁hr
▁措辞
▁食宿
ug
障碍
▁拟于
▁圣日耳曼
▁医疗保健
▁全长约
▁几十元
▁混战
▁男装
蠕
而起
▁eb
▁几只
▁不堪重负
▁压迫
▁多起
▁几千元
家族
▁显而易见
▁言辞
▁售前
▁xboxone
▁多增
▁体彩
▁宽带用户
▁不胜
▁中低端
沿
▁一笑
▁分配制度
▁印记
▁1951
▁推选
▁收藏家
▁黄豆
▁出镜
广播电台
▁夹杂
▁实拍
▁发审委
▁对外贸易
▁网上支付
炒
▁李小
▁生命科学
▁粤东
▁击伤
▁伊斯坦布尔
▁想来
▁澳门特区
▁屡禁不止
▁帮人
▁发红包
▁夕阳
▁达芬奇
员工
▁陈永洲
▁劳动教养
▁火情
▁食指
▁比伯
▁肖某
▁关键时期
▁优惠活动
▁家庭财产
▁塑
▁英国女王
▁菜场
▁倒入
▁学术界
▁运抵
▁诗词
碁
▁尺
▁sns
▁价为
▁惊心动
▁魂
▁学问
▁某种意义
▁惊天
▁宣传部长
▁幻觉
▁实验学校
▁tmt
▁修行
▁小儿子
▁排第
▁住宅楼
▁偏紧
▁木星
▁交替
鲟
平化
▁下拨
▁帽子戏法
▁黑衣
▁卖到
▁双子座
▁种菜
昙
▁黑石
▁六盘水市
▁商务局
媒体
▁双语
▁财务数据
▁人居
▁请客
▁电话会议
▁牙刷
回事
▁189
▁拖拉机
▁专题会议
▁纽约商品交易所
▁散热
▁遍及
▁神农架
▁渗透到
▁学生证
▁国产化
▁明显改善
▁陆上
▁健身房
▁一滴
▁蚊虫
▁星河
▁追究责任
▁行政诉讼
▁代销
▁旧城
▁妇产科
▁这所
▁赞美
▁赶回
▁开发利用
装置
冀
▁伸向
▁外泄
常委会
▁出众
▁受让
道理
▁剩男
惋
▁克拉玛依
▁zara
砌
▁图纸
▁正厅级
▁祥和
劇
▁押解
▁你好
▁劳动报酬
▁斯托克
▁巴克
清楚
▁乐意
▁百岁
▁飞跃
▁冷门
▁血统
▁墨镜
▁献给
style
▁煤业
公安局
▁174
▁净赚
▁发展史
▁徐汇
▁学府
▁副处长
之年
▁调剂
反应
▁325
▁半个世纪
骚
▁战犯
▁企业债
▁格里
▁外流
百元
▁如约
▁五种
▁lp
▁延后
▁取款机
▁八达岭
▁快要
▁点击率
▁启明
坷
▁文字版
▁邻近
▁戏曲
▁澄迈
制作
▁维基
▁涨薪
▁高超
с
▁卢比
▁并重
▁建新
▁哈尼
▁超乎
辐射
▁作证
▁同龄
▁名贵
▁海南岛
▁大儿子
▁一匹
▁掘金
▁盗刷
徐
▁抛开
▁跨过
▁彻底改变
▁盐田
▁演说
▁名言
▁家有
▁脱掉
一下
▁方块
▁真实有效
规定
▁功能性
▁饭馆
连跌
▁宏源证券
▁果实
质量
蛛
党委
▁立新
▁供求关系
▁气功
▁二十多
啼
▁辛勤
▁战国
▁求医
▁盛事
▁高产
▁缘
▁水塘
▁570
▁参观者
▁博爱
▁收割
▁返现
▁围城
▁磨损
▁不能不
▁代为
▁节操
▁历史悠久
▁侦察机
▁复发
▁7.1
▁欧佩克
▁省农业厅
▁入口处
▁7.2%
▁西海岸
▁右脚
▁广角
▁金融界
▁前五
▁河谷
▁这为
揉
▁所持
▁校门
▁接洽
▁余下
▁消费国
▁世行
▁二本
▁3.8%
▁四维
▁透析
▁看吧
▁入职
▁贝里
▁长途汽车
▁心理健康
▁住房面积
▁停驶
▁万宁市
▁镑
▁签订协议
▁一粒
▁专业性
劣
囱
▁依纪
▁党纪国法
工业大学
▁染上
▁拟任
▁三位一体
侣
▁审计工作
▁问询
▁塞尔维亚
▁生产成本
卫星
篪
▁乳腺
嘎
▁罪恶
不离
▁连带
▁几点
崩
▁沿街
▁经停
▁筹备工作
▁更深
▁广安
▁空城
▁扭亏
▁##
▁重获
警察
▁彼
▁月刊
快乐
羚
▁曾以
▁市场调研
友们
▁刺杀
▁独资
▁树叶
▁店长
▁索道
▁难看
▁电线杆
▁档案馆
▁崇高
▁颁奖仪式
▁趋缓
▁定存
▁安顺市
▁童工
▁浦东新区
▁237
▁扑克
▁保有
▁青浦
行情
▁昌九
▁各族
▁东东
▁压低
▁拒收
▁集团军
▁同款
▁常回家
▁陕北
▁双臂
▁高处
▁毛病
▁全封闭
▁广告法
▁淘汰赛
▁快快
三地
▁由来已久
▁亿斤
猴桃
▁当之无
▁邪
▁下辖
▁反贪
▁河段
神经
▁车顶
▁遥遥领先
苟
▁网络化
▁江浙
▁一招
▁冷落
▁烧死
▁不忍
▁十分之一
孤
▁铜牌
▁邮电
▁罗某
▁强制执行
▁可供
▁大牛市
▁入伍
▁美债
▁cio
▁金马奖
▁这话
300
纳德
▁一亿
▁建筑工人
▁拘留所
▁兼具
拐
▁国办
▁名女
▁讲课
▁国台办
▁236
▁求是
▁有损
▁果园
▁长治
▁田间
▁略高于
▁另一面
▁缘由
蠢蠢
▁体验式
▁住宅小区
▁机翼
▁阅兵
▁不一
▁购置税
▁铭
▁小家伙
眩
▁灯会
▁建平
▁自由化
▁siri
▁大伙
▁清热
▁仅售
▁建功
▁顺利进行
▁福利彩票
▁老干部
▁病重
▁一千多
▁储藏
户口
▁笑声
学习
▁翻开
▁名目
▁会期
▁悬浮
▁王伟
▁设法
▁贫困家庭
▁算上
▁上海市委
▁消防队员
▁叔
▁另一方
▁共同点
▁邪教组织
▁停火
▁新鸿基
而至
▁计时
▁心理学家
南市
四环
▁原子弹
▁手软
▁多块
▁命中
▁因未
▁配音
▁木瓜
▁247
▁工商联
▁普华永道
▁伤不起
▁贺卡
▁动员大会
▁十几万
晏
娴
▁滑板
▁比达尔
▁水泡
▁老头
▁红岭
▁香奈儿
▁卡罗
▁运管
迥
▁背心
▁微众
▁清场
▁放任
▁刑讯逼供
▁网络版
▁三重
▁默契
资格
▁科技界
▁国家行政学院
▁正常人
▁mba
▁美兰
▁因对
▁往下
▁比作
不息
▁司法鉴定
▁严管
▁大家庭
耶夫
▁援建
机制
▁食品包装
江南
▁宣读
不到
▁白云机场
▁作品展
▁南阳市
辑
▁阿婆
掰
▁霞
珊瑚
▁六家
▁摩天轮
▁协管员
▁总营收
▁富翁
▁总指挥
▁掌管
▁难忍
▁蓝军
▁打卡
▁生科
▁男女生
▁垃圾场
▁总算
▁跌跌
▁切实加强
▁斥
▁剪辑
▁公权力
▁亲眼
▁瑞斯
▁利差
▁价值链
▁韩某
▁白手起家
▁依法追究
▁边锋
▁及早
▁截瘫
▁鼓吹
▁第二套
妊娠
网站
▁懂事
▁滑梯
▁南昌大学
▁交火
▁市直
▁萨科齐
▁华盛顿州
也
▁鲜见
▁开到
▁服务型
▁排污费
▁就近入学
▁焦点访谈
▁滨湖
kg
▁称霸
▁中消协
▁胡子
▁菲特
▁cfo
▁房叔
谁
▁3.7%
▁中国保监会
▁前门
▁被遗弃
▁更应
▁阔
▁烟台市
▁长廊
▁划拨
▁龙潭
▁深山
俄州
▁人民警察
▁辩解
▁酒店业
▁注水
▁首长
▁后院
藩
▁损害赔偿
▁单身男女
辟
▁始建
▁赔钱
▁理工
▁退房
穹
▁公安系统
▁债主
▁不可否认
▁满身
▁滨河
▁摇摆
▁书法家
▁吉勒
殊
排放
▁电脑前
▁沈某
▁砍死
▁电邮
▁亦庄
▁摊点
而言
▁厢
芥
▁龙年
▁特技
▁错综复杂
▁耗电
▁直奔
▁专享
▁无名
▁多云转阴
▁买主
▁最远
▁阁
▁刘小姐
呗
▁介
▁国际会议中心
▁全球股市
▁团团
▁正当关系
▁su
▁忠于
牧
恪
▁信徒
镜头
▁创业项目
▁木板
▁we
▁买进
▁交房
▁十家
▁冲着
▁国网
▁消亡
▁第四位
▁禁行
▁山里
▁东至
▁习惯性
▁硬骨头
▁墓园
▁扩围
▁毕加索
▁可持续性
▁国家审计署
▁姑息
▁次年
▁乐器
▁合拍
▁8.6
▁九江市
▁疑点
▁治本
▁一席之地
完成
▁足不出户
▁同桌
吟
世纪
▁沃兹
▁马桶盖
▁相适应
▁具名
▁女郎
▁799
譬
▁形势严峻
▁上火
▁进取
▁答疑
▁缺氧
▁重叠
利率
▁沙河
▁转动
▁开打
▁全会精神
▁创维
▁五道口
▁据港媒
▁损
▁塞班
东路
肃
▁刑责
▁使用量
▁前卫
▁总营
▁睡觉时
▁腊月
▁末班车
▁狂飙
▁丰满
糊涂
▁跳跃
衙
▁国防委员会
▁后座
▁孝顺
▁跨国企业
▁装机
▁循
▁岛国
▁1956
ix
▁李代沫
▁三万
▁里氏
▁顶楼
▁高密
▁专业知识
拴
▁官方消息
坞
ity
▁淮北
▁往外
▁称其为
▁工程技术
▁考驾照
▁底盘
▁脱硫
▁建言献策
▁刘文
▁相爱
▁无私
▁97%
▁这番
▁漂浮物
▁拳打脚踢
▁异军突起
▁大促
▁暂扣
▁传染性
▁更为重要
▁吃饱
▁散文
▁进境
▁含泪
▁至今已有
▁新闻晨报
▁卡洛斯
▁开户数
▁性生活
▁休养
▁承受能力
▁东方明珠
▁果真
▁自卫
▁爱国者
颇
▁生命线
▁纵向
▁3.4%
▁副委员长
▁生活用品
▁展演
流域
▁1964
▁外宣
▁浦江
▁逃离现场
▁湖人
▁决战
队伍
痘
▁第十一
ock
▁反超
▁短租
▁坠亡
▁指认
▁私立
运河
▁沪江
▁犹他州
▁行骗
▁识破
▁北京青年报
▁正为
▁转学
ng
▁遵义
▁3.15
▁世博
▁高平
▁魅
▁美式
▁十年间
▁车市
▁侧重
▁沙尔克
▁考前
▁外高桥
▁结石
▁上周日
▁绕开
▁地基
▁郭宜品
挥
英雄
到底
▁广为
▁胸罩
▁un
珂
▁公共场合
▁文胸
▁历任
▁城事
▁慰问金
克尔
▁衣柜
跋
▁业务管理
▁工业生产
▁火腿
▁携程网
▁每套
▁258
▁大学校园
▁保险产品
▁押注
▁理财网
▁待命
▁认错
▁游说
▁哭闹
▁一任
▁女尸
▁触网
▁掉下来
▁报到
▁书香
▁大红
▁宁乡
▁杨家
▁江东
▁确信
▁减半
▁农资
▁听闻
▁未定
▁霸占
▁停靠在
▁访问量
▁之机
延线
▁做梦
▁亿亩
▁百视通
▁传记
▁烧焦
▁腐败案
国华
▁声名
▁呼喊
▁一晚
▁治党
▁民间组织
▁坐标
▁城内
▁换句话说
▁超限
斗争
▁货源
▁准许
▁结盟
▁香山
嘿
▁人脉
▁大考
▁细细
▁叶子
▁难以为继
▁安全意识
▁可可
▁陈年
▁应从
▁反式
乖乖
▁光头
丹江
▁个位数
▁罢免
鄙
疤
▁电流
▁光影
▁不断创新
▁余吨
▁环境卫生
▁发问
▁人要
欲动
▁紫光
▁不败
▁攀比
▁声响
▁le
▁举世
▁纯洁
▁这门
▁糕
▁谢幕
瞭
▁轮子
▁缓冲
▁发行商
▁埃克森
▁恶性循环
▁索贿
▁食安办
▁普世
▁施加
▁审稿
▁煤炭企业
▁选人
▁脱轨
▁268
▁捷径
▁发射场
▁抗体
▁中起
ate
▁尾随
▁雨花
▁三联
▁路费
▁半月谈
▁空中客车
▁难怪
▁拉波娃
▁刊物
▁马特
▁纯净水
ws
▁斑马
▁两栋
▁申请表
压力
▁收留
▁纪律检查
▁海景
▁发源地
▁大受
▁越长
外资
cl
▁读本
长城
▁不收
▁沉降
▁香港特别行政区
▁炎症
▁惊魂
▁化合物
▁一国
▁214
▁支票
▁下发文件
▁窄幅
▁元老
▁王家卫
▁超薄
▁长安街
▁能干
別
▁两百
▁推理
▁库尔
▁台独
财富
▁厅局级
▁庆幸
履
▁用户量
▁全疆
▁苏富比
▁崩塌
家庭
▁报告书
▁一来
▁星人
祖国
▁兰帕德
▁口水战
▁拼音
▁当季
▁二元
▁路政
▁省道
т
▁广昌
▁安理会
而行
氯
▁巩
疲
▁普罗
▁前几日
▁爬行
陂
▁股基
▁右眼
▁登封
▁交货
▁小巧
▁内生
联邦
▁无望
荟
▁尖沙
▁玉树
▁驶出
▁楼堂馆所
▁本科专业
▁钟爱
▁支付现金
▁马拉
▁刚满
迫
▁不及格
▁表示歉意
▁剧照
▁萌生
▁小票
▁co
▁首座
▁贫困人口
▁安全检查
▁繁重
▁繁多
▁火场
偃
▁9.2%
▁发音
▁辛格
邡
一致
蛆
▁临武
▁一汽集团
▁这枚
▁做手术
▁小贝
▁地去
▁谢国忠
▁扫货
▁得来
▁享誉
▁不怎么
询
▁火柴
▁围栏
▁张国
▁举报中心
蛋白
▁下定决心
▁输油管道
▁伪劣
▁太阳报
▁11.5
电脑
▁调研组
▁冰水
▁活活
▁由省
妞
▁检票
▁落到
▁诊
▁试探
▁未知数
▁cv
▁走走
▁渝中区
▁所知
▁权衡
▁七星
▁半空
▁投资性
▁增长势头
▁急忙
▁俱
▁87%
▁房间内
▁2.0%
稳定
▁法布雷
▁工程款
▁阿拉斯加
▁新陈代谢
▁因灾
▁一刀
▁塞拉利昂
▁广为流传
▁客商
▁老朋友
▁固体
▁212
▁进门
▁恒隆
▁损失惨重
▁易纲
▁经信委
▁自古以来
▁见习
▁越方
卒
▁创近
▁城中
▁伟哥
▁充分体现
▁国营
▁工业协会
▁谢某
▁恐惧症
菅
▁打理
▁联防
▁邵阳市
▁异国
▁探头
襟
▁康定
▁可口
说明
▁通畅
▁交委
▁上要
事务
▁1962
▁时应
▁区位
赶
▁民族团结
商品交易所
▁盘石
▁重镇
呆症
▁菲利普
▁防弹
▁根本无法
▁片酬
▁水军
▁王小姐
▁村级
▁主席团
化学
▁平阳
▁联运
▁司法考试
▁柳艳兵
桓
午
▁心想
▁运载
▁俞敏洪
▁原址
▁毛毛
▁梅耶尔
▁斯塔
▁极客
▁大跃进
衣草
▁钻探
▁作文题
▁拖车
风光
▁开航
▁大伯
▁盲区
▁左脚
▁岳阳市
▁麻木
▁合作开发
▁vie
▁态
▁纸杯
▁icu
枭
▁夏秋
▁挤满
▁便利化
▁第一波
▁时点
▁真爱
▁想方设法
●
▁金沙江
▁无声
烽
枉
▁大马
▁运维
▁螺丝
▁公款消费
腱
▁长线
▁冷库
火车站
▁通缉令
▁每笔
准备
▁私车
▁两江
▁令其
▁ppp
▁深挖
▁标段
交会
▁跳河
▁大丰
▁病历
▁李明博
▁小红
▁公司债券
▁行为艺术
▁中老年人
▁预调
▁佳佳
▁平均寿命
▁驶向
▁赵白
▁张国立
▁破坏性
▁自选
▁父辈
▁巨量
▁诊治
▁调味品
ii
构
▁气流
▁漠视
▁疏通
▁入夏
▁就会
伎
▁加泰罗尼亚
▁军委
茉
▁甜点
▁超时
▁nexus
▁数亿元
指标
▁家底
▁新盘
匆
▁茶馆
▁毛发
▁终点站
淫
▁次新股
▁国歌
▁杨卫泽
▁电车
▁稳步增长
▁69%
▁单项
▁兑奖
▁楼宇
▁窝窝
▁本事
▁藏有
▁世界观
▁保鲜膜
姣
▁打工者
▁人民代表大会常务委员会
▁表皮
▁百货商场
▁申请书
▁美国司法部
▁每克
▁比萨
▁卡马乔
▁退居
▁农地
▁国金
▁偷窃
▁监船
▁五分钟
▁访美
尔族
▁极低
▁197
▁东川
▁反之
▁麻辣烫
鼻子
▁播种
模式
▁叫醒
▁纹理
▁张文
▁找寻
▁周口市
▁关上
▁意欲
▁说到底
▁提至
大陆
▁诺夫
▁坐落于
▁保险行业
開
▁水文
恶劣
▁手感
▁盘整
▁经得起
恢复
▁286
▁联调
▁郊外
▁工农
▁应由
▁反倾销税
▁工业革命
▁数码产品
▁涨停板
▁美籍
▁抢劫罪
▁休斯顿
▁副检察长
▁寒流
▁相关性
▁强烈不满
306
▁杨晓
沱
▁256
▁多份
徕
▁天有
▁三世
▁复印
▁易居
钳
▁接电话
▁高估
▁百岁老人
▁179
粤
▁泰安
▁各个环节
▁sl
▁米勒
▁高性价比
苇
▁笔下
▁安家
▁琼海
▁华南城
▁航空港
▁护城河
▁不看
权益
▁金鸡
▁数字电视
▁黄曲
惮
▁幸免
烘焙
▁不多见
▁本币
▁长宁
▁数十亿
▁猎人
▁若有
▁转型期
▁赫芬顿
▁大棚
▁直击
▁巴中
漱
▁超额完成
▁一桶
р
▁双开
▁食品饮料
▁调料
▁轿
▁厦深
▁引援
▁参评
▁云龙
▁拼接
▁美国大学
▁愤慨
▁用语
汹汹
▁high
▁相册
▁73%
▁农业局
▁fr
▁先得
▁围着
▁眼部
基层
▁欣慰
▁纵横
▁希特勒
▁预判
▁订餐
▁银联卡
基础
▁钩
▁发展势头
▁粉红
▁计价器
▁纲领
▁一般性
▁网上银行
▁5800
誓
▁新郑
▁4700
▁重罚
▁半年度
▁接驳
▁返校
▁说明会
▁该类
▁760
▁布什
▁万分
▁德语
▁9.2
▁违者
▁多一点
▁彩排
▁航程
▁小明
子户
▁原版
寇
▁两万元
▁撞车
無
▁雪糕
▁浓烈
凄
▁暗中
▁花坛
▁公共秩序
▁洗手液
▁分居
华区
▁微博晒
▁往前
▁战略规划
▁新城区
枯燥
▁总参谋长
▁深色
▁59%
改革
▁描写
▁上层
▁应征
一点
▁周边国家
▁费德勒
▁登月
▁资产负债率
▁搬运
唾
铢
▁环形
▁凉山
▁减至
▁过生日
▁多晶硅
▁2900
▁味儿
▁约见
▁洛克
▁抢手
皆
▁三包
▁贸易商
▁gam
鹊
▁运算
讨
▁取样
▁艺术展
▁226
▁指甲油
▁立法院
▁发呆
▁316
ess
▁上司
▁启蒙
执
▁横店
▁铜价
ij
▁沦陷
▁14.5
▁行者
▁盘龙
▁圣诞树
▁孤单
▁卡路里
侃
▁候
▁选调
▁旧址
葆
▁自古
▁拉客
▁销售业务
▁同心
▁尾部
▁采取有效
▁折价
▁财政收支
▁生产能力
▁世间
▁辨识
坂
▁食药
▁亏损额
欢迎
▁杉
▁物价上涨
▁第四季
▁强烈反响
▁5.6%
▁巴尔德斯
▁盛夏
▁远期
▁资源共享
▁卡口
▁满是
▁翻车
▁生产厂家
作战
队员
▁多特
▁好戏
▁绝食
tm
▁福清
▁五矿
▁学生票
蔺
颤抖
▁1953
▁白糖
▁运动鞋
▁践踏
马航
▁停发
▁台当局
▁重振
臻
▁待机
▁里昂
爬
▁贡献率
▁招远
▁大白菜
▁不爽
▁保护主义
遂
▁家店
▁鸿沟
▁知事
▁热干面
▁永州
個
▁960
▁客货
飞行
▁离岛
▁同性恋者
▁朝日新闻
▁亿个
▁考录
▁说不清
▁年产值
▁前有
▁单反相机
▁杂技
▁按期
钰
▁有房
▁怀着
▁住宅区
▁烧成
弛
▁弗朗
▁小房
8.1
▁接待费
▁在我看来
▁胜负
海关
▁必经
▁左转
▁记者站
嘈
▁校花
▁走弱
▁工种
▁非政府
▁咖啡厅
▁遂宁
总结
▁沙拉
▁重庆大学
▁择偶
▁财务状况
▁东华
▁后会
▁阿博特
▁1974
▁免于
▁撤资
▁调取
纪念
▁菜地
▁新风
▁1975
▁184
▁静脉
磁
▁610
▁新台阶
▁土地改革
▁刑事犯罪
荥
▁闪光灯
▁办结
▁脱贫
▁有效率
▁到户
通讯
▁商业区
▁传媒大学
▁家房
▁酸性
▁参战
泄
▁茶叶蛋
▁回信
▁最高价
▁万亿韩元
▁单行
700
▁埋头
▁崇明
▁发证
▁航天局
抑
▁党籍
▁择日
▁坊
▁双子
▁不负
趋势
纭
衔
▁国服
学会
▁动员会
瑙
▁督导组
▁解脱
▁加长
▁不改
▁经验丰富
▁除夕夜
▁可追
▁纯正
▁废气
▁公有
▁无房
▁感官
▁被劫持
▁徐家汇
▁转嫁
▁色狼
▁860
▁因地制宜
▁实用性
▁非议
▁出票
▁财政部门
▁长效
▁重力
▁麻麻
▁防爆
▁十多个
喷
▁尽显
▁双倍
▁供职
▁无一例外
▁首台
▁314
▁郑东新
▁对大
▁1972
滥
▁趋稳
驳
▁刻不容缓
▁教职工
▁两届
▁洪湖
▁归宿
▁直降
▁深入人心
▁拒不
▁多彩
▁参展商
▁七十
▁这趟
▁人事变动
▁中州
▁新老
家园
▁湖边
▁罗德曼
▁按此
疫
▁连续性
▁张立
▁亚利桑那州
▁建中
▁进账
▁8.3%
▁打斗
▁拆借
▁伍德
▁五号
解决
狐
▁各个方面
▁人民陪审员
▁9.3
▁心脑血管
▁登岛
▁构图
▁新晋
▁亿邦
▁据预测
▁gs
▁罗伊斯
▁伯纳乌
▁警情
▁秀英
▁咨询服务
▁配建
▁涌现出
赤
▁救救
▁华数
▁科娃
▁灰色收入
▁坑爹
▁某大学
▁建设者
▁香港联交所
▁首任
▁上半时
▁铁矿
▁一探
闰
▁科斯塔
▁绵阳市
▁不降
▁矿物
▁杨丽萍
▁活体
▁有家
▁盗走
嚏
▁爱看
▁加勒比海
▁奶源
德斯
▁印着
▁禁入
▁布莱尔
嫌
▁直营店
▁粉红色
▁费城
▁李军
▁诺贝尔和平奖
▁展上
▁my
▁前排
▁确保安全
▁美欧
▁标牌
▁关键环节
▁散发出
基因
▁党性
所思
▁比高
▁杂物
▁指跌
▁现场会
▁1969
▁机动车道
电信
▁营养餐
▁关卡
▁石块
▁数倍
▁中队长
▁干事
▁周黑
▁张大
▁社群
▁沙坪坝区
▁明报
▁港湾
▁不善
▁陆兆
▁乌木
▁雪佛兰
▁飞速
▁可行性研究
▁广佛
▁评论家
▁迷惑
▁以示
▁要来
pro
忍
▁304
补贴
▁细微
▁多空
预算
▁商务区
▁弗洛
▁绿道
▁msn
▁狂潮
▁专业课
▁经审查
▁助长
▁综治
道德
▁下功夫
▁力图
▁座票
▁壁纸
▁风向
▁扫码
▁欢喜
ure
▁资金紧张
▁证券网
人意
搡
▁负面新闻
▁骤然
▁重庆市委
▁上海大众
▁810
▁罗列
▁六合
▁快速通道
▁涵洞
▁网盟
▁老板娘
▁混入
▁特殊性
▁出乎意料
▁绝无
▁航空局
▁分社
▁二类
▁高得
▁妇女儿童
公安厅
▁闹市区
▁张扬
虐
▁征得
▁中超联赛
▁刘伟
▁汇价
▁霍比特
▁摇身一变
▁卧龙
▁肤色
▁板上
▁治安管理
▁猎狐
▁1977
▁纳指
▁乐高
▁滨州
▁广大党员
▁三场
▁cpu
▁会议纪要
安装
装备
▁商洛
排名
▁票选
▁加气
▁滑雪场
潘
▁禁食
▁满怀
▁抽样调查
▁名次
▁谐音
茫茫
▁490
▁刚才
▁报刊亭
▁尚待
▁朝天
▁龙虎榜
▁下午茶
▁世界排名
▁黑烟
▁227
▁赤峰
吋
▁协和
▁喀麦隆
▁里尼
▁触碰
▁市场前景
▁格兰
▁家伙
▁应酬
咽喉
▁照相机
ton
▁某地
▁望城
▁这幅
商场
▁筹钱
▁攻坚战
里斯
▁死神
▁提现
▁中建
▁参与度
▁伤及
▁英伦
▁编辑部
▁cba
▁6.1%
▁党报
▁张明
▁中端
▁新药
▁温岭市
▁睡梦中
癫痫
▁全国代表大会
▁本省
不如
▁吃亏
▁商定
▁先导
▁用血
▁青春期
▁4600
▁直系亲属
▁占到
330
▁王永
▁几万元
▁珠海航展
▁称因
▁环路
▁佳木斯
有所
▁学堂
▁百盛
▁陈建
▁分到
▁情况汇报
佬
赋
现状
▁大明
▁江西省委
▁拉斯
▁产品开发
▁召
▁sd
▁危险性
▁硬座
▁电子游戏
▁这令
獐
▁金黄色
▁看不清
▁十五年
▁sho
▁理想信念
▁只花
▁唐家
乖
▁乐迷
▁合资企业
▁265
▁发展期
▁办卡
▁建设性
▁海外版
▁盐水
▁贵宾厅
▁近千名
秧
▁强暴
▁苗头
▁分明
▁弥漫着
耒
▁病因
痹
▁西北地区
▁钟南山
▁腹中
▁外教
事变
▁身心健康
▁伊斯
▁全球排名
▁加仓
▁书本
拾
▁合作方
▁电子化
▁讯问
▁开个
▁制冷
▁一针
▁例会
▁发家
▁戴维
▁版块
▁个村
int
▁8500
▁爱因斯坦
▁年费
▁合同法
▁郭声
▁用脚
▁竞猜
▁履历
▁他用
▁一无
▁归真
▁配型
电视
▁要用
▁740
▁亚特兰大
▁射门
▁禁赛
▁利剑
▁保全
▁色泽
▁kim
▁关注点
南北
役
▁架设
▁不良率
▁囚禁
▁育儿
敞篷
▁大而
▁杀菌
▁工程院
▁门类
▁诚邀
▁纵火案
▁淮海
▁连锁反应
▁无故
▁长顺
▁219
▁干爹
▁小儿
▁重要批示
▁最想
▁遮阳
▁十届
▁发现异常
▁打游戏
▁攻克
▁全家福
▁呼吸机
▁科工
▁非理性
▁保修
▁两三个
▁8600
▁刘家
▁6.7%
▁高仿
▁第一线
徇
▁已有近
▁游乐场
瞳
▁丹尼尔
▁深耕
▁致力
▁中央日报
our
▁燃起
十足
恒大
▁以求
▁下河
▁最迟
▁亨氏
mbps
▁港媒
▁打法
▁围观者
基地
▁哪位
▁众生
▁打消
▁劫机
▁后称
▁巷子
▁环游世界
▁开刀
▁茂名市
▁万亿日元
▁画画
▁烈士陵园
▁建有
▁没过
▁远方
▁米尔
▁心肺
▁领军人物
董
▁盛装
不同
▁黄兴
▁举着
▁章鱼
▁非常明显
▁幽灵
▁抽血
▁手语
▁更正
▁偏偏
▁记录仪
▁保护环境
▁病假
▁1020
▁北京人民大会堂
▁数十个
▁症结
▁一整天
▁定价权
▁大都会
▁宠儿
▁警卫队
▁放射性
▁建制
ast
▁不单
▁遇袭
▁试营业
▁红魔
▁驱蚊
ek
▁逃往
▁冲锋
▁从天而降
▁山姆
▁工薪
▁商议
▁鼻孔
▁ict
瓦斯
侍
▁12345
▁齐齐哈尔
▁准生证
▁购销
▁263
▁涉水
▁温都
▁网络设备
▁颠倒
▁从化
▁车体
▁历次
▁贫困学生
▁高玉伦
▁喷出
▁凸
▁入账
▁陈旧
▁物理学
▁张开
▁犯罪活动
▁普利
▁徽
▁刊
▁优待
▁澳门元
▁总装
▁当头
▁俄新社
▁关键点
▁板房
▁中意
▁骨科
▁引热议
cd
▁总局局长
▁泰晤士报
▁皮带
▁高贵
▁福利待遇
周期
不说
▁病痛
▁挑战者
▁婴儿车
▁0.25%
▁夜宵
一日
ata
▁张军
▁舱门
▁昏倒
▁中央委员
▁园林局
▁短短的
▁潮水
▁又名
黄色
▁领导力
▁李玉
▁短路
▁指挥官
▁畜禽
都是
▁撰稿人
▁躲过
▁故里
法院
▁时事
车辆
▁国务院新闻办公室
▁明朝
深处
▁那段
▁背影
▁美美
▁政变
▁母爱
▁黄淮
▁期待已久
▁原生态
▁师资
▁植被
▁达拉斯
▁文联
▁罩杯
▁不好过
中级人民法院
▁天门
▁蔓延到
▁繁育
▁红网
抽
▁空军基地
▁放射
议会
▁挤占
谍
▁烂尾
▁停播
▁安踏
▁小到
▁未找到
▁长久以来
缜
▁皮特
▁730
玩具
▁十点
▁杀跌
▁工薪阶层
▁见底
▁无所谓
▁张勇
婷婷
▁营利
▁穆巴拉克
▁英勇
景观
▁多国
▁身长
▁辩护人
▁互认
▁兰花
▁不缺
▁巴格达
▁232
▁定量
▁毛孔
洛克
▁骑警
▁新剧
▁社保卡
▁房款
什么
▁声中
▁课桌
▁南段
▁大屠杀
▁封闭式
▁积聚
▁买断
向东
▁公证处
▁瘦肉精
▁兰考县
▁sw
▁偏少
澎
▁该地
▁娱乐活动
▁内科
▁校庆
▁两颗
▁市场供应
▁独到
▁立志
▁江青
▁重在
容量
痊
▁核潜艇
▁偏远地区
▁下肢
▁玩儿
▁亩产
▁阿胶
▁极光
▁第二家
▁南通市
▁盈亏
人数
▁数据处理
▁安德鲁
莅
▁伙食
▁绩优
▁种业
▁而出
▁谈不上
荡荡
滞
▁点播
要求
▁规划设计
▁招数
▁应有尽有
▁身披
▁卡宴
▁上规模
侬
▁蒙受
▁公正司法
▁急转
特征
▁互不
▁银行信贷
▁成长性
▁低级
▁政企
▁个人行为
▁青龙
▁总比分
▁通达
▁头等大事
▁袋鼠
▁高中毕业
▁答辩
呼吸
▁建言
▁虚弱
▁法治化
▁山东大学
▁人流量
▁北京市委
中市
允
▁水桶
▁初稿
▁出产
矣
▁中共中央纪委
▁吴江
▁王安顺
▁质量技术监督局
▁大笑
▁审计报告
▁实测
▁湘潭县
▁功德
▁讨债
▁喝下
振华
▁贝因美
▁阿斯顿
▁生父
诈
▁自主权
▁局原
▁乙肝
产量
▁菜篮子
▁蓝莓
▁偿付
▁色调
▁工业品
▁塔斯
▁寄望
▁公社
▁公司债
▁自拍照
▁社会舆论
▁李强
▁交学费
漂
诅咒
▁瓜分
▁暗箱
▁兵力
▁医保卡
▁纳吉布
▁号角
▁手术费
疾病
▁数千万
▁285
▁洗衣服
▁全靠
▁rob
▁太累
▁食谱
▁效
▁快感
▁气田
▁首艘
维奇
理解
▁桃源
▁习惯于
▁每加
谙
▁长庆油田
▁木头
▁玩得
▁十九
▁气象条件
▁牵着
羔
匾
▁值守
▁新进
▁ah
▁自尊
▁展销
▁风起云涌
▁坏消息
▁美妆
局长
▁1920
▁文物部门
▁长尾
▁热水袋
▁问问
▁搬走
表现
▁得出结论
▁后备箱
▁假证
埂
刮
▁直流
▁土豆网
▁动静
▁台湾当局
▁一尊
▁刘永好
▁上攻
▁伊春
▁革
▁海珠
▁自用
▁tf
▁网络服务
▁多层
▁半山
▁开阔
荚
▁马杜罗
▁宁德
▁一国两制
▁9.7
元素
▁阳春
▁红遍
▁基础教育
▁保驾护航
▁按压
▁跨入
▁生存空间
▁轮渡
▁四款
▁获评
▁金龙鱼
▁卸载
▁远远不够
▁起价
运会
▁东线
▁超低价
钉钉
▁国安局
▁ro
▁拖行
▁数千元
▁林场
▁分组讨论
▁大讲堂
▁孟买
▁建设局
▁小费
▁微涨
▁209
▁录取率
▁嫁妆
▁营地
▁牵出
▁求爱
▁种地
▁黑板
测试
▁337
▁高雄市
▁民用航空
▁胡晓义
▁农大
▁中仅
▁停车难
▁抱歉
▁遍地开花
▁捐献者
▁反日
▁实景
▁外汇局
▁同村
▁大大提高
▁北京铁路局
▁服装品牌
▁不发
▁斯坦
▁一发
面上
▁按程序
▁伤痛
▁石原慎太郎
▁血脉
▁政改
▁几度
▁热火
▁仙境
▁江西网
▁善待
▁8.7
▁1967
▁上海交大
瑾
▁电子警察
交通
▁装着
▁吸附
▁剧增
▁善后工作
▁清纯
▁明镜
逞
▁账目
▁防疫
▁波折
▁配租
▁产经新闻
▁总冠军
▁攀登
▁条形码
▁制毒
▁后半
▁升职
▁miui
▁科幻电影
▁瘫
▁兴奋剂
▁雷曼
▁第十二次
▁大打折扣
▁投资界
溪镇
簸
▁原名
▁前期工作
▁指称
高中
▁人参
▁防寒
▁销售商
▁一族
▁预增
▁作客
▁bi
▁准确率
▁战略伙伴
▁叙事
▁农牧
▁开展调查
▁静静
▁收购案
▁李斌
▁新闻周刊
▁披上
▁丧命
▁反锁
▁ww
▁日日
▁个点
▁休息室
▁师兄
▁炼化
▁社区卫生
▁尝到
▁中国地产
▁火腿肠
▁一举一动
▁信箱
▁桥段
馄饨
▁将领
▁从何而来
▁信任危机
▁党校
▁弯道
遮
▁闹市
▁中为
▁也罢
▁审计局
▁昏迷不醒
▁凯文
▁萨尔
▁迟缓
▁马超群
▁抽调
▁挂职
▁激励机制
▁行踪
▁修好
▁之痛
▁钓鱼台
▁李春
▁礼堂
▁湖滨
▁密苏里州
▁飞利浦
▁看病难
▁告急
▁知识产权局
▁经济制裁
▁周迅
焉
▁教辅
三环
▁浓重
▁特派
▁财新网
作业
▁农妇
戮
▁北京市第一中级人民法院
▁红高
▁惨痛
▁商业活动
▁稳中有
▁赢利
▁好书
▁本领
▁许诺
▁fdd
漠
▁拉莫斯
▁党和人民
▁量级
▁识
▁集镇
▁244
▁王力宏
▁1965
▁发黑
▁无忧
▁盆满
▁手术台
▁普吉
▁有句
▁圣战
▁老先生
▁朱令
▁红叶
▁李冰冰
▁细数
▁旋风
▁别出心裁
▁挽留
▁软件开发
▁公馆
▁83%
▁公公
▁音量
▁照搬
▁有点像
▁医药行业
▁赤裸裸
eng
▁8.2%
▁张春贤
▁读完
▁5.8%
▁新线
▁爆胎
▁撒谎
▁长篇
▁臂
之间
▁新乡市
▁牛津大学
▁借条
▁维珍
▁立国
戟
文献出版社
▁改编自
▁悲哀
▁78%
▁交叉路口
▁医疗保障
▁而定
▁四合院
化工
▁搜罗
▁舆论监督
▁公共厕所
洽
▁不言而
▁记账
▁产业政策
之道
▁用钱
▁企业界
▁新贵
▁面料
▁钢铁业
▁育有
▁题材股
▁桃子
▁异化
▁冰火
▁数十家
▁镇江市
▁记下
▁绿豆
▁大龄
▁视点
app
蚝
▁台长
▁定金
▁落叶
▁避孕
灸
▁夺走
▁群众利益
▁察看
▁自掏腰包
▁虐童
▁预付
係
簧
掖
▁打发
▁浏阳
▁花生油
▁铁丝
▁妻儿
▁复试
▁礼让
▁解毒
▁广度
▁日用
▁假扮
▁务
▁昨起
▁肉夹
▁开学典礼
▁存量房
▁国际收支
▁几块
▁尝尝
▁签证费
▁爱民
▁奏
▁巴拿马
▁4.7%
▁撞坏
▁大开
▁自习
▁强迫症
▁负于
▁更衣室
▁精液
▁擅
▁多种形式
▁西亚
▁要闻
▁河南省委
▁第一周
▁两瓶
▁湖南省委
▁变量
▁金鱼
▁武功
▁中到大雨
▁小摊
▁产区
▁建设费
▁五点
▁免疫系统
▁渐近
▁党代会
▁存托
▁联华
▁之行
▁不振
▁780
经贸
▁捡拾
▁北川
如生
▁美国空军
▁解约
▁三鹿
▁解冻
▁心智
▁江苏省委
▁司马
▁舞弊
▁布雷
▁成因
▁挽
机械
▁审判长
▁1937
▁新机遇
▁忧郁
▁后背
▁许某
▁鸭肉
▁轮换
▁技术标准
魅
▁人满为患
▁损耗
▁举足轻重
▁旅行网
▁看一看
▁中段
▁季财报
▁中巴
▁饱满
▁火辣
wh
▁大通道
▁彭州
▁病死猪
▁村上春树
多云
▁四六级
▁早有
▁职业技能
▁方正集团
帚
▁成片
▁长年
▁国家信访局
▁各州
▁cos
▁走动
▁出过
▁骨质
▁抢滩
指导
▁上百人
▁视觉效果
▁一加
▁降为
▁中青报
▁校门口
▁一大步
▁煤企
▁塔城
满意
▁换卡
▁解决办法
▁两到
▁郑州大学
▁cf
▁出口国
▁坦白
钜
▁昨晨
▁蒙特利尔
▁德黑兰
▁李雪
▁奶妈
▁持之以恒
▁谷底
璋
▁表盘
▁那儿
▁守望
▁丢人
▁茶杯
▁交集
▁想尽
▁洪山
▁高技术
▁并发症
▁突击队
▁孟加拉国
▁心血
节约
▁犯规
▁胡先生
▁多场
▁种族歧视
▁帝王
▁千岛湖
▁年迈
▁杂草
▁反过来
▁机房
▁密不可分
▁还应
用地
▁莱格
▁安哥拉
ert
▁1963
▁时所
▁工钱
▁教书
andy
龙江
沈
▁可言
▁指点
▁东南大学
▁计生局
▁开价
▁涂料
▁心理咨询
▁国酒
▁之苦
▁传单
▁四楼
▁沙尘
▁ads
▁权威性
戎
▁不良资产
▁第一笔
▁普涨
▁两高
▁洋品牌
▁1959
▁打扰
▁献出
▁俄中
▁体外
▁时用
▁钱江晚报
浣
▁壮举
▁并不需要
▁摄制
_
▁露脸
▁骨架
▁奥数
邮电
▁严重者
▁反面
▁消防大队
▁脱衣
▁aaa
▁苏黎世
▁发生率
▁不带
▁整条
▁gov
▁音乐厅
▁武钢
股份
▁盘后
▁公共设施
▁精度
▁目测
▁共产主义
▁攻击性
▁承包商
▁藏书
▁南博会
▁牛津
▁发函
▁蜂拥
锏
塔区
▁预算法
▁水银
▁马卡报
▁存疑
▁黄石市
▁珍爱
▁城铁
▁共同开发
机会
▁供大于求
▁雨后春
▁悬疑
▁就绪
▁大肠菌群
▁管住
▁腾飞
▁中小银行
奋斗
▁高能
▁燕子
▁叹
▁出水
▁吉姆
▁全息
▁气管
▁发觉
▁弘毅
▁文学奖
▁蒙娜丽莎
▁密云县
▁甜甜
▁点开
涧
杞
假错案
▁该站
▁翻越
窍
▁小山
▁技工
▁扩股
▁实弹
▁大吃一惊
▁bm
咀嚼
▁跨度
▁西式
▁暖和
澄
▁9.8
▁久坐
▁煤制
▁曝料
▁一记
▁5600
潇洒
▁错觉
▁文林
▁并不
▁sky
▁万米
▁在编
▁杨浦
▁人脑
▁亚运
进步
▁制高点
▁中公
▁翻红
▁在生活中
▁覆盖范围
▁星期三
莺
真相
▁据省
▁新格局
▁谣传
▁百倍
▁特勤
▁地用
▁花草
▁工艺品
▁责任心
▁时装周
▁五险
秘
▁雄心
▁杠
▁第一书记
▁笑称
▁太远
▁酒厂
▁骗人
▁李小姐
▁金改
▁云南昆明
▁触屏
▁贩子
▁万对
▁占有率
▁结婚登记
▁女歌手
▁风能
▁后腿
▁17.5
▁皇宫
▁野村
▁星球大战
▁浦发
▁沃伦
▁虚增
▁州立大学
▁必然趋势
▁理会
▁钻进
▁讨价还价
▁赛道
▁食品行业
▁轻点
▁检索
▁声讨
▁无数次
檐
▁论调
▁城东
▁轰鸣
▁改用
▁外层
▁阿坝
▁洪灾
▁4100
▁供奉
▁即便如此
▁同级
▁640
▁血站
▁在所难免
▁奥秘
扭
▁佩德罗
▁主产区
▁持有者
▁重审
尉
▁索性
▁广铁集团
▁停机
▁高素质
▁借势
▁主攻
▁820
▁昨在
▁一哥
▁经办
▁摄影记者
▁收场
麻烦
▁长和系
▁亚布力
▁起亚
▁金城
▁益阳
▁凉山州
▁廉租
▁条码
▁豆制品
▁年近
▁266
▁胜过
▁常州市
▁台商
有名
▁国际性
▁三辆
▁0.15
▁艺术作品
▁有心
▁无理
▁分获
▁千万富翁
▁心怀
▁六点
▁炎炎夏日
▁百富榜
▁微利
▁市场推广
盲
▁ppt
ist
▁捡起
▁巴斯
▁方圆
▁建设厅
▁12.5%
▁法定程序
▁住宿费
▁临时性
▁香港中文大学
▁包厢
击手
督
▁撒尿
危机
▁微微
▁她家
▁共和党人
▁着力点
▁比肩
▁数以万计
▁与日俱增
▁毛里求斯
▁味精
▁共进
▁231
漾
▁技术水平
▁十国集团
▁杀伤力
▁流通领域
▁天气晴好
金斯
▁周初
▁自治县
▁证据不足
▁6600
▁注册资金
腺
▁狂犬病
▁餐饮店
▁东风汽车
▁尽如人意
▁一页
▁搭车
▁物流配送
▁蛇口
▁曼彻斯特
▁趣
▁墨西哥城
▁两重天
▁小冰
▁讲堂
▁作假
▁速成
▁宏达
▁交配
▁认领
▁监委
业务
▁观察报
▁行政区
▁不同寻常
之中
▁稍早
▁当班
▁同龄人
▁适逢
▁加西亚
▁确有其事
▁有误
▁偏北
▁拾荒
不在
▁管理权
蔑
▁大众化
坯
▁国家森林公园
▁正月十五
▁轻薄
▁可到
▁钢丝
▁补缴
▁党章
▁花钱买
▁近三成
▁株洲市
▁乡亲
▁现将
▁若能
▁大厂
辈子
▁礼貌
▁放着
▁源泉
▁致远
▁变焦
▁远大于
▁浦口
眶
▁股派
▁233
▁递给
▁强于
▁翻了一番
▁主会场
▁变局
▁流利
▁朝鲜人
▁来港
▁超大型
▁汽车尾气
▁眼药水
▁广汇
钊
▁过街
▁了结
捉
▁特拉
▁4.2%
▁钢管舞
▁军事基地
▁开讲
▁送别
▁如遇
▁红地
▁巨变
▁尼斯
▁明晚
泛
浒
by
▁独具
▁蔬果
▁掘
▁免试
得多
箔
▁最让人
而过
匕
▁在世
▁排练
▁保持一致
▁装机容量
▁伟业
▁现场直播
▁业务范围
▁江北区
▁无敌
▁派员
▁路子
▁属地
▁8.1%
乐园
▁一百万
ight
▁通卡
▁业务部
袖
▁斗士
▁富士山
▁中指
▁驱赶
▁略低于
▁瑞丽
▁科研机构
▁管党
▁发炎
▁大公报
▁废纸
▁甲型
▁下身
▁赶走
▁转增
▁雅趣
▁水土
▁普通百姓
▁引流
▁科科长
▁铜仁市
▁叫板
▁马戏团
埋
▁流水线
▁747
▁二手烟
▁密切联系
▁隔空
▁养鱼
▁东北亚
▁共和
▁继续加强
▁新余市
▁渐冻
▁内政部
罗夫
▁6.9%
▁海港
▁哪种
▁并网
▁单周
▁汉代
▁太和
▁委副
uk
磺
140
犹
▁装入
▁高污染
▁五星红旗
▁223
成就
▁商标权
▁突降
▁沙子
▁看多
▁致函
▁货轮
渠道
▁多座
▁归根结底
▁争斗
▁发送到
▁中情局
▁安检员
ord
▁冷淡
▁王俊
斓
▁多变
▁掌门
▁辞呈
▁鸡腿
▁误差
崂
▁sat
东方
▁几内亚
▁测速
▁奖章
▁天真
▁双城
▁宝鸡市
watch
▁宿州
▁容错过
▁众说纷
▁单调
▁欣欣
▁张宏
▁两端
化县
▁玉器
▁营口
▁诗意
▁其母
▁篮球场
▁莱特
▁地下通道
▁万事
▁党的建设
桨
▁机关干部
▁实情
▁华纳
▁amc
▁一片狼
▁已满
▁揭幕战
▁新政府
▁迟早
▁15.2
▁切忌
▁营养成分
▁江宁区
▁长期投资
▁杂货
▁拐卖儿童
▁礼包
▁示意
▁停歇
寰
▁需注意
▁1966
▁山河
▁时时
▁党派
▁前值
▁保证书
▁中国女
▁敬老
▁算命
▁凸显出
▁指导性
▁北门
▁鼓动
丙烯
喧
▁半数以上
▁驻马店市
▁开端
▁邀请赛
▁彭某
▁242
▁直属机构
▁日本外务省
▁正处级
▁天窗
▁高约
▁高分辨率
▁男单
▁7.9%
▁书信
▁产科
▁血流
▁分部
▁臭氧
不通
▁花海
▁水瓶
▁郭振
▁德克萨斯州
镶
▁霍夫曼
楂
ath
▁团市委
▁川菜
▁三沙
▁临床试验
▁中央银行
▁度日
▁卖菜
馋
▁中枢
▁二号线
▁七日
▁不顺
▁尽责
概
▁跨海
▁六次
▁必有
怠
一郎
人听闻
▁免受
▁东海岸
▁卡号
▁不分
▁双鱼座
▁主题乐园
▁断定
笃
▁淮安市
▁传唤
▁名号
▁毁灭性
▁过桥
▁入海
职务
▁499
▁静安
▁gb
炯
▁落定
▁客串
以待
▁区段
▁敌对势力
▁第十六届
▁爆冷
▁可于
▁剧痛
▁称谓
▁一小部分
▁美媒
▁商厦
▁营业员
▁沙湾
▁仅凭
pc
▁骂人
▁孙宏斌
▁狮山
▁播放器
▁七彩
规律
501
▁文化宫
▁永定
▁只顾
▁定局
▁厌恶
▁曹建明
▁大小便
▁正气
▁摇篮
指数
▁249
▁10.8
▁外管局
▁旋律
▁上作
▁东坡
▁去年末
▁本港
▁并非如此
▁ipadmini
▁这辈子
▁第四轮
▁晴雨表
▁百余名
▁四轮
▁华电
诋
▁霸道
▁主推
▁新余
▁出现异常
▁业已
▁过头
▁开发票
▁超标准
▁这比
老板
▁参考消息
▁兰新
祺
▁热线电话
▁不敢相信
▁商事
▁car
▁赔率
▁质询
▁邓某
▁月租
▁普通住宅
▁影评人
▁专制
▁大大降低
▁商超
▁差钱
▁克斯
▁重大进展
▁交汇
▁涉诉
к
▁字迹
▁河源
吵
▁情色
▁让给
▁漫漫
▁楼主
开支
▁高等院校
▁战车
▁扫一扫
贮
▁鸟叔
▁个子
▁热身
▁主讲
▁水路
▁做广告
▁中国人民
皋
▁变幻
ial
▁家央企
悸
彰
▁半程
▁当上
▁贸易额
▁监外执行
▁黄金饰品
▁菜园
▁两枚
▁投票权
▁夫斯基
▁该园
之路
涎
▁投射
▁军车
▁74%
▁脑出血
▁创作者
▁勘测
▁短袖
▁库巴
▁棉衣
▁龙湾
羞涩
▁超日
▁迪庆
▁大堂
▁进口商品
▁英格兰队
▁亮眼
▁卡斯特罗
▁布莱恩
▁诉说
▁可为
▁史蒂芬
浊
得住
▁动弹
▁棋牌
▁烧饼
▁5400
▁老店
▁报备
沌
▁三部曲
▁上位
▁公开课
▁常客
▁消费类
▁第四批
▁以供
▁百事可乐
▁两极分化
▁嘉里
▁特长生
希望
▁安阳市
▁审批权
▁退伍
▁准点
坨
▁县级市
逐
▁一顿饭
▁1942
⋯
▁千百
▁花落
▁我行
▁表演队
▁远去
▁充值卡
▁打官司
▁让路
▁不放过
▁一罐
▁汽车销量
▁殖民
▁八点
▁站牌
▁精神病人
▁过江
▁才艺
▁吴晓
▁多吨
▁等同
▁折返
▁动画电影
▁择
▁壳牌
▁三门
▁合唱
▁沪综指
▁睡不着
▁买卖双方
▁第四名
▁天水
▁小女儿
三省
▁脉冲
▁调皮
▁两米
▁大大增加
▁邻居家
▁小盘
璇
▁1880
▁会令
萃
▁激化
▁积极响应
▁用量
▁互惠
豆腐
▁非营利
▁口气
▁出口量
▁天兔
▁人防
▁合理安排
▁擦伤
▁黄鹤楼
▁罐车
裘
▁财务报表
▁晨练
▁宁夏回族自治区
▁岳母
▁形象大使
▁打骂
▁条纹
▁麻省理工学院
▁万头
社区
▁照看
▁初选
▁钞
寐
▁十个月
▁不买账
▁76%
▁地铁线
▁规模较
铀
▁美国联邦调查局
▁消化不良
▁陪酒
▁ghz
▁1050
▁订货
▁薪
▁大块
▁拍戏
主任
▁心意
▁保险金
▁已高达
分配
▁浓烟滚滚
▁假新闻
▁木棍
▁血汗钱
▁门锁
▁王世
▁友善
负责
▁整机
▁户外运动
▁中老年
▁张志军
▁直觉
▁每瓶
▁求购
▁罚没
▁购岛
▁尽量减少
鹜
▁煤气罐
▁演技
▁项目管理
▁两批
▁吃紧
▁冲击力
▁吊车
▁跃跃欲试
▁结合实际
▁珍妮
▁年轻一代
▁要交
▁客户关系
▁编织袋
▁富民
▁人少
▁提防
家具
▁汇改
柑橘
▁直逼
▁中间人
▁纸尿裤
▁及格
▁花圈
▁予
▁非要
▁民歌
hz
▁逆差
▁0.14
▁屏障
▁集体经济
▁紧急会议
冗
▁背靠
▁储蓄率
▁学车
▁科技股
▁再发
惶
▁操办
▁考古学家
▁外迁
▁县里
▁南岸
严重
▁结清
▁国军
▁全副武装
▁纵身
▁令人满意
▁百分之百
▁道里区
▁执委会
▁钱物
▁3.9%
▁斯图
▁请示
▁席尔瓦
▁圆桌
▁乘火车
▁发烧友
▁疗
▁18000
▁840
▁并会
▁魔力
▁英菲尼迪
▁麦田
实验
▁各部委
▁春光
▁粤港澳
▁黄明
▁卜
▁西南财经大学
▁最广
▁不死
▁道歉信
▁普遍现象
▁中医药大学
▁马克思
▁8.8%
▁体感
▁吻合
▁享乐
▁淮河
▁别有用心
军校
▁向着
▁援疆
▁车手
▁工本费
▁水系
▁自述
▁直径约
▁中英
▁视讯
ink
▁抵抗力
▁牙买加
▁比为
▁抱住
▁成本价
▁封路
德尔
▁小梅
腕
▁恶性竞争
▁无家可归
▁手电
故事
▁农庄
▁暴行
▁天量
▁冰糖
▁走向世界
▁295
▁电子政务
▁背叛
▁定调
▁种群
不定
▁卡上
▁一空
▁美国参议院
▁两手
▁马斯切
▁据信
▁领馆
▁日本自卫队
▁济源
▁得克萨斯州
▁傍
▁列宁
▁关键性
▁重担
▁天台
▁香气
▁一秒钟
陳
▁高考状元
▁钢协
▁全州
▁九点
▁过路费
▁分水岭
▁衷心
▁易发
▁主要职责
▁首开纪录
▁228
▁导盲犬
▁深入研究
▁传真
▁生产国
▁商丘市
▁一问
▁泄愤
▁分区
▁安然无
▁海带
▁涉黑
▁配角
▁策略师
▁广东省政府
井盖
▁无尽
▁申论
123
▁最富
▁包装袋
▁吸食毒品
▁转到
▁北风
蚊
▁武陵
▁辅警
▁晶体
▁军费
▁管理方
▁引向
▁雅加达
▁淡马锡
▁繁衍
炫
▁因涉
▁忍者
▁节车厢
▁器具
▁族群
▁拆掉
形势
▁这样的话
▁财神
▁11.2
▁彭帅
▁逸
▁727
▁北部湾
▁外相
▁解决不了
▁重特大
跨
▁请辞
▁华林
▁沙巴
稼
▁成形
▁金管局
▁我来
▁塑像
▁房顶
▁瓦伦西亚
▁246
▁育种
▁中餐
▁医用
▁茶园
后卫
▁南开大学
▁相距
▁名列前茅
dr
▁财政赤字
▁团委
一空
▁挂靠
岑
▁极品
▁9.4
▁建筑设计
▁喷射
▁足总杯
▁盗用
▁彻夜
▁钱币
▁起于
▁德罗巴
▁强军
▁新安
▁孙正义
▁十一月
▁底座
▁金白银
▁无限期
▁一夜间
辽
▁发电厂
意思
▁小黄
腺炎
▁套牌
▁星期二
▁跨越式
▁西气东
▁上海地区
▁未受
▁脑力
▁积木
▁维拉
▁见长
ram
茧
▁意向书
▁人品
▁扶手
▁每场
▁挫伤
▁离队
▁全家人
▁监管者
▁严重危害
▁强征
▁司令员
▁铁杆
▁园林绿化
▁无车日
▁漏油
▁赌局
▁形似
▁培训基地
▁迁入
▁垄断行业
▁系统升级
▁罐装
▁cb
▁过劳死
▁拒之门外
▁潘某
▁李永
▁数百亿
▁金水
运用
▁基本法
▁专科生
佔
▁唱衰
▁老路
尼奥
▁突发奇想
▁香港政府
▁收据
▁久久
▁侦探
▁较往年
▁妆
▁渐进式
▁亲生父母
▁泉州市
▁语境
▁独自一人
▁戴维斯
▁0.22
召开
▁轮候
霁
保持
▁补偿金
栩栩
▁西段
▁简报
▁科教
▁长乐
▁轻量
▁哈弗
▁被套
▁任由
▁一季
▁陈小
▁瓦解
▁易主
▁平均收入
▁0.26
▁9.1
▁全面落实
▁选中
ike
兰县
▁抓取
势力
传统
▁自爆
▁社论
▁全国假日办
▁紧闭
▁频段
▁津巴布韦
▁老马
▁今秋
▁吃苦
▁魔方
▁古诗
▁office
▁坐不住
▁人代会
▁五台山
▁万韩元
▁时日
▁萧县
▁接获
▁1250
▁002
105
▁两道
▁副理事长
▁架空
▁会议费
▁灾难性
▁云浮
芦娃
▁缉毒
▁之时
▁四倍
▁拳脚
▁营养不良
▁没带
▁工商登记
▁不归
纪录
决定
▁亿件
辫
▁赛跑
▁呼伦贝尔
▁实干
▁英国皇家
▁第三年
▁河南人
▁八家
▁白日
▁乐坛
ll
▁纠葛
褥
▁新专辑
▁大哭
▁奉行
▁厂长
▁275
▁飞赴
▁汤森
▁央广
▁税务机关
▁用尽
▁检阅
▁77%
▁丹江口
▁瓦尔
哽咽
▁吉安
▁俄新网
▁大纲
▁复审
▁高度评价
鸵
▁9.5%
▁定力
▁逢年过节
▁某家
▁陵水
▁抵扣
唤
▁这下
▁微幅
▁980
▁八宝
▁5.2%
无忧
▁来历
▁扭亏为盈
▁欧美国家
饭店
▁情急之下
▁驻守
▁表哥
▁自负
▁间断
▁英文版
▁准确性
▁组成员
▁迷雾
▁诺西
▁普通用户
▁艺术团
▁场次
▁满天飞
息地
▁明治
邛崃
▁月全食
▁医务
鸠
▁追讨
▁羽毛
▁周生贤
▁阿扎
▁门面
▁宁海
▁坐等
幽
▁他俩
▁琳娜
▁巨幅
▁酒瓶
▁大浪
▁阿布扎比
▁奶制品
博士
▁空壳
▁大计
进取
▁4.6%
挎
▁州政府
▁余种
夹
▁训练场
▁红谷滩
▁冰点
▁年增长率
▁93%
伪
▁青菜
▁感言
一看
▁打点
▁之策
pa
▁余杭区
▁crm
▁唐朝
▁一去不复返
▁追梦
▁泡泡
▁林区
ley
▁重大事故
▁减量
▁中澳
▁一个半
▁私房
▁驳回上诉
▁十二年
▁公共关系
▁延至
ans
▁合谋
▁只卖
▁马术
▁斯蒂
▁训练营
▁不合格率
高原
▁临港
▁消散
▁dv
▁因其
▁铜矿
缢
▁国产片
▁级新生
▁fda
▁历代
▁老区
▁只身
▁孟加拉
▁民生问题
▁精神状态
▁总支出
▁休息时间
▁心形
▁名酒
▁同乡
▁最合适
▁宴席
▁腔
▁义乌市
▁心底
▁会战
▁英德
▁运输局
▁假象
.99%
中毒
▁科罗拉多州
▁陈文
▁建国以来
▁路途
▁铺张浪费
▁林芝
▁资金量
阵容
▁保障体系
▁篇幅
创作
▁1680
▁api
▁展览馆
▁语气
▁继续执行
颤
哉
▁旺旺
▁错案
▁牛栏
▁383
▁雨季
▁0.08
▁96%
▁万通
▁萍乡市
▁拍打
不见
▁坐牢
▁某一
▁村村
▁康美
▁建构
▁网格
▁长治久安
▁节食
▁强震
▁交会处
▁馆藏
▁并不一定
槐
▁败家
械
格勒
▁实地考察
▁移除
▁销售员
▁三四十
▁唐山市
▁通讯设备
▁健美
▁结业
佼佼
观众
▁上书
▁三明
▁伊瓜
▁亮度
▁收支平衡
▁坛
完善
▁百货公司
▁回程
▁郭金龙
▁令人吃惊
友好
▁307
▁书屋
▁网络覆盖
▁学制
▁这波
▁世贸
▁天下第一
▁布尔
▁惩罚性
▁潮人
▁销售总额
▁亚信
▁附有
▁外部环境
▁空腹
▁暂定为
▁压倒
▁江津
▁西三环
▁拉丁美洲
▁阴性
▁巨石
操作
▁砸碎
▁说谎
▁俄罗斯政府
西北
▁尤为重要
▁字典
▁学生宿舍
▁小华
▁高某
▁摩洛哥
平原
▁预算案
▁卷烟
▁陈军
▁望京
▁宰客
老大
▁坚固
▁认真落实
为民
▁犹太
▁城郊
▁误入
▁1971
▁称此
▁同济大学
▁心痛
▁脱口秀
▁白衣
炊
巡
名单
▁252
▁兴华
▁最低值
▁近日来
▁六名
▁调集
▁劳资
▁搬离
▁高科
▁新思路
赘
▁爱犬
▁活鸡
港市
▁11.8
谓
▁高级别
▁戒备
罔
描
▁经管
▁薪金
▁吕某
▁趋之若
▁不见踪影
▁现钞
▁株式会社
▁鲜美
▁火葬
▁参院
烊
▁体育运动
▁祖父
▁人马
▁955
▁黄土
▁互联网服务
▁交流活动
▁扑面而来
▁go
▁直肠癌
更新
▁万斯
▁涌向
▁中产阶层
▁男演员
▁小花
▁全省各地
▁曲江
▁包头市
▁杯水
▁时为
▁大中
▁本泽马
不一
▁纸板
▁桥头
▁观察家
▁杜家
▁单次
拳道
▁物美
▁李伟
▁酿
▁offer
▁限制性
▁五是
▁花花
▁尘埃
▁拉链
▁检查站
▁渐成
▁聚集地
▁10.1
▁探明
▁潘功胜
▁控制系统
▁妥
▁医药卫生
▁玩弄
▁半幅
▁麦肯锡
▁龙凤
▁老干妈
▁教研
▁馆内
▁专利权
▁斯科特
▁议事
石油
▁虾米
进度
▁性侵犯
▁本季度
▁三张
▁转起
▁误判
▁钱江
▁北段
▁中年妇女
▁频次
▁追平
▁佳绩
▁小心翼翼
▁理政
腾腾
▁多一
灾害
▁上楼
▁美食节
▁提上
▁282
▁赌债
干警
▁马萨诸塞州
▁中国财政部
▁无异
▁长期存在
▁保育
ly
▁三部
▁若想
▁起落架
▁扮演着
▁国家主权
厘
▁折断
▁几秒钟
▁感冒药
▁华东地区
▁科技型
▁贝索斯
在一起
▁710
▁辞世
➍
▁权威机构
▁立法法
▁马戏
▁美容院
▁村主任
▁中民
▁这些年来
▁此役
▁持续上升
▁中介费
▁薄膜
▁述
▁胡耀邦
▁胡适
▁寄送
▁刘海
▁商品交易
▁92%
▁监管部
▁虫草
▁viv
▁305
▁做好事
空气
▁桶装
▁成就奖
▁腕带
▁平顶山市
▁腾出
▁人民军
▁7.1%
▁天主教
▁翻转
▁面目全非
▁山西太原
窟窿
▁看不出
▁国际航空
圃
▁正试图
▁境况
典礼
▁玻
▁香港市民
▁县市区
▁各不相同
▁刑事诉讼法
▁误认为
▁金黄
▁俄媒
▁泄洪
▁欧式
▁刺痛
▁痛恨
▁砍刀
▁咸宁
联合
▁以身
▁酒企
▁胶水
▁9.3%
轼
▁line
▁带病
▁小王子
▁区级
▁dota
▁该笔
▁年少
向西
▁终端设备
▁张江
▁时到
▁榜上
▁严格遵守
▁卡瓦
▁小人
▁脑子
▁王勇
▁造林
▁新闻资讯
▁交换意见
▁红头文件
▁奇怪的是
▁大半年
▁ngo
▁成家
▁西洋
▁秦火火
▁生物科技
▁主楼
▁性别歧视
▁监事会
▁345
▁住房价格
▁屡遭
▁泡温泉
煜
▁世俗
蛰
br
▁公用事业
▁永春
▁黑市
▁代金券
▁特价机票
▁最易
▁校领导
▁非京籍
▁强者
▁失足
地带
闭
樱
▁饮料瓶
▁限产
勘探
▁难产
▁水井
▁6.0
▁尼克
▁期货业
▁双待
▁床头
▁正定
▁圈养
▁堪
▁大行
▁过日子
▁志强
▁尖端
▁恩怨
▁奉贤
▁干得
▁走秀
▁规章制度
▁上缴国库
▁224
▁牢狱
▁科研院所
▁大起大落
▁三起
▁站票
▁大卡
▁易迅
▁进校园
▁篮
▁贵重物品
▁人寿保险
▁布拉德
▁贿选
▁历年来
▁服务队
▁引产
▁换证
▁办完
▁行业龙头
▁特殊教育
▁房客
▁不亦乐乎
▁考拉
▁多长时间
▁324
▁交汇处
▁地摊
▁圣地亚哥
主管
▁子孙
▁附着
▁检查和
▁金桥
▁设计院
▁商业中心
▁连体
▁开放性
▁新动力
▁送院
▁地表水
▁阳明
▁现为
▁投案
▁梁某
▁勿扰
▁水利厅
▁多台
▁es
▁先进事迹
▁调研员
▁并发
▁温网
▁大意
连接
▁选座
▁集中精力
▁病毒感染
▁真凶
茬
▁多有
▁广交会
▁沪深股市
▁将令
▁晴好
▁臭气
▁erp
▁加州大学
▁男主
▁腾挪
▁ep
▁前些
▁254
日子
▁巡防
▁喀
▁桑托斯
▁功不可没
▁点头
▁呼应
▁摘要
▁全面禁止
摘
毫
▁违纪行为
▁适龄
▁三峡工程
▁工程机械
▁你造
▁羊水
▁打针
▁飘飘
▁硬化
遐
▁经费支出
▁高热
▁李海
▁轮奸案
▁地质公园
▁归结为
▁财大
▁回望
▁无可厚非
▁每平
▁杨秀
▁为国
▁打扫卫生
▁味全
党员
▁因受
▁新洲
▁一锅
▁宝藏
▁行政区划
▁丰盛
▁凌乱
▁三门峡市
▁名不见经传
电视台
▁挤进
▁获赔
▁毕生
恶化
▁西湖区
▁大容量
▁举止
宰
▁颁证
▁投中
淖
▁一票否决
▁郑商所
▁擦亮
▁冰山
▁日于
▁止痛
▁毒气
便宜
▁每单
▁第五位
▁绝迹
▁超量
▁第一案
▁南方周末
▁抵触
▁小布什
一堂
▁市教委
▁逆天
▁响亮
▁十强
▁照亮
▁渗入
▁关中
▁伊斯兰教
▁大限
庆民
攀
▁1948
▁乡土
邮
▁星期四
▁大理州
▁菜谱
▁小杰
▁晒晒
▁学年
酮
▁脏话
▁成功经验
▁全裸
▁讨好
▁试剂
▁牛仔
▁kindle
▁列席
▁别具
▁立委
▁葡
▁疾控
▁体育产业
▁推文
▁得利
▁菲亚特
醴
以求
▁特等
▁疑难
晚报
▁入籍
週
▁交响乐团
▁财险
▁郭永祥
▁ipv
▁小兵
▁可信度
▁托尼
▁关照
▁庭院
▁第三者
▁未予
▁编排
玖
▁刘国
▁李国
▁表象
成绩
▁西药
▁紧密结合
▁献爱心
▁9.4%
▁第一枪
▁出版发行
▁类目
▁终端产品
▁86%
▁点钟
▁深圳湾
▁冷饮
▁受旱
▁金光
▁5300
▁智勇
▁金钟
▁摔死
2015
▁小鸡
▁三道
总局
▁连战
瓦尔
▁接二连三
▁新型农村
▁春节前夕
▁交到
▁安东尼
▁行货
▁取经
▁迪亚
▁旁人
▁独董
▁叫苦
巿
▁碰瓷
▁砸伤
氧化物
▁谱写
▁通化
源性
▁调和
▁李学
拄
▁三环路
▁潜水员
拆
▁大排
▁偏重
▁长兴
▁好似
▁推拿
▁滑铁卢
▁丧事
撑
▁折起
▁意外事故
▁联动机制
▁强心
▁或成
▁状况良好
▁观察员
▁刊出
▁旧版
▁才行
▁退场
▁摇一摇
▁94%
▁堆满
▁虹口
▁上个世纪
▁以至
▁绝收
▁阴暗
▁dvd
▁别国
▁首战
▁反对票
基酸
▁孝敬
▁未确定
▁秦虹
▁酸甜
▁中东地区
▁洛夫
瘾
▁就够
▁南开
▁减退
▁大旗
▁湾区
▁次生
眺
▁校训
▁警备
▁左翼
▁一财
▁料到
▁陈可辛
▁之处
▁北京市工商局
▁实地调查
▁人脸识别
▁腐化
▁晋宁县
▁花旗银行
▁小学教师
▁水墨
▁营销者
▁悲情
▁首周
▁光滑
▁黑木耳
▁指导思想
▁油箱
в
▁自如
▁事故责任
▁活动中心
▁葛文耀
▁镇海
▁努尔
▁蚊
▁社区服务
▁电子科技
事物
▁家里人
▁国旅
▁唱响
▁危害性
▁出乎
▁保卫战
▁艺术馆
▁大衣
▁赛维
▁新起点
▁小提琴
合金
▁螺纹钢
▁剩饭
▁百元大钞
▁编导
▁房管
▁切实做好
▁疑似病例
▁围棋
▁刺激性
▁中学校长
▁邮政储蓄
ax
▁外交关系
▁培训费
▁何时能
▁排位
▁字画
▁赠与
▁深加工
▁食品网
▁呈上升
▁车底
▁4.9%
per
▁夜色
▁买药
▁京东方
▁举报信
▁赛程
▁配对
▁人身自由
▁违章建筑
寄
▁置评
▁征询
▁往后
air
▁社会风气
▁叙述
▁利用网络
▁盛产
▁公元
▁新篇章
织品
▁开发人员
▁高送
▁243
▁排起
▁空闲
▁毒药
▁手工艺
▁pv
▁西江
▁亲历
▁炼油厂
蹊
▁台式
▁揽胜
▁综合利用
▁法尔考
▁千伏
▁切身
▁默许
▁十几名
▁西岸
▁绩效考核
▁李宇春
▁腰包
▁更何况
▁调高
▁灯塔
▁奸淫
▁英烈
▁扶梯
▁万多个
▁凯里
▁这使
▁双峰
▁抽水
▁购物广场
▁特纳
▁推车
▁怀里
▁古怪
壕
▁驱散
▁311
▁都市快报
▁三省
▁益处
▁吴英案
▁大宝
▁吴晓灵
▁内核
▁中国日报
▁怒斥
❻
iss
▁入内
曳
▁猛击
▁小而
应用
▁说服力
▁更有甚者
组合
▁御寒
▁op
▁名利
敖
▁张兰
▁美国能源
▁三高
对象
▁新交规
▁hiv
▁竞购
▁明文
▁徐州市
▁大降
▁往返机票
▁分从
▁宣泄
▁君子
▁毒害
▁班线
▁率队
▁欢聚
▁二路
▁器械
▁学前
▁王正
▁漫画家
▁程序化
▁黄奇
▁尚需
▁管理机制
唬
▁私设
▁围捕
▁锦旗
▁警觉
▁露宿
▁措手不及
▁配饰
▁药剂
▁多哈
▁北街
▁棍棒
▁趋势性
▁国家博物馆
▁地热
▁仍存
▁姚晨
▁健保
▁us
▁彩礼
遍野
▁未雨绸
▁10.6
丶
▁掀开
▁笔录
▁连霍
▁来个
▁ufo
▁初六
千万
▁圆满结束
▁西斯
pl
▁一盆
▁盾构
▁钢铁工业
▁截留
不休
▁百分百
▁优劣
▁世贸组织
▁电工
苔
▁寻人
▁治标
▁锦上添花
▁二七
▁驱使
▁谢尔盖
▁不断涌现
▁配股
▁变速器
▁痛批
▁军港
▁近郊
▁东段
▁短发
▁大马士革
▁邀约
斯山
▁外力
▁三宝
教授
▁内侧
▁油污
镶嵌
▁为先
▁坦然
道路
▁售完
基会
▁信奉
ace
▁之源
▁认真贯彻
▁刚过去
发电
疏
▁腾讯网
▁联合国大会
▁惯用
拉德
▁双边关系
而出
▁口子
▁市里
▁供销
▁法式
▁末期
▁1952
裔
▁垂钓
▁举步维艰
▁instagram
▁署长
▁自定义
▁降下来
肮
▁王秀
▁总动员
▁冻结资金
▁visa
空调
▁九江镇
▁公共汽车
▁通电
▁广播电台
▁ciopi
▁归于
致富
▁花瓶
▁听话
▁颇丰
▁试吃
▁项目部
▁商业保险
▁瑞士法郎
▁小贴士
▁买房人
▁暴力行为
▁平方英尺
▁头筹
▁咨询机构
寅
▁两宗
▁表率
▁航空器
▁生肖
▁全价
▁1850
▁12315
▁难以想象
▁参赛选手
▁登机牌
▁集散
▁肝肾
▁se
▁急诊科
通知
▁确有此事
▁法务
▁击穿
▁张杰
▁所指
▁肥肉
▁怒江
▁势必会
▁有违
▁mir
▁打来
▁见效
▁南充市
蛀
▁察
▁篇章
▁红烧
▁万年前
▁齐聚一堂
▁一世
▁铜川
▁装进
▁财务总监
▁精装修
▁朱小丹
▁本刊
▁万册
▁翻拍
▁报名者
▁8.6%
▁8.4%
hs
学年
▁台州市
▁采样
▁北京市第二中级人民法院
▁一整套
▁人以
▁余亩
▁暴晒
▁结晶
▁戈壁
中全会
▁严重不足
▁上海银行
▁余地
▁肚皮
▁他国
▁客户群
▁张学
簇
▁经常出现
▁首演
▁抵挡
▁陈建华
▁物管
嗯
▁城门
▁祭拜
▁银色
▁基础知识
▁开进
脊髓
▁中大
裆
▁午睡
▁用刀
▁青瓦台
▁4.3%
▁花灯
▁三文鱼
▁氏
▁联试
娃娃
▁11.4
特色
▁创刊
▁不卖
▁稻香村
▁水乡
▁消费行为
▁哥伦比亚大学
烩
▁第十一次
▁硅胶
▁一日三餐
▁新闻宣传
▁自编
▁天际
▁乡亲们
▁领会
不平
▁案二审
▁金像奖
pu
▁对原
▁到头
▁侦查终结
▁市面
▁生吃
▁基因突变
限行
▁很难说
▁基建投资
▁机智
▁警民
▁脑溢血
▁狱
▁受其
▁前程
▁合议庭
▁迈克
▁恐怖事件
▁豆类
▁每份
▁可操作性
▁惊恐
mah
▁肉质
▁美甲
▁山中
▁肝炎
▁中等职业
▁两球
蜷
▁222
▁8.9%
▁sdn
▁扣费
▁高通公司
▁真人版
▁银座
▁生活必需品
▁迫
▁工资总额
▁逛逛
▁发电量
▁武器装备
▁买官
已有
▁发誓
▁攻破
▁驻华使馆
▁附院
▁渗水
▁僵硬
▁7200
▁其官
▁近在
▁920
▁风速
▁种粮
▁全面铺开
▁武隆
乎乎
▁小道
▁渠道商
▁转投
▁艾滋病毒
▁控制目标
泸沽
▁牵线
▁老友
▁门卫
▁咖啡因
▁购物车
▁体育老师
跆
▁新郑市
▁陈政高
▁主宰
▁权势
▁土改
▁运城
▁权贵
▁倍数
▁溃烂
▁催眠
▁共度
▁春游
▁930
▁气价
▁彻底解决
▁轮船
▁说实话
▁餐巾纸
▁收听
▁之余
▁性别比
▁维持秩序
▁牛股
▁保外就医
▁杨剑波
▁美貌
▁销声
▁招呼
▁透明化
▁乌兰
▁哪有
▁北戴河
▁数百万元
▁矿井
▁日新月异
▁招手
▁中国军方
▁常青
▁镇雄县
▁而行
嗑
▁9.6
▁非常重视
▁运行机制
▁停不下来
▁万向
▁卖相
▁家产
▁农委
▁向西
▁强壮
▁存续
之以
▁大权
▁套用
▁读卖新闻
▁男女关系
▁涉赌
▁有别于
柘
▁之分
▁幸运儿
▁张小龙
打击
热线
▁仿冒
▁降下
▁航企
son
▁感受一下
▁新国
▁进行谈判
▁分会场
▁冷暖
▁举报者
▁尽职
▁老同志
蝗
晗
▁稻草
▁瑞信
▁乐清市
▁核心内容
骅
▁易方达
▁尽量少
▁形形色色
▁挥手
▁旅店
然大
▁科威特
▁胜任
▁中资企业
来说
▁亿份
▁增白剂
▁洋河
▁峡
▁射频
螳螂
▁缺货
▁同为
▁多用
▁贴出
▁cto
航空航天局
秃
▁公费
▁401
▁某人
▁葛洲坝
▁纽卡斯尔
▁通向
▁袭警
▁古今
▁运营官
▁历史记录
▁女警
▁尽全力
▁深圳市政府
▁耐用
饕餮
▁许愿
▁豆豆
▁木马病毒
▁总领事
▁迁往
▁啤酒节
▁遗物
▁苍南县
▁几十名
▁人去
▁百位
▁天来
▁腰围
▁潜藏
▁宫廷
▁梅赛德斯
▁系列报道
▁反观
▁纯真
▁股权结构
▁一动不动
寻常
▁一房
▁断绝
牒
叼
▁管用
▁薄弱环节
▁率团
学位
▁委任
▁中印
▁克茨
▁小黑
芸
▁嫌弃
▁牵挂
▁反贪局
▁换下
▁青秀
▁划入
尽致
▁自创
▁考察团
▁崔健
▁5.4%
▁黄章
▁人民广场
▁思明
▁外遇
▁单店
▁贵溪
▁无心
▁爬山
▁小游戏
▁陈志
▁王荣
▁民权
声明
▁望而却步
▁画展
▁澳方
动态
▁一村
▁双氧水
▁罕
▁充足率
▁盾
▁烟火
▁扶助
奢
广播
▁女老板
▁迅网
▁战神
▁顺手
▁初七
▁得当
唆
▁4400
▁不失为
▁司空见惯
▁卫浴
▁市工商局
培训
▁田野
▁少部分
▁磁条卡
▁长官
▁表现出色
▁播音
▁穿透
▁五国
▁消暑
▁公务活动
▁机队
▁组网
▁抢险救灾
幸心理
▁不尽相同
▁世博会
▁个数
使用
▁开展业务
▁步履
▁智囊
▁弗里
▁适配
▁特别强调
▁广大干部
▁刘维
▁特快
▁滑动
▁梁朝伟
▁抗诉
▁组图
▁道口
▁漠
▁惨不忍
▁二百
▁王雪
▁石狮
▁北京晨报
▁固件
灏
▁省去
▁经营户
▁软件园
玉良
成长
▁领导人员
▁热映
▁华北地区
▁切开
▁送水
馊
▁华美
▁进店
相传
▁斗门区
▁速速
▁倾情
▁安德
▁新一
▁西溪
一年
–
▁居住面积
▁沦落
▁竞买
▁喝彩
▁银河系
▁游泳馆
▁地貌
▁无线通信
▁压轴
▁挥刀
▁郭晶晶
oh
▁广岛
▁拉里
▁离校
▁王洪
▁张丽莉
匡
▁大门口
▁洗澡时
▁恰巧
▁伤亡人数
东区
▁风扇
▁抓获归案
▁稻城
▁率高达
▁课间
▁非诚
津县
毋
▁阴有
年度
▁学家
▁272
▁丢下
不然
▁烂尾楼
▁预存
▁包车
▁嘴角
▁摄取
▁262
▁耐力
▁赛会
▁方便快捷
肇
女性
▁宝岛
▁走得
▁276
▁重合
▁李崇
▁使劲
▁ea
▁姐弟
▁8.0
▁多花
▁假借
▁鞋类
▁抗氧化
▁行不通
▁余米
▁表现形式
▁models
▁何以堪
▁宁财神
▁袁某
暹
▁吸烟者
▁sa
▁男足
▁户主
回归
▁风尚
▁太慢
不大
▁争霸
▁本科学历
▁礼遇
▁出口额
▁30000
▁赶集
▁鬼子
▁利国利民
▁质量标准
▁后要
▁搜出
▁接机
▁撤退
內
▁佩奇
▁民用机场
▁之友
▁李刚
▁暂予
▁人民日报社
▁传给
▁纳凉
▁江岸
▁飞扬
原则
▁老大爷
▁宜信
最
▁政治经济
▁权属
▁受到冲击
▁治安拘留
▁承租
▁徽商
▁对人
▁斥责
▁妥善解决
▁封口
▁差错
▁教练员
制造
▁第一艘
▁屋主
宣传
▁安吉丽娜
▁世茂
▁防腐
▁热闹非凡
▁接访
▁华中师范大学
▁默默无闻
▁迷彩
▁华府
▁锻炼身体
▁洋快餐
▁洽
▁建章
▁新亮点
▁孝心
▁构思
▁戴相龙
sh
▁爆炒
▁不具
▁充分考虑
▁沉积
▁自上
▁双重标准
▁计提
▁副职
▁李小文
▁扩招
▁惠特
▁1968
▁统计分析
浦县
▁一大堆
姥姥
▁机械设备
▁瘾
▁艾滋
▁第十二
▁呼之欲出
▁广州市委
▁钢结构
▁语录
▁拉夫罗夫
姗姗
▁货机
▁三驾
▁药方
▁工业用
▁田地
▁胡志明
▁高等级
▁信用风险
路线
▁红木
▁天性
▁青训
▁6.3%
▁加盖
▁重播
考验
▁李稻
▁6.6%
▁原汁原味
▁哈利波
▁野兽
▁总经济师
▁攻占
▁四方面
总监
▁医疗队
▁三度
▁375
▁着陆器
▁1.15
▁快艇
▁应诉
考虑
▁美感
蓟
胫
▁交通秩序
▁逃课
▁元帅
▁之女
▁露营
▁苦不堪言
人大
▁手袋
▁形同虚设
▁箱包
▁开城
西亚
▁外文
▁致癌性
落后
铊
era
▁david
▁6.4%
▁洗劫
繁多
li
▁五六十
▁徒
▁医院院长
▁赌注
▁走马
▁出资人
▁画质
▁爆炸声
▁交通费
▁摘除
▁精神文明
▁294
▁欣然
▁投了
▁高盛集团
▁奥体中心
▁票款
▁tim
▁功臣
▁校企
职业
fr
▁起色
▁gr
▁签量
姻
▁着想
▁科斯
▁畅销书
▁孙先生
▁石刻
心思
▁恶劣影响
▁中国石油天然气集团公司
▁得票率
▁这年头
▁证交所
▁6200
▁外公
▁女明星
▁稻田
喱
▁夏俊峰
▁概
▁离线
▁排入
▁食用盐
▁宇航
▁十来
▁纸业
▁动力系统
▁交易方式
▁渝北区
▁小手
▁hadoop
▁直升飞机
▁为人
▁虚荣
▁保持良好
▁刀片
▁远征军
▁伙食费
▁摆满
▁梦工厂
▁缩量
▁算不上
▁超发
▁力压
迸
▁无独有偶
▁搞怪
▁体长
▁球场上
口呆
▁法制宣传
▁胎盘
▁暂住
▁寄予
▁调入
脊椎
▁两节
▁精彩纷呈
▁电信公司
end
▁自由泳
▁第五名
▁调制
▁省市区
▁外籍人士
能源
▁联谊会
▁乌斯
▁雷锋精神
▁李鹏
▁鱼儿
▁星期天
▁可见一斑
▁全境
▁马建堂
▁糖分
▁获奖作品
▁动真格
▁进港
▁gre
▁上以
▁融通
▁外星
▁众安
▁火炉
帽子
▁换代
▁资源优势
▁芝
▁结尾
▁gm
▁慰
▁破格
▁离婚案
▁生育率
▁倍受
▁把手
▁号院
▁一切正常
吁
▁安息
▁归案
▁铁路桥
▁塞维利亚
▁情报部门
▁沿河
▁汽车业
▁小面
▁风范
▁循序渐进
▁杜某
▁授牌
▁忧伤
中生
▁雪豹
▁炸伤
▁白白
▁卖官
▁试射
▁阿尔滨
▁安全部门
▁瓶盖
▁尿检
▁机械化
▁1919
▁轮回
▁88%
▁这首
▁搜捕
▁不谈
▁难有
▁包钢
▁画报
▁佩服
▁记过
物质
▁小国
▁重压
▁筹集资金
▁人死于
▁水印
▁六位
▁355
▁工商管理
▁水土不服
▁尽享
▁以旧换新
工委
疯
▁千家
▁道德败坏
▁西方人
▁国家元首
▁滨湖区
▁白内障
▁税务局
▁茶花
▁别开生面
▁机械行业
▁硕大
▁五华区
斯曼
▁公诉人
▁难耐
▁序
▁收款
▁宜兴
▁中山公园
▁转好
▁驻扎
▁南洋
▁高开高
长春
▁卫生署
▁签收
▁侵权案
▁分期付款
920
彬彬
▁二甲
▁净水
▁优秀作品
▁乐山市
▁竞技场
▁红红
▁john
▁侵华日军
骋
▁夜店
▁得名
▁烟民
▁兵器
▁获得最佳
▁香港电影
▁疫区
▁6800
▁7800
往来
▁尊贵
▁刻画
▁交付使用
▁去化
大师
▁爹爹
▁抚摸
▁新词
忡忡
▁两口
尽脑汁
com
▁互联网安全
▁包装盒
▁店方
▁早恋
▁金牛座
▁算下来
肆
▁挪用资金
▁闭馆
▁电子展
▁亮剑
▁毅
▁研讨班
▁12.8
▁拉登
▁留出
▁故意伤害
▁用法
▁财经大学
▁迅时
▁红花
)
▁孩
▁火箭弹
▁花椒
▁赵登用
▁8.9
▁塔台
▁中影
▁名品
▁圭
不好
▁先有
▁首钢
▁松江区
▁真功夫
淼
▁宋代
▁机能
▁跳转
▁长足
▁白石
▁写照
▁活生生
▁现款
远县
▁寒意
▁交待
▁男同
▁打赢
▁手部
▁脂
▁情境
稣
▁上门服务
▁8.7%
▁鹿城区
▁铁皮
▁马尾
▁娘家
瞿
▁体育用品
艰
▁鹤壁
▁广州市政府
▁不定期
▁fm
▁长城汽车
▁北漂
▁弯腰
▁天河机场
▁开国
▁牛皮
▁朱先生
▁古朴
▁美中
▁初现
▁内环
▁山东鲁能
▁光临
▁被忽视
▁买买提
▁外来工
▁甲午战争
▁谭某
邬
▁qu
▁美网
▁人脸
▁快运
▁金华市
▁两间
▁one
▁每台
挽
筐
▁新一期
▁石门
▁真真
▁顶住
▁寄生
▁新华书店
▁地主
入式
▁jinglietou
▁优抚
▁民情
▁酬劳
▁两居室
▁大美
▁行风
▁鹰潭
▁第一句
校区
▁哈特
▁评奖
照片
▁迷宫
▁雀
▁挣脱
敲
▁十三届
▁mini
▁越低
▁马利亚
▁难关
▁不以为然
▁光山县
▁情况通报
▁下沙
▁探秘
▁世界性
▁style
▁黄金市场
▁nbc
▁大关县
▁山脉
▁讲坛
▁273
▁拆迁户
▁特级
▁双年展
▁椒
亨
▁心切
▁超模
▁四五十
火火
▁拟建
▁财务管理
▁法国政府
▁无助
▁安迪
▁消防局
▁市场走势
▁航油
▁攻城
▁cdma
卫生局
▁非同
▁缘分
▁铁腕
蠢
▁刘春
▁办成
▁自动识别
▁美凯龙
面子
▁哪来
▁聚首
▁在讲话中
▁最晚
▁音像
▁元降
▁纸上
ca
▁继任者
▁法院系统
▁14000
▁补票
▁棒球
▁隐私权
▁北京市统计局
▁布丁
▁超期
▁分项
▁变电站
▁英语课
▁9.7%
▁回过
▁困难重重
▁爱喝
▁陆丰
▁美国银行
▁港台
▁收件人
成效
▁雪龙
▁月租金
▁学习成绩
▁荒诞
▁可选
▁非金融
▁鼎盛
不能
▁下级
单车
伽
▁单上
▁阅读器
▁沙尘暴
▁tesco
相关
▁对战
▁质地
▁清一色
▁启航
▁车行
▁问号
▁同属
▁行将
▁老罗
▁欠发达
▁打球
捧
▁神华集团
▁西太平洋
▁险企
▁钢板
▁资源管理
范围
▁空洞
▁6.8%
▁狗血
诱
▁润滑油
▁肾病
▁应立即
▁广东省政协
▁格斯
满目
▁惩
▁半径
▁盗贼
888
擂
▁情有独钟
▁真菌
▁族裔
▁广播网
▁兄弟姐妹
▁半点
▁该所
蹬
▁祖籍
▁佛罗里达
▁指尖
梅西
陪
大一
▁西班牙人
学期
▁绝对优势
▁支点
▁厕
诸
▁夏至
▁优秀人才
▁油料
▁小众
▁斗牛
▁对岸
▁效果图
▁新馆
▁网络时代
▁八十年代
▁贝恩
▁登革热病
▁简介
▁李在
▁中要
▁五金
▁贸易协定
▁中心站
▁悬殊
▁格莱美
▁不问
▁三氯
▁国投
▁徒刑
▁迪卡
▁各处
▁194
▁368
▁北京西
▁大户型
▁谢旭人
▁多轮
▁徐明
▁狗不理
▁裂痕
▁调查局
▁吴春
苹果
▁李小加
▁张红
▁搞清楚
▁脚手架
▁消遣
▁收礼
▁权威部门
▁石油价格
不便
▁万澳元
▁挺身而出
▁下基层
▁罚息
▁双线
▁太难
▁尚存
▁卡梅隆
▁合每股
▁贝利
▁之父
▁白头
挫
▁马赛克
▁联合利华
▁伯恩
▁项目经理
▁交运
▁这样一来
▁金凤
▁小河
资本
▁大路
▁名胜
▁新北市
交大
999
▁跃进
▁1946
▁奸
进来
▁云南大学
▁余条
▁实际操作
▁三套
不齐
▁污泥
▁英才
▁上季
▁丹佛
▁提高效率
▁正常化
▁同安
▁血本无归
畿
▁起飞前
▁旅游胜地
▁店门
▁深圳经济特区
▁陪护
诏
▁择期
▁爱意
行区
▁李德
▁十万元
▁炸开
▁照镜子
ust
▁大操大办
▁质朴
涸
▁速腾
ris
鲶
民族
▁基准线
大队
▁厘
▁递减
▁乌克兰政府
▁全明星
▁6.2%
▁延边
▁住建
▁嘉兴市
▁nasdaq
▁平遥
▁轻取
▁不值
▁圆满成功
▁几千万
▁战略目标
▁搬运工
▁操刀
新县
▁龙凤胎
▁地州
▁党政干部
炕
▁流浪者
撩
▁执行公务
▁包工头
▁摘下
▁拉长
▁放号
▁作案嫌疑
▁较之
▁日益严重
▁小金
▁滞纳金
▁李云迪
▁管教
▁喂奶
▁虚开
▁后发
▁家庭教育
▁599
▁挂满
蜇
迪亚
▁伦卡
▁汤臣
▁数学老师
▁村委
▁净土
▁往届
▁四口
▁痛经
▁中信集团
▁太古
▁六安
▁携款
▁法理
▁河马
▁碳纤维
▁细小
▁运行图
▁287
传媒
▁共产党人
▁账本
▁日游
▁有失
▁猪血
▁李志
▁早教
▁履行职责
▁彩信
▁陈东
▁日系车
▁回忆录
▁肿瘤医院
▁山城
▁埋怨
▁5.3%
▁齐齐
渺茫
▁屋子
▁高雅
▁小商品
▁重阳
皈
涞
▁海洋公园
▁en
▁突飞猛进
▁专业人才
▁去处
▁建了
▁短信息
▁金某
▁安康市
▁沉入
年来
蒂斯
▁内控
▁居住区
▁名画
▁凶器
▁870
▁海马
▁诈
▁保险费
▁二度
▁减去
▁amd
▁李东
▁棍
谑
买卖
▁文昌市
▁填海
▁城乡规划
▁许下
▁艺考
陕
▁利润分配
▁制剂
▁家数
▁样样
▁办实事
▁经济特区
臆
▁格子
▁翻天覆地
发性
▁有志
▁副科级
▁好好学习
标签
▁行政级别
▁三峡大坝
▁壮丽
▁科幻小说
▁金枪鱼
▁行贿罪
▁三连
▁防治法
▁很火
▁印第安
▁两段
▁转交
▁鱼肉
▁现正
▁富强
▁坚持不
▁本片
▁大气环境
▁发回
▁新股申购
▁操盘
▁沙井
▁换挡
距离
▁典当
▁221
▁正名
▁雪崩
▁连阳
▁纳达尔
▁救命钱
▁定额
▁活儿
▁梦之
▁渐进
▁力作
▁武广
▁湾仔
▁低碳城
▁欧文
迦
▁发胖
▁贫困生
锰
接受
▁rpg
▁工程质量
▁神庙
大雨
▁增减
▁借阅
▁机油
▁人民大学
▁杀出
▁六环
▁含糖
▁勾起
▁数百万美元
▁西蒙
▁章丘
▁司局级
▁画出
▁枪声
▁催熟
▁太平间
▁保险机构
▁姚贝娜
▁寒暑假
▁黄金档
▁信任度
▁西奥
▁倒掉
▁廉政文化
沣
▁摆放着
▁小宝
▁华文
▁围困
▁中位数
▁无反
▁267
▁太少
▁受罚
▁人受
▁戴姆勒
▁足金
▁5200
▁be
▁右转
▁亏了
▁多公斤
▁蜂窝
▁雅戈尔
▁时多
▁仰望
▁338
▁罢了
文章
▁梦境
▁浮盈
▁高精度
▁打磨
鲫
▁备选
▁如能
馥
▁灵隐寺
▁卧床
毕
▁每辆
▁税金
▁工商户
▁近半
▁计划经济
▁昂山
▁高高在上
察看
▁84%
▁出车
▁塑胶
▁拨通
▁点对点
▁昆山市
▁漂泊
▁博格
▁劳尔
▁强烈要求
▁比不上
▁饭桌
▁号令
▁9.8%
侦
▁天宇
▁日线
▁该楼
皆知
▁bt
手机
▁布里斯班
▁财经委
▁空置房
▁载入
▁推卸
▁近一年来
▁年版
▁诞下
▁嘴边
▁大夫
▁西欧
▁12.9
▁小鱼
▁圈子里
▁飞翔
▁集中营
▁团员
酬
▁难得一见
▁有所改善
▁架子
▁维奇
▁清晰可见
▁节制
▁欧洲各国
▁高难度
强度
▁定名
▁国际原油
▁构成威胁
▁识字
▁输球
▁肿胀
▁性病
▁同学聚会
▁湖南永州
▁批发商
汐
▁保代
發
▁体谅
▁头名
▁梯子
▁北京公交
▁标有
▁向北
▁礼拜
▁下列
▁大英
▁观察者
▁1280
▁洗洗
▁不大可能
▁上用
▁膨
俐
小学
▁鸡毛
▁306
▁smart
▁人命
▁依附
百出
▁游历
▁该批
▁显现出
▁温床
▁湖南人
▁不比
▁电压
▁土方
▁两旁
▁0.57%
▁正中
▁高桥
▁征途
▁挥之不去
人情
▁进退
▁实务
▁第一台
▁忍无可忍
▁埃德
▁伊万诺维奇
▁内河
▁刻有
▁交流中心
攫
▁5.9%
▁395
▁制造者
▁内含
▁日数
▁中通
▁商业广告
▁牲畜
▁后置
▁黑河
▁五级
▁钢铁集团
▁13.8
▁断崖
▁跌到
▁内情
▁专为
▁有病
▁10.7
▁救生衣
▁渡过
▁土星
▁消化系统
▁乡下
实力
▁特大型
▁13000
▁人人平等
▁绩
▁身世
▁防火墙
▁倾力
▁举证
▁世家
▁原产地
▁生态建设
▁互殴
▁石景山
▁投请
▁670
▁319
▁穆罕默德
▁铁链
▁土特产
▁破局
▁郎咸平
▁机遇期
▁309
▁文化厅
为快
▁服装店
▁市人
▁申请材料
▁古迹
▁母鸡
▁小龙女
▁自居
▁恼
▁金银花
▁瓷砖
▁闲着
▁升华
▁慌乱
▁爷们
▁种种原因
▁第五代
▁劳动法
邺
▁1620
▁廊
大哭
歌手
▁信访局
▁充分认识
▁slf
▁1350
▁登门
三人
▁医学专家
▁副科长
▁多维
▁吴哥
▁演艺圈
▁歌唱家
▁排气
▁增雨
▁发帖人
▁舒缓
▁阿勒泰
▁敲打
▁吉林大学
▁汽水
▁东街
▁参差不齐
▁寒假作业
▁纯金
▁瑞昌
市区
▁恒生指数
▁科协
▁相间
▁新址
▁炼厂
▁打探
▁青羊
▁印度政府
▁安德森
营收
▁中荣
▁市场潜力
▁卡巴
▁积极支持
▁清空
▁哭诉
▁曲面
▁推波助
飚
▁附件
▁朝鲜战争
▁法律效力
▁竹岛
▁河南省政府
▁明察暗访
▁背书
▁摩天
股票
▁联队
▁候机
▁手提包
等级
合一
▁贪污腐败
▁绝技
▁珠宝店
▁小步
工大
▁口粮
蕊
沒
▁小资
▁每每
▁自立
▁不舍
▁怀上
▁浩浩
▁华兴
▁283
▁北京市教委
▁城里人
▁维基百科
▁水族馆
▁广为人知
粟
▁胃部
▁男女比例
▁网络红人
▁控股权
▁脏器
▁问道
▁全面实现
▁涛
▁296
涅狄
▁打赌
▁4300
▁水杯
▁陈冠希
▁欢笑
▁巴里
福德
anc
▁周大福
▁赖昌星
▁ir
▁好几年
▁冰激凌
▁往上
▁春雨
▁水肿
▁家电企业
▁安眠药
▁储蓄卡
▁雅各布
▁广元市
▁小文
▁结实
▁传感
▁修车
▁睡衣
▁干部队伍
▁受聘
▁痛快
▁士气
▁大气层
▁投机性
▁背道而驰
▁饮水困难
▁货邮
▁受人
▁赵明
▁刹住
▁联合行动
▁电容
▁乞讨者
一号
▁供地
▁东欧
▁联考
▁科研成果
尔特
▁ver
大道
▁年利率
▁690
▁喝一杯
▁泛亚
▁闪光
号码
▁一览
▁巴西人
硬化
▁为本
皇帝
▁佳缘
▁入住率
▁议论纷纷
▁周密
加工
喧哗
▁监事
▁798
▁交际
▁聊天记录
▁惠氏
▁林俊
大臣
莞
▁漫威
▁韩国三星
▁正月初一
▁为难
团体
▁1.65
▁花旗集团
▁南屏
▁毒瘤
▁一程
▁第一支
▁雄厚
▁封堵
▁韩国国防部
榜首
▁双龙
▁hu
▁山峰
湘晨报
▁长者
ech
▁金饰
▁工作力度
▁荒废
▁揽客
▁热火朝天
▁人工成本
▁502
▁李金
▁盖洛普
▁多加
▁黄树贤
▁受托
▁招人
▁钱塘江
▁字条
▁脚踏
▁转变成
▁达州市
▁完结
▁因有
▁暑运
▁驾驶者
▁1.35
▁能手
▁紧急状态
▁符合要求
百货
・
▁一拨
▁日益增长
鹳
▁知青
梢
▁昆明机场
▁建筑群
▁玩起
▁罗伯
▁盈余
▁深发展
▁射程
▁374
▁无风险
▁对朝
▁gsk
▁清正
▁领导集体
▁财产权
▁八十
▁百般
ms
公主
▁衣食住行
▁门禁
▁重庆火锅
▁产业资本
▁赔偿款
▁永城
▁弃权
大厦
药业
▁优生
▁另辟
系数
▁完税
▁山火
▁长阳
▁袋装
疮
▁董某
▁蒋某
▁以次充好
▁分赴
▁今生
菁
▁商务活动
▁汇通
▁吃法
▁吸取教训
▁血肉
▁美人鱼
▁重大损失
▁软弱
▁分道
郭
▁卢克
自在
底下
▁小家电
▁疫病
▁陈毅
▁挡不住
▁不知去向
▁着迷
▁王峰
小微
▁聚居
▁颁布实施
沅
▁透水
▁核载
▁地产界
▁特高压
▁玉龙雪山
▁扮成
▁光明日报
茗
▁兴衰
品质
▁深远影响
▁文保
▁收纳
经费
▁湛
▁性早熟
▁陈吉宁
▁巴塞尔
▁串通
▁南岗区
▁出彩
▁279
▁西线
▁阐明
▁南区
▁众议员
▁广州市公安局
▁泰达
瑛
▁六条
▁掏空
▁管理司
▁全自动
▁操心
▁三胞胎
▁河北省委
电器
▁章泽天
▁先知
▁用油
▁出招
▁万豪
▁the
▁会商
▁229
▁卫东
▁型飞机
▁崩
▁可笑
乐视
▁宝典
▁先发
摄
▁换算
▁晋城
▁概股
▁感应器
▁建投
▁两万多
▁补交
▁三餐
▁深刻印象
▁开封市
▁中越
▁压住
▁包容性
▁开发新
▁班列
▁名山
▁达标率
▁屠宰场
▁做文章
▁大车
▁大半个
▁指标体系
▁私利
▁半路
▁科技进步
▁抢注
▁豆油
▁普通家庭
▁10.2
▁投币
陵区
▁服务设施
ane
▁医疗纠纷
▁胸怀
▁婚房
▁网将
不治
▁运回
▁戒毒所
▁防城港
▁巨蟹座
▁万州
▁何必
有为
▁云层
▁超员
懵
▁养猪场
▁常德市
▁低保户
▁埋葬
▁体坛
▁因车祸
▁时下
▁日才
▁保加利亚
▁可口可乐公司
▁抗衰老
▁淫乱
▁暴风雨
▁独栋
▁露露
▁共商
▁11000
婧
▁时效
▁凤凰县
▁摆渡
▁制衡
▁西向东
▁品格
▁面目
▁户均
▁使者
▁次级
▁首都国际机场
▁感想
▁仰卧起坐
▁再婚
▁大出血
▁鱼虾
▁舒适度
▁哥本哈根
▁其称
▁叹息
伊斯
▁9.1%
▁调至
彩票
▁5700
▁凝聚力
凸
▁舞者
时刻
百姓
▁盘古
▁非国家
▁四次会议
▁积极主动
▁断言
▁连降
▁换言之
▁大豆油
▁利用职权
▁丧葬
▁两区
▁302
▁中北部
▁难以承受
▁假肢
▁冲进
▁253
▁瑞金
▁劳模
携
▁答谢
▁听过
等于
▁包房
▁278
▁供过于求
部位
▁砍伐
▁特种部队
▁血清
▁莫属
▁先行者
▁赔偿损失
▁李健熙
▁付诸
▁三到
▁398
▁交响
▁糊涂
▁登机口
▁贩卖毒品
▁揭阳市
▁零六个
▁伤感
▁世纪末
▁更易
▁媒体广告
▁几人
▁4.4%
▁戏码
▁基金法
▁护卫
▁剧团
纤维
▁宽阔
ove
▁自助游
▁碳税
鳍
▁滋补
▁不吃不喝
▁河池
▁纯天然
恍
▁部份
▁地势
▁940
▁盘锦
▁事件调查
▁元及
▁老东家
▁新帅
▁中世纪
▁阿波罗
▁肆无忌
▁10.9%
▁放风
▁支队长
▁拥有者
▁谁家
▁惊动
▁微波
▁决胜
▁输电
▁小鼠
脓
▁详细信息
廉洁
▁该处
▁姜洋
▁宽裕
▁晴朗
▁一窝
▁春暖花开
▁剪掉
▁小吃店
▁264
花一现
▁知乎
居住
▁过个
▁亲朋
▁商旅
▁限值
▁测验
▁绿色食品
▁金三角
之于
▁曹国伟
▁千瓦时
▁下潜
▁奥克兰
展览
.67%
▁飞驰
▁表演艺术家
高潮
▁无法忍受
▁项目组
▁双面
▁小野
杭
▁廊桥
▁施展
▁缘故
之交
▁cnnic
▁双眼皮
▁618
▁指示牌
▁药材
▁助残
▁排成
▁dc
同胞
▁领地
▁广州白云机场
▁数千万元
▁冒牌
▁政纪处分
▁数十万元
▁阿曼
峥
▁目标价
▁肇事车
▁利民
▁休眠
▁脑中
▁退换货
▁推盘
▁朝圣
▁丹羽
▁因私
▁软组织
▁城关
▁告白
▁不断加强
▁掀翻
▁有所提高
消费
▁销售点
▁镇定
▁安全软件
▁12.7
▁陈刚
讲座
▁湖区
▁快速反应
▁舞台剧
▁捧场
▁突显
▁顺义区
▁284
▁西华
▁价齐
一场
▁套路
▁王丽
▁合唱团
▁求情
▁下届
▁赫尔
▁美发
▁元件
▁译者
邳
之计
▁德勤
▁窗台
▁洪山区
▁眼镜蛇
▁关键问题
▁数据业务
▁直视
▁教育界
▁四座
▁公寓楼
▁几下
▁拍手
▁令人惊叹
▁射手座
▁金发
▁音讯
摁
▁聚在一起
▁为防
▁张庆
▁张新
▁雷暴
▁猎云网
▁1150
▁辞任
▁自驾车
▁pad
▁韩元
▁工时
▁之光
▁唱空
▁卡地亚
▁中国证券业协会
▁柱子
▁335
模范
▁青岛港
▁弥勒
▁美术学院
▁飞人
▁奥林巴斯
▁莱昂纳多
▁华安
▁当好
▁中企
▁拨号
▁阿桑奇
▁张新明
▁净水器
▁职业化
▁红树林
▁障碍物
▁复课
▁mot
▁骗术
▁永清
▁wh
▁想不通
▁专项基金
▁根深蒂固
▁五官
▁柯南
▁南昌县
▁可燃
▁大学本科
▁编办
▁神九
▁隐约
▁经营场所
▁公信
▁嫁接
惦
▁泳装
▁终身制
▁平衡点
▁鄂尔多斯市
▁两样
成果
▁贝卢斯科尼
▁1.45
▁奋斗目标
▁香料
▁鹤岗
▁rfid
▁重见
▁一拖
▁看管
▁10.5%
▁竭力
▁绍
拘
▁猛料
▁破题
▁美国有线电视新闻网
▁诉苦
▁证照
▁4900
▁可否
▁温水
▁管理所
▁布鞋
▁西山区
▁萧山区
▁传球
▁威斯
▁陕西省委
▁10.3
▁不止一次
▁勇救
▁一条龙
▁加班加点
▁到此一游
▁即日
▁女医生
▁大张
▁密歇根
政治
▁钢笔
▁看台
▁苏某
病人
蘸
▁荷尔蒙
▁第一种
趸
▁十几分钟
▁马来
▁玩偶
▁车号牌
▁沙坪坝
▁灌装
▁西博会
▁有空
▁央票
▁军警
▁燕麦
po
▁元后
▁中国男足
▁习以为常
▁人民法庭
▁宋某
▁该起
▁放纵
▁破土
工作者
▁印度人
▁宋庆龄
▁村内
▁尼加拉瓜
▁北京国安
▁希望工程
靳
▁药师
▁夺命
剽
▁永和
▁很差
▁时值
▁优势互补
淮
▁期许
▁珍品
▁卓尔
▁国际惯例
▁渔港
▁跨平台
▁落款
▁公司法
▁房里
▁arm
▁冯某
▁长裙
▁因果关系
▁要害
▁大不
▁多收
▁坏习惯
▁中秋佳节
oe
ich
▁阵亡
▁北京军区
▁每件
▁把脉
工商
▁15.5
▁银子
▁早市
▁计算机科学
▁海鑫
▁能源安全
▁第二条
▁亿张
▁后退
预测
▁天大
重重
▁阻塞
▁黄浦
▁复仇
▁注视
▁大发
▁不可逆转
▁鸡西市
▁四星级
纾
驱动
沃斯
▁大温
▁张默
衷
▁贡献奖
▁侦
文物
▁前科
▁乳清
▁第十八次
▁巡展
▁留心
▁秀美
▁母乳喂养
▁域
瑰
▁年产量
▁简便
▁宠爱
▁场站
▁中心组
▁更会
▁霍华德
▁柜子
▁巴掌
▁同济
▁各项改革
▁不为
▁幸福生活
▁克罗斯
▁大水
▁驾驶座
效果
▁王宝
▁彼时
▁贿
▁商标法
▁轻微伤
▁外侧
▁满头
▁阿德
▁毒死
▁科学依据
▁记录下来
▁三区
▁排球
▁三路
▁楼板
▁归国
▁留着
▁城市形象
▁不强
▁黑窝点
▁高级法院
▁耐人寻味
削
▁0.05%
▁亿平方米
▁水瓶座
▁石油化工
▁热气
▁啤酒瓶
▁竟成
▁七家
▁水城
▁摇滚乐
▁纽约证券交易所
▁50000
▁撞飞
▁猫头鹰
▁回忆起
▁82%
▁防暑降温
▁全聚德
▁政泉
▁学术研究
▁库区
▁发明家
▁回迁
▁日月
▁最起码
▁迫害
▁路遇
▁欧洲人
▁下半身
▁功劳
▁模具
▁女主
▁咬掉
▁张小
▁远超过
▁三湘
▁成就感
▁北大荒
▁江油
ond
▁一院
▁辨
▁百发
▁省里
▁宜春市
尔森
▁无毒
▁西汉姆
▁工商所
▁就是说
▁美赞臣
▁字形
▁劳力
▁坠落在
▁延寿县
▁格斗
▁题词
▁毕福剑
▁那名
▁树干
舅舅
▁独创
▁开起
▁保障制度
得上
▁单手
▁几成
▁抓捕归案
▁泽熙
▁擦边球
▁图上
踏
本科
▁生育能力
▁全力支持
▁脑海中
呷
▁伸缩
▁摩登
▁who
▁墨水
點
▁251
▁反常
▁王明
莱克
呦
▁该软件
愕
▁共分
▁普通员工
▁各条
▁新装
▁数据量
▁固态
貂
▁这般
▁塘村
▁雷声
▁游资
▁大程度
▁姚刚
▁私营企业
▁园艺
▁弱冷空气
▁强卫
▁战备
▁补齐
▁入秋
▁郑先生
法西斯战争
懊
▁将分
▁永州市
▁老李
▁清仓
▁野马
▁展期
▁特略
▁小哥
▁文学作品
记录
▁班子成员
▁周伟思
▁神十
▁pro
▁点将
▁三市
▁近似
了个
▁仿古
▁汽修
▁有如
轶
恼
▁深入探讨
▁甜头
▁数百家
▁品鉴
▁停航
▁广安市
▁脱发
▁长庆
▁山东省政府
▁展开讨论
▁数分钟
▁彩绘
▁库尔德
▁spa
▁16.5
▁白羊座
▁远景
▁0.13
▁住房问题
▁wlan
▁冬虫夏草
▁女作家
▁当起
▁任何理由
▁因故
▁否
▁on
袒
▁膜拜
▁打乱
▁教学点
▁首笔
▁运钞车
学奖
速运
▁主裁
▁集美
▁远不止
▁抢购一空
尔顿
ann
▁万事达
▁冻死
▁作画
▁加盟店
▁擦肩而过
▁国际博览
臧
外乎
▁光源
▁准备就绪
▁划片
主义者
▁福林
▁水温
▁现住
▁佳作
▁洁净
▁中央纪律检查委员会
▁此款
莽
▁算得
▁后裔
▁层高
▁评卷
▁升旗仪式
▁中国航天科技
▁司法程序
▁分不清
▁降压
▁利滚利
▁战略部署
▁洞口
▁助人
▁光速
▁常吃
▁养胃
▁中国国民党
▁逼婚
▁滋养
▁选派
▁红茶
▁商都
目结舌
▁比照
▁丹尼斯
▁管得
▁毅力
阉
▁青藏高原
▁药厂
▁不遗余力
▁第一座
▁分房
▁明文规定
公堂
▁盛赞
衣服
▁刘洪
▁反对党
▁狂风
▁天亮
拮
步枪
▁陈发树
▁四分之三
萝卜
▁引力
▁非常低
▁斯坦福
▁猪八戒
▁华晨
▁劫持人质
▁国电
▁满足用户
▁皮尔洛
▁歇业
▁副本
▁冲到
▁333
▁寄给
▁安达
▁吹风
▁股改
▁赞助费
▁尔特
▁父亲节
▁赤脚
▁墓志
▁十多名
▁气囊
▁千金
▁哭声
▁头寸
▁临街
▁酿造
▁健在
▁香甜
▁金泰
▁博得
▁让你在
▁华联
▁勘
▁法拉
▁服贸
▁神农
▁操作失误
▁三水
偕
▁转板
▁人死
▁城关镇
.96%
▁钟楼
▁捕杀
ty
▁花白
国会
▁风雪
▁室主任
丽君
▁花香
▁袭击者
▁不切实际
▁干流
▁试着
▁兴旺
▁符合中国
▁少许
▁祥云
▁所售
▁案件线索
▁被查获
叱咤
▁行动不便
▁阿朗
▁王金平
▁阿迪
▁资中县
▁一拳
▁江面
斯科
▁积淀
▁图谱
手续
卫平
▁不值钱
▁289
砰
▁封信
▁一株
▁两极
▁天文台
▁亚健康
艺人
▁椅
▁冬泳
▁催促
▁共谋
▁上牌
德曼
▁丽都
▁极富
▁洁白
▁严守
▁解放路
▁天虹
▁液晶电视
line
▁私用
▁奢望
▁养颜
灿灿
▁隐含
▁you
▁一百年
▁交手
▁暴力犯罪
▁摘牌
▁画卷
▁时代周刊
基本
▁身兼
▁靠前
▁调用
▁焦化
▁飞过
▁引起争议
▁上下学
▁大理石
▁工资待遇
▁申根
▁9500
▁万岁
▁出口商
▁轮值
▁连接线
▁大包
▁广大读者
▁艳红
▁建筑工程
▁新安县
▁注射液
哀
▁五六年
▁克劳
▁预备役
实际
▁申报材料
▁术语
▁小孙
▁1938
▁真币
▁难免会
▁自筹
▁抚恤金
▁转换成
▁0.07
▁个人消费
▁李勇
▁会因
▁特辑
▁三观
▁已向
▁花光
ony
▁有声
▁天梯
▁勿忘
▁月季
▁建模
▁到校
ice
▁穿山甲
▁物料
▁货值
▁苏南
盆地
▁鄂州
▁主任科员
▁高层建筑
▁国务院新闻办
▁副大队长
▁食品工业
▁新鲜空气
▁脱逃
▁器件
▁高寒
▁单亲
灵顿
▁共存
.06%
▁听课
▁毒物
增强
▁最潮
▁装在
▁肢解
▁酷热
双方
▁浓雾
发科
▁益智
▁通过率
▁0000
▁老少
▁发布厅
▁一亩
▁健力宝
▁夹击
憩
▁讨论会
▁加点
愧疚
▁押运
〔
埃尔
▁未达
▁近几日
▁补血
400
▁待售
▁0.18
▁0.29
▁某位
▁专用车
▁减仓
▁一如
▁鸟儿
▁案发时
▁显卡
▁据美
▁257
▁秘方
▁神坛
幸福
▁突遭
▁有形
▁居室
流失
▁横穿
▁那次
▁英俊
剩
▁两三天
▁澡
▁微跌
▁纽约大学
▁武当山
▁至多
▁基隆
▁晓得
▁开票
▁不听话
▁填埋
▁事权
▁售房
▁五指
▁哈德
▁增补
▁突发性
▁tom
▁击退
▁老夫妻
幸免
▁几十亿
剐
▁加载
▁开火
▁脸红
▁重庆市公安局
▁加速器
莫及
注意
▁靖边
▁合格证
▁重婚
▁多措
▁接棒
而复
▁广告业务
ood
▁敬献
▁两期
▁开放型
▁元芳
志愿
▁扮演者
忻
▁古玩
▁送走
▁已跌
350
▁乌兹别克斯坦
出口
硅
▁中巴车
▁工序
仨
▁中国农业大学
▁想念
▁自私
党校
▁早日康复
▁剑桥大学
▁鸡汤
▁培育出
▁报告厅
诛
ars
▁抢占市场
▁9.6%
▁华融
▁新一波
▁退伍军人
▁新援
▁聚光灯
夸
▁同类产品
▁上座率
▁后继
▁游学
▁厄尔尼诺
▁徒弟
▁病种
▁庆生
▁身段
▁鹏飞
▁自习室
▁放人
▁小孔
▁关头
▁奥斯陆
#
▁春华
▁送货上门
▁元旦假期
▁飞车
▁不进
▁实况
▁市中区
▁村长
▁核反应堆
▁天灾
▁提货
▁检察工作
▁两国政府
▁油墨
▁集采
▁东江
溥
▁请教
▁黑夜
▁常温
▁大件
▁煤炭市场
绮
▁女性朋友
▁涉密
▁周文
▁古都
▁悄悄地
▁假酒
▁法国队
▁领土完整
▁二七区
▁渔村
▁作业本
▁小楼
▁象征性
源市
▁天龙
▁界线
▁eos
▁紧身
▁欢快
▁具备条件
▁委会
▁矿难
岌岌
▁小年
▁柯文
162
▁征用
▁袖珍
▁集体婚礼
▁小学老师
len
▁保障法
▁自然界
▁山下
▁酸痛
▁秘书处
▁试验田
▁打劫
▁冰面
▁活在
▁补休
▁一单
▁改变命运
尔夫
▁重大意义
▁叶片
ew
▁经济纠纷
▁钢铁公司
▁市场规律
特尔
▁主动权
▁晚睡
▁地坛
▁勇夺
▁并肩
▁堪萨斯
res
▁督
▁全然
▁长期保持
▁大学校长
▁主干
▁重大事件
▁天心区
▁华为公司
▁上海通用
▁进村
▁何为
▁两者之间
▁紧随
▁工资条
▁直行
〕
▁可免
▁二十余
▁广播公司
▁第二产业
▁极好
▁净营
▁摩拳擦掌
▁转暖
不忘
▁佩兰
▁波幅
▁几项
▁bug
▁欠条
▁财务顾问
▁安危
▁梅里
很大
勐
▁开窗
▁复工
▁一枪
▁1912
▁此文
▁1.75
▁灯火
▁灭蚊
▁升格
▁拔出
▁雷德
▁安然
▁温州人
▁华锐
▁台币
▁绿皮
▁酒席
▁甲基
▁局级
▁后来者
▁部党组
▁品德
▁9.9%
▁布兰特
▁样机
▁免责
▁娱
▁条件成熟
▁全面提高
▁流鼻血
▁科维托娃
▁提车
▁新动向
▁不倒
之力
▁241
▁确为
▁双雄
▁艾米
▁sars
▁观展
▁这处
▁第一副
▁数学家
恢
▁职务侵占
▁南坪
▁总重
▁听信
现实
▁断货
▁两亿
▁自备
▁稳住
▁套牢
▁科技领域
▁球鞋
▁应用领域
特点
▁通用电气
增长
▁合金
▁付出代价
▁高效率
▁长安区
就是
▁股票代码
▁纷繁
然而止
缉
▁甚远
▁文艺演出
贪
▁男同学
▁严重破坏
▁不输
▁内政部长
▁油气田
▁东北网
▁空空
晓东
▁13.6
▁张维迎
▁省人
▁肺结核
▁12.6
▁八条
▁砍断
流量
▁沃克
▁语言文字
▁张图
配置
▁定位系统
▁之快
▁续签
▁佛法
▁回笼资金
▁自上而下
▁餐后
姊
▁十多天
▁抚州
▁辅道
▁单单
▁购房款
▁停贷
▁贵重
落实
▁近九成
金属
▁家常便饭
▁李连杰
▁铺轨
▁致残
▁政务司
▁第二步
▁够用
▁基准价
宵
▁度假胜地
▁多以
▁灯笼
▁群星
▁小到中雨
▁起舞
▁才刚
蓄
▁雨润
age
▁帕尔
▁猪圈
▁脱水
▁精良
▁甜食
▁生物钟
可危
▁七夕节
▁母猪
▁非常适合
都区
▁追忆
▁从明年起
▁名流
▁移植手术
oss
▁福冈
▁理所当然
▁统招
▁地头
▁交管
▁一家独大
▁拆开
千金
学军
▁纱布
▁抢通
▁亦可
▁公安消防
▁李小龙
架次
▁被窝
瘟
▁伊利诺伊
▁夫妇俩
蹴
▁里边
▁解放碑
▁建厂
▁特拉福德
之多
▁8800
▁发明者
▁病患者
▁群租
▁字号
▁配套改革
▁调查队
edia
▁关键字
▁靠边
▁正职
德拉
▁oled
▁李丽
交流
▁永乐
▁上诉人
▁疏松
▁人员名单
滔
▁滑翔
▁本行
▁宣传部门
he
▁越冬
▁预知
▁一有
▁土木工程
▁试用期
▁迈上
▁金牛区
▁别以为
▁马修
痣
▁曼奇尼
▁小组讨论
▁聪
▁交通系统
▁黄牛党
▁径直
▁千家万户
▁固网
▁刷机
▁克扣
▁战果
▁端掉
▁民风
▁真实写照
▁李兆
榻
▁宽广
▁活期
▁代收
▁苗族
▁香河
▁换发
▁周滨
▁boss
2.0
▁诉诸
▁致病性
▁前世
▁涨跌互现
▁原点
▁威武
▁托市
▁水母
▁胡须
▁篮子
▁408
凋
懈怠
▁买点
▁分一杯
▁寓所
▁票数
▁周喜军
▁忍痛
▁拉票
▁已派
▁美图
▁周润发
缄
▁批号
▁升势
▁拥军
▁民主化
▁四星
▁尖刀
▁三九
▁药监
▁引资
▁居所
▁辛酸
林业
▁前列腺癌
▁麻袋
▁狂人
▁深信
▁法警
▁意外险
▁相互尊重
▁理工类
▁遵从
▁宝兴
▁ds
▁发案
▁转达
论文
▁dr
▁可视
▁sam
▁化学反应
▁大中华
▁牛羊
▁336
▁可靠消息
▁推向市场
▁霍奇森
▁板桥
▁爱丁堡
▁猎物
▁四川人
▁班里
▁来之不易
▁只求
▁一视同仁
▁感触
▁长篇小说
▁电解铝
▁通通
▁采取相应
▁病史
▁328
▁个人收入
▁公务员法
▁奥组委
▁模块化
▁销路
▁飞舞
▁荷兰队
▁骚动
▁转场
▁主义者
▁磨合期
▁电池板
▁铁路网
▁直立
▁工艺美术
▁南广
▁守信
▁爱狗
▁被调查者
▁价格便宜
▁小平
▁驻外
歌曲
▁测出
▁中共中央办公厅
布尔
▁卡夫
▁对党
▁技术含量
▁查房
▁俄军
▁后视镜
▁新课
拂
▁村口
▁王玉
▁春雷
▁亿条
▁玉龙
▁590
▁精神病院
▁签约率
▁划设
▁一体机
▁年老
▁逊
▁千个
▁暗杀
▁合生元
趵
▁张辉
▁先于
尹蔚
▁择优
▁5.1%
▁保荐人
▁回家途中
▁分阶段
喆
▁冠状病毒
▁一个半月
唉
▁巴哈马
▁凉皮
▁成倍
▁后轮
▁救命稻草
▁欠缴
▁水生
▁迪信通
北县
▁候补委员
▁边境地区
▁830
碉
▁上合
▁打猎
▁79%
▁大项
▁音视频
▁脚踏实地
▁伟人
▁枪械
▁九龙坡
▁比较突出
▁装甲车
▁方舟
▁而应
▁输家
▁中诚信
当当
▁端口
叩
▁美国联邦政府
三角洲
▁388
▁蔡某
▁重点保护
▁此言
▁几步
▁公婆
▁具体实施
▁秘密武器
▁八宝山
▁二十多年
▁合作意向
▁脑震荡
塞尔
▁道菜
▁副局级
▁南美洲
▁大饼
▁诉讼法
▁总有一天
自治州
▁居留权
▁刻苦
▁选在
▁保护法
▁金水区
用车
▁徐守盛
职侵权
▁换股
▁教皇
续续
前进
▁引桥
交往
▁确系
▁都灵
▁陈明
▁博彩业
▁全国妇联
▁该馆
魔化
▁长实
▁奥斯卡奖
▁借出
▁提出抗议
▁关东
▁全国联网
▁小官
厕所
▁子虚乌有
得好
▁未办理
▁不见得
▁没电
此以
ens
▁fc
▁杭州湾
斜
▁linux
▁叹为观止
▁宣传语
▁反制
▁李姓
▁推着
自拔
▁户口本
▁镇压
▁相通
色彩
▁挂断
▁看清楚
▁化工企业
财产
▁名宿
▁同行业
▁小弟
▁面谈
▁营业网点
▁追究其
▁美国众议院
▁永生
▁家风
▁搬出
而就
▁火鸡
▁一束
▁莎士比亚
▁留任
▁证言
▁制定者
▁体育赛事
却
▁李涛
▁现价
▁1947
▁振动
指挥
殇
▁薄荷
▁妇女节
▁张国荣
▁爆炸性
▁父爱
注册
▁李铁
▁亚力
▁渗漏
▁庭上
酌
▁取钱
▁全港
▁杂乱
▁心理专家
▁病毒灵
▁一点儿
▁小区业主
供应
▁混合型
一切
▁数学题
▁诉讼案
破烂
▁对得起
▁郭先生
▁公司公告
▁孕期
▁春熙路
▁重要途径
▁哈士奇
▁思想家
▁天马
▁居民小区
▁换人
▁舍弃
▁跪拜
口水
▁专属经济区
▁花儿
▁斯蒂芬
▁五颜六色
▁原原
▁脱钩
▁四面
罗德
▁采血
▁指日可待
▁专利技术
▁1.55
▁囚
▁向日
▁满洲
▁炫酷
▁物业费
▁占股
▁广东省公安厅
▁混改
▁远见
翩翩
懿
▁厕纸
▁金子
▁工业用地
▁回吐
工业协会
▁非裔
▁裸泳
▁马拉多纳
▁市人大
▁举个
▁回想
▁眼见
▁交易成本
▁胡椒
▁游离
广网
▁正科级
▁胜地
▁怪事
战士
▁调水
▁网等
▁黎巴嫩
▁学士学位
▁白开水
▁说完
▁送餐
▁首善
▁概况
▁违规操作
▁这两项
▁套型
▁大秀
▁马里奥
遁
璃
▁牛郎
▁1944
▁第四天
▁超负荷
▁深表
定位
▁om
▁仅以
▁代写
▁胜者
▁执行局
▁越境
▁接线
▁驶来
▁凯利
▁千多
▁支取
▁依存度
▁动弹不得
▁木耳
▁1.12
▁影坛
▁示人
▁zh
▁开唱
▁出书
▁沿边
掳
▁增利
▁芝士
▁仅存
▁老两口
▁从头
▁干掉
▁永兴
▁减法
经营者
▁netflix
▁面向未来
▁战时
▁专题研究
佘
▁报关
▁微量
▁361
▁密歇根州
▁白恩培
字母
▁扑克牌
志强
▁扩至
▁三七
▁首季
▁跌停板
▁富贵
▁非常简单
▁砸坏
▁那句
▁玻利维亚
▁拉萨市
▁捡回
▁电改
▁水陆
▁张力
▁何况
▁新闻处
▁横渡
▁集散地
▁徐闻
▁4.8%
▁皮蛋
▁海润
▁非营利性
▁南郊
▁翻阅
▁翻滚
▁丹霞
▁共生
▁与非
▁实证
▁数十位
▁常在
▁甲壳虫
▁主要矛盾
▁国家广电总局
▁相助
▁郭玉驰
▁架起
▁利川
▁色情网站
▁军装
▁预亏
▁虚伪
航空航天大学
▁列队
▁记者证
▁公平性
▁另一只
▁观众们
▁大唐电信
▁拉响
▁创富
▁优厚
▁大奖赛
▁灾
▁双目
▁整栋
▁流下
地板
▁可喜
▁极佳
▁提供者
▁抗癌药
成员
▁离合
铤
而走险
▁三好
▁误伤
▁and
▁红白
▁帕金森
▁中英文
不少
▁未免
si
▁家村
▁天气炎热
▁佳品
▁对症
▁兰亭集
▁民俗文化
▁锁住
几天
▁384
▁做作业
▁总干事
▁支气管
资讯
▁降血
▁全院
▁东方航空
▁这根
平台
▁已为
▁文莱
▁需向
▁收银员
▁扬子
▁最强音
▁本性
▁静安区
▁斯特林
▁默默地
▁群雄
▁翻墙
▁说白了
▁黑中介
▁竹子
▁学妹
▁冠心病
▁宅地
▁汉莎
呈
▁刘德
▁乘船
▁电磁辐射
▁看病贵
▁解惑
创新
▁冷汗
奄奄
▁初试
▁iwatch
▁看海
▁摄影展
酿
▁学时
▁提神
▁肇
▁充满活力
▁目不
▁保底
▁千万级
▁三明治
▁制度性
▁蓝港
▁国华
▁甘心
cr
▁平坦
▁舰载机
▁夜幕
▁烟尘
▁自认
▁能以
▁黄昏
▁熊熊
热带
▁变性人
▁杰西
▁复建
▁金曲
ost
▁奋
▁曾称
▁市府
▁三支
▁cg
▁优秀学生
▁三处
▁加工业
▁逐步推进
▁中均
▁含糊
hone
▁文稿
昱
▁天龙八部
▁难言
盆友
▁中曾
▁bu
▁太仓
▁张平
琛
▁多支
▁普遍性
▁高邮
▁复线
▁神志
华路
▁修法
梧桐
▁易政勇
▁无端
▁对小微
▁赶不上
军人
▁排长队
▁几十万元
▁真切
▁进修
▁疾驰
▁获最佳
▁不无关系
▁租期
▁金项链
▁强风
▁王传福
▁位数
▁心有余
▁社会效益
▁任内
▁晋江市
▁压根
▁死死
▁饥渴
▁四号
▁下半
▁钟声
含量
▁天池
▁果树
▁基辛格
刺激
▁溢出
▁泰富
▁声波
▁归结
一笑
▁民航业
▁射线
▁燕京
▁一品
▁乳癌
▁诸葛
▁吐血
獎
▁装扮成
各异
▁读物
▁排头兵
信用
▁草拟
▁婚姻关系
原料
一息
▁西兰花
▁国家信息中心
▁1930
▁书城
赝
▁停战
▁几秒
▁美国广播公司
▁收成
两天
▁泪流满面
▁渐入
▁贸易逆差
黃
▁香洲
▁流连
▁复方
谐
▁一集
▁业务流程
▁窗玻璃
▁半身
▁山脚下
▁改口
▁稳中有升
▁tech
▁人口数量
▁华强北
▁转盘
▁适航
▁滴水
▁劳动密集型
▁酒泉卫星发射中心
▁信息量
口区
▁辛辣
▁凉快
▁景山
▁杰作
▁猎枪
▁论断
▁获取信息
▁会泽县
▁股票价格
▁逐步提高
▁布拉格
▁安东
▁容积率
▁股通
▁专利费
▁届满
▁传入
▁社会关系
▁团组
▁慈善会
▁减重
锄
▁净额
球队
▁压倒性
▁代表处
▁资历
▁进口国
▁省际
体会
▁人质事件
▁安德烈
▁广等
▁微商
▁自由选择
▁恐将
▁269
▁暖意
▁张峰
▁会计准则
▁孔卡
▁建议书
家协会
▁推升
▁担架
▁受惊
以后
▁北京动物园
▁生存环境
▁全票
▁王中军
▁再来
▁汉庭
▁合同纠纷
▁安逸
▁空手
▁附加值
瞌
▁百余人
▁防震
▁桥头堡
咩
▁上吊自杀
堪
▁0.24
▁imax
淞
▁个区
▁16000
▁手拉手
▁三档
隍
▁陪陪
渚
▁康宁
垃圾
▁鞋底
ina
▁行销
铮
▁学长
▁直到现在
▁未经许可
▁赵正永
▁安稳
▁敢不敢
▁本校
▁上档次
憾
▁信条
▁偏弱
▁议事日程
▁武装力量
▁速冻
▁直营
▁第四期
▁第十三
▁据查
ital
美术学院
▁再出
▁心惊
▁香坊
▁素季
长江大桥
光大
▁变黑
▁行政案件
▁别墅区
▁moto
农民
▁这有
▁329
▁gsm
▁套票
▁比尔盖茨
▁二桥
▁数十亿元
▁刚果
▁张智
▁湖北省委
▁联储局
▁贺江
▁春假
▁备注
▁区域合作
▁宁国
▁黄家
▁点菜
▁别有
▁拖欠工资
▁贪图
▁10.8%
▁戏言
▁执法者
▁王金
▁南街
▁轻便
▁横滨
▁合影留念
▁经营范围
▁息差
氛围
▁宋祖英
甲酸
毂
▁养殖业
▁安全部
▁计算技术
▁易威登
▁有效证件
▁阿扎尔
▁零分
▁支流
▁全款
▁商会会长
▁系主任
▁永善县
空军
▁一命
▁涨得
挖
觊觎
▁清运
▁外号
▁专案
▁修炼
▁曲目
▁变废为宝
▁杀毒软件
自主
▁入学考试
▁第二次世界大战
▁震级
▁宝山区
白色
▁电话本
▁装上
郧
▁轻视
▁敲开
▁分贝
▁邓丽君
▁科技厅
▁非农业
▁加时
▁声势浩大
▁投运
▁热情高涨
▁青云
▁刑诉法
▁大赢家
▁棚改
▁一夫
▁豪华酒店
▁一边倒
▁统一安排
▁多远
驹
▁魏鹏远
▁叛逆
▁白鹤
▁凡事
结石
▁明显提高
▁铝合金
▁毕业证书
▁盾牌
▁浙江省委
▁分类管理
▁不难看出
▁for
▁两辆车
▁恶魔
▁联合报
▁科林
▁远古
▁说不出
▁曾几何时
▁不长
▁应用服务
佣
▁新创
▁柔和
▁陈德铭
使馆
▁中下游
▁一年四季
棣
▁行测
▁崇信
▁越来越低
▁领带
▁下设
▁减肥药
▁干部作风
▁排便
▁食道
▁转院
▁旁观者
▁艳遇
之争
鲜明
▁失地
▁从现在起
西区
▁酒仙
反思
▁免单
▁邓正加
▁厄运
▁限奶令
▁脱节
▁创业家
一体
▁环湖
时报
▁跳江
▁金湾区
▁摊派
▁阿玛尼
▁系统故障
▁畜牧业
▁第二种
▁321
▁机锋
▁参政
▁相依为命
▁刘金
▁晨光
▁工业盐
▁凯德
▁钢价
▁刘明
▁五倍
▁自残
▁老客户
藏族自治州
▁晚婚
▁拿不出
▁考查
▁西郊
▁热烈欢迎
▁变故
结论
▁出版业
周年
傅
▁李晨
▁广州某
▁2999
▁川藏
▁0.23
▁语出惊人
▁北美地区
▁高脂
▁爆款
▁王国强
▁12.8%
▁塞夫
▁炼成
▁早熟
▁知悉
▁试点县
.02%
▁lme
▁大放
辞职
▁81%
▁交易规则
▁姜大明
▁盘龙区
▁投资部
▁全数
▁玉林市
▁雄心勃勃
珑
▁cnbc
▁经济日报
▁数以
▁绝缘
按
▁运城市
▁根除
+
▁位子
▁中青宝
▁给付
璞
▁12.4%
▁埋藏
▁镇党委
▁生态农业
▁安全措施
器材
▁蓄势待发
▁重装
▁音乐家
▁市政工程
▁无意间
▁外孙
▁铅含量
▁祥鹏
▁神医
▁蜂拥而至
身亡
▁灵山
▁走亲访友
▁蔡荣生
▁独享
哎
▁通讯员
▁深深地
▁商战
▁生殖系统
▁深圳市公安局
▁垃圾袋
▁武侯区
▁看齐
▁前三季
▁纸片
▁牛肉干
▁主席台
珲
▁文化底
▁官渡区
▁封装
▁me
舅
▁采风
分校
痼
俪
▁如潮
▁几亿
▁村居
▁最新版
▁火海
▁润肺
尤
▁爆炸式
▁入列
▁超极本
▁库房
▁扩大开放
▁极了
浴露
岛素
▁城投
▁尘肺病
▁抢食
▁围住
▁老城
▁夺去
▁盟国
▁一见钟情
油田
▁暴饮暴食
ats
iii
▁米奇
钓
▁后会无期
▁使用寿命
▁离子
▁表露
▁王德
▁胶州
▁甲板
▁善举
杜马
▁厉
▁岛外
▁坚实基础
▁贝尼特
▁异样
▁大干
▁介质
▁提前退休
▁监督局
▁超凡
▁前兆
▁对美
▁抢走了
▁京藏
▁稻谷
审查
▁国际形势
▁全责
▁绿叶
▁升井
▁岁末年初
▁可得
▁花季
程度
▁让出
▁受助
袤
着急
▁中央书记处
▁节目单
而走
件事
激烈
▁定点医院
▁扬声器
▁增税
▁看准
▁举家
瘪
▁轰动一时
▁交通部长
▁受灾人口
烃
▁吹牛
以为
▁女排
▁近几天
▁特聘
▁黑芝麻
▁数据安全
▁洋洋
▁终因
殴
▁取回
▁长株
iu
▁格列
▁修身
▁随州
▁名作
▁格拉斯
▁马肉
▁鱼龙混杂
▁有三大
▁帕劳
▁三四个
▁冻得
▁5.7%
腩
▁落伍
蛊
茁
辣椒
脯
肿瘤
▁马伊
琍
▁神户
▁阿德里亚
▁洋房
inc
▁连云港市
莠
吝啬
▁遣散
▁接续
▁贸然
▁苦练
▁厌烦
▁湖里
▁李登辉
▁可换
▁端正
▁1820
▁9158
▁做主
▁活得
▁真实情况
▁电煤
▁相见
▁小斌斌
▁更替
贬不一
虔
▁资不抵债
▁特钢
▁包里
▁名嘴
▁基本国策
▁基础架构
▁消炎
▁捕食
▁不低
▁二人转
▁日式
▁那条
綫
▁五角
▁自幼
▁这三大
▁限流
▁骗钱
▁策展
▁龙王
▁传统意义
▁海龙
▁切片
恍惚
▁暂住证
▁孔明
▁花莲
▁假日办
▁遵照
▁自然村
▁大动脉
▁飘香
▁0.11
▁真是太
▁负责制
▁虎门
帝国
▁物流园区
▁大批量
▁小天
▁公鸡
▁登山者
颍
▁斤重
▁小毛
▁核酸
▁罗森
▁降魔
▁删掉
▁下属单位
▁华中农业大学
▁部下
▁退赛
▁如出一
▁马林
▁引出
▁新舟
▁铁门
▁狮身人面像
昧
▁抬起
财经大学
▁登记注册
▁民谣
▁全无
义伟
plus
▁一朝
▁驱离
現
▁薄谷
▁供电局
▁补肾
▁凯撒
▁图解
▁素不相识
▁千余名
▁出血热
▁常备
身手
▁水利建设
▁很深
贻
▁劳动新闻
▁长治市
▁间距
▁枪战
▁一览无
▁国情咨文
▁北区
▁人则
▁酒泉
不让
▁载重
▁ugc
▁大石
▁科学性
懒惰
▁听觉
▁毛笔
▁核销
▁坦率
依据
▁劝退
在心
▁帕拉
▁一触即发
▁云网
▁降生
▁毒打
▁后劲
▁点餐
▁占座
▁俄勒冈州
▁发臭
国防部
▁轴承
▁喝啤酒
▁月票
.00%
▁商务车
▁埃洛普
▁安全门
▁某市
▁倒奶
矾
▁彩云
▁境遇
▁宿州市
▁经贸关系
▁台积
▁变道
▁几无
▁苗木
▁中大奖
▁亚努
▁延展
▁野鸡大学
▁想当
▁咨询会
两人
▁小钱
▁口病
▁腐竹
▁处死
身解数
笑皆非
▁巧家
居室
▁交通流量
製
▁李若
▁磁悬浮
▁仅能
▁登高
务局
▁丰硕
▁北岸
▁永平
▁贝拉
▁南城
▁漫游费
▁浏阳河
▁退运
▁后能
▁齐达内
剪
▁结售汇
.09%
▁富余
ith
▁教育领域
▁阿拉善
▁同花顺
▁功力
▁九华山
▁指其
▁中华全国
▁成都市委
▁取车
▁磁条
▁小包
▁归属感
▁功底
捺
▁平整
▁桑塔纳
▁责任保险
▁良方
▁配电
▁发展观
▁调查小组
▁所在单位
▁娱乐节目
▁淋浴
蓝色
▁必需品
▁梅林
▁南华
▁各庄
▁特刊
▁该部
▁关岛
俘虏
▁清偿
相同
透明
▁年任
▁深得
▁gf
▁大庆市
千里
▁地雷
▁立足于
▁高晓松
▁签订合同
联合会
▁达美
▁普里
▁出道
▁职业资格
▁一石激起千层浪
萨克
▁结核病
▁叛逃
▁天时
▁方便群众
▁读研
▁时刻表
▁三批
▁无钱
▁软硬
▁发生地
▁随心
▁基药
▁余户
▁劳拉
▁去留
▁深入分析
▁11.8%
▁文化教育
▁通票
一族
▁交朋友
▁砖块
▁抗病毒
广播公司
▁每种
▁中年人
▁陌
▁公元前
▁红衣
.05%
▁名牌大学
▁切记
▁北京首都机场
▁三宗
▁九十
▁王东
叙
▁幻影
▁收低
▁人及
▁91%
▁末端
层楼
.75%
▁布里
▁驱逐出境
▁先进集体
一格
愣
▁广电局
▁作协
▁赠送给
▁管理混乱
▁中国证券监督管理委员会
▁公交线
▁酬
▁知名人士
▁6300
▁或超
饮料
突泉
▁胆子
▁颜料
▁百万美元
▁令人发指
▁两篇
▁帮派
▁家庭主妇
斯顿
▁驻美
无一
▁改头换面
▁正风肃纪
蹒跚
▁九十年代
▁试想
▁灌输
▁规划司
▁卸下
▁艳丽
▁换手率
▁排水管
▁最高院
▁冲毁
▁知己
▁暗淡
▁示爱
▁辉瑞
地址
▁结缘
▁要死
▁初级阶段
破产
▁百里
▁毕节
者协会
晨报
▁河源市
▁单间
▁商飞
▁满仓
▁区法院
▁远距离
集中
▁抚恤
▁餐费
▁贵港市
▁交通设施
▁供选择
▁赴京
▁327
▁市直机关
▁片场
▁元月
▁点起
▁我爸
▁航空工业
▁平均数
▁煤层气
▁罗布
▁窝藏
▁大运会
▁脱困
▁水手
▁俄克拉
▁古生物
▁经常性
▁仁和
▁肩负着
▁罗志
▁灭亡
犯罪
▁韩红
▁新建县
▁狱警
▁极差
▁未归
▁心慌
▁有情
▁国际刑警组织
▁魔术师
▁学好
▁陆丰市
▁精心设计
▁孙建
▁奶业
▁风清气
▁君主
▁多高
▁大年初
▁11.6%
▁消防队
▁不知所措
等国
▁一语
▁招生办
▁报出
▁头骨
▁西客站
▁低效
▁富足
▁开普
▁持卡
▁渴
▁抑
▁寄来
▁六安市
▁读过
▁输配电
▁新化县
▁sap
▁流行病学
▁政法系统
▁虚无主义
▁日喀则
▁新闻社
▁ng
御
▁王静
▁补习班
▁主粮
▁产子
▁官渡
▁养狗
▁三打
▁红糖
▁德宏
▁方形
▁类人
▁外行
▁第一印象
▁燕窝
▁厂方
▁王卫
▁343
▁先进个人
▁敌对
▁藏区
▁结汇
▁情报局
▁叫价
物价局
▁预售证
▁出勤
▁替代品
▁博雅
排水
关市
西里
▁大快
▁弱者
▁必要条件
杳
▁土库曼斯坦
▁遭绑架
▁急功近利
年级
▁打过
▁建树
▁更趋
▁分层
▁统称
▁占地约
▁每生
▁惹人
渔业
▁版税
咸
▁几千年
▁老股
▁第六个
班车
▁供需矛盾
▁10.2%
旨
▁重点县
▁药费
▁施以
▁克洛泽
▁超跌
▁508
▁监督权
▁豪言
▁低等
▁上能
▁静止
▁近现代
▁城轨
▁彩票网
▁泰坦尼克
▁生物质
▁感光
掮
▁新元
湍
▁赠品
▁静电
▁电瓶
ji
▁以权谋私
▁收藏品
▁微评
▁方兴未艾
▁海平面
▁店庆
▁崔世安
▁别错过
▁玻璃门
▁中俄
▁融洽
▁281
▁排版
▁bp
▁夫子庙
▁继母
▁财经网
▁中文系
▁奏效
▁新春佳节
▁不理
▁国家药监局
▁做强
▁用水量
▁受灾面积
▁险种
体现
咫
志明
▁亮灯
▁张元
▁518
▁试乘
▁记过处分
▁负重
▁敬请期待
▁绿洲
▁深造
▁狂犬
▁嫌疑犯
▁该桥
▁险胜
▁荷包
▁五年期
▁韩朝
▁粗心
▁应变
▁舞会
▁ips
椭
▁处女膜
翱
▁相似之处
▁茂业
灞
▁小敏
▁税法
▁气量
岱
▁红山
▁语法
▁民建
▁吃力
▁产业布局
▁咬住
▁外贸企业
▁耳目一新
▁王鹏
▁建仓
▁夹缝
▁自然环境
▁分账
▁形象工程
▁王东明
▁喀什地区
▁石灰
▁维修费
▁出栏
▁慢行
▁预设
▁驻军
▁以近
▁长江三峡
▁丢脸
za
▁大牛
▁勒死
▁纱
▁登载
▁旅业
▁最低温度
▁林木
▁拍成
▁面市
▁公路局
▁脑海
▁特立独行
▁婚姻法
▁四千
▁守则
▁为时尚早
▁信函
▁淡薄
▁昆凌
▁新车型
▁福尔摩斯
沭
星期
▁261
羲
bi
▁一端
▁再生资源
▁疑云
▁约束力
▁中法
▁会费
▁0.05
▁22.5
▁铁板
▁西昌卫星发射中心
▁超常
▁肩上
▁普斯
▁救下
▁八核
▁鱼头
▁法门
▁阅览
▁一子
▁湿润
▁分步
▁担纲
▁清华北大
▁打零工
▁湿滑
▁990
▁博物院
▁杜汶泽
▁折旧
▁新设
现金
▁可比价格
▁祭祖
▁得天独厚
▁撤诉
▁能源行业
▁601
▁陈一
▁得力
▁po
▁价格不菲
▁地心引力
▁防癌
▁最高奖
▁转包
旗鼓
▁平均价
推广
▁市场行情
▁小路
▁偷工减料
▁逐步形成
▁余项
▁升息
▁将视
▁内阁会议
卸
▁不明飞行物
▁正因
▁马塔
▁密闭
▁节能灯
▁一致性
▁旧居
▁玩意
▁省下
▁暗恋
▁保监局
▁忙活
▁卢某
▁两化
▁十余名
ana
▁中药饮片
▁茶水
▁选股
枇杷
布朗
亵渎
▁原以为
▁巨浪
▁整风
▁ib
▁食人
▁人山人海
▁两组
▁炼钢
▁排泄物
▁哪些方面
▁时因
▁南岸区
▁北青
澧
▁逃过
▁设市
▁静默
▁自动扶梯
▁机构编制
▁拍品
▁平湖
▁最终幻想
▁六种
▁奇缘
▁钱庄
罡
▁竞聘
▁入场券
▁警棍
▁答问
▁1.85
▁伯明翰
▁电视频道
▁周内
海默
▁弗拉
▁迁出
▁婚丧喜庆
▁清盘
▁因该
▁工资福利
▁坚持下去
▁善用
▁花纹
▁华声
▁用纸
▁博里
无力
▁盟
▁宿管
囚
be
▁独木
▁鞋垫
▁能源价格
▁方大
▁悄无声息
▁拐弯
▁时钟
▁创新者
▁退卡
▁战局
▁采取任何
▁动心
▁公考
▁粮食产量
▁收走
▁养鸡场
▁股中
▁终场
▁巴赫
▁独子
▁优质服务
▁易到
▁计程
▁跪地
▁十名
威尔
▁急剧下降
▁样貌
▁紫金山
▁网警
▁老是
▁足有
▁常小兵
▁中弹
▁伴着
▁权责
▁大黄蜂
移民
▁中共党员
▁空调车
旬
▁推演
▁势不可挡
▁现实意义
▁音箱
流水
▁能卖
▁赠予
▁单方
▁操守
▁卖淫女
▁一顶
▁小威
德勒
▁之重
风情
▁热切
▁飞涨
▁优异成绩
庵
▁奢侈浪费
▁富阳
▁献血者
▁爽约
▁道义
▁刘晓庆
▁青藏
▁松原
▁侦测
▁通路
▁巾
▁大公网
▁文创
hot
▁天全
▁调和油
▁上吊
▁女护士
▁生母
▁成都军区
▁窃密
▁雷同
▁股票投资
▁两对
▁斑点
工艺
▁博取
▁3900
▁领回
旅游局
榷
▁佳士得
當
有余
▁家境贫
▁忍耐
▁更新换代
▁众包
▁签了
▁稳重
▁精子库
▁尼克森
▁1.05
▁献身
▁房妹
▁五谷
▁凉菜
▁建设路
轩辕
▁谁料
▁药片
汽油
▁16.5%
▁微乎其微
▁老父亲
▁今明
▁天气情况
减少
▁速途
▁改气
ade
▁知识点
▁3.0%
▁布莱克
▁戴安娜
▁沉痛
▁简要
▁散播
▁高级技
▁打闹
而动
▁气象厅
▁鼻祖
▁塞尔吉
▁李宝
▁最低标准
▁依赖症
▁纠风
▁近些年来
▁案发前
▁1.07
▁一姐
▁收银台
▁红领巾
▁丽江市
▁成功人士
模型
▁本科毕业
妮弗
▁老张
▁球门
▁慈悲
▁广告位
▁昭阳区
▁抓走
出击
▁货币化
▁已花
▁上海站
女郎
▁看不起
▁寄希望于
▁大法官
▁卡洛
▁喜迎
▁第二周
ode
▁偷车
老鼠
▁街面
▁下关
总支
▁欢度
▁控制力
▁脱胎
▁限高
▁亲身经历
▁抚州市
▁犯有
▁上会
▁有所作为
▁金边
▁卖空
泓
战线
.08%
▁日立
▁谭力
▁退费
▁试管婴儿
睁睁
▁腿脚
▁体育总局
▁两件事
▁卖不出去
▁音乐学院
▁惨重
▁生活品质
▁划归
▁大名
▁1230
▁益民
▁屈居
▁法制化
▁好久
▁刘延东
▁易用
▁融为一体
▁两军
▁劝告
▁吊瓶
▁水电费
▁写明
▁友爱
腐败
▁营业时间
▁美国通用
▁别看
▁转任
▁小动作
▁黄胜
▁车后
▁考试内容
▁大赞
ny
检验
▁装甲
▁换装
▁人口普查
忐忑
▁海陆
▁要命
▁君正
▁一枝独秀
筏
▁小笼
▁间谍活动
▁渐趋
▁net
身材
▁深秋
▁定时炸弹
▁还用
▁历下
▁巴托
▁两盘
▁信以为真
▁胡萝卜素
▁陈德
▁免不了
▁日新
▁两元
▁公道
▁尼克斯
▁不如说是
▁兄弟俩
▁事中
▁夹克
▁金毛
▁有目共
▁广泛传播
侗
▁甲状腺癌
▁国兴
▁价格优势
▁放射源
▁不堪设想
▁追思
▁成功者
▁交融
▁文学院
▁中国科协
▁乳酸
乐团
▁拔掉
▁国际航班
▁硬是
▁章节
锹
▁11.5%
▁亚足联
▁跳动
▁475
▁身体素质
▁一切顺利
▁生日礼物
▁长隆
▁水沟
▁卫生标准
▁差旅费
▁办公区
▁凯雷
▁艺术界
▁一死一伤
▁瞬
▁时代广场
之谈
▁借入
▁美酒
▁归类
▁鞋业
▁脏乱差
▁周游
▁安岳
▁571
▁大全
▁口镇
▁理直气壮
▁动视
▁搬到
▁美国农业部
▁严重性
▁跨区
▁低利率
▁12.1%
▁二十一
▁人经
▁高虎城
▁年度计划
▁长青
▁家电行业
▁总队长
▁ang
▁刘老根
▁收网
▁拆违
▁塔拉
▁解渴
▁南安
▁塔里木
▁马不停
▁抬升
▁寻宝
▁腰带
▁互为
健康
▁高楼大厦
▁成本增加
▁两国人民
▁李源潮
▁寄语
▁连败
▁划过
▁基本一致
▁三等
▁问茶
▁口述
▁退去
▁同一时间
▁长滩
▁一开
▁传播学院
▁假想
▁高丽
ada
▁运输车
有限公司
▁船厂
▁各校
▁自给
▁祖马
▁张震
▁美邦
▁坐姿
▁胜局
▁征文
▁10.1%
▁相拥
▁任重道远
▁卜蜂
▁两千多
▁奋不顾身
▁换季
▁纯手工
▁爆仓
▁帕克
▁寻访
▁博罗
▁旅游委
▁中国崛起
▁生物学家
▁韩国泡菜
▁王储
▁预决算
同意
平安
▁直接参与
▁南安普顿
▁绵羊
▁尼克松
浙
▁开道
▁过河
▁内资
▁建成投产
战役
▁南京军区
脑筋
笈
▁零散
珠宝
▁黄标
▁宝等
▁血缘
▁千龙网
▁首推
拙
▁布控
▁七点
▁愿同
▁黄山市
▁拍电影
л
▁工作汇报
▁北京电视台
eep
▁凶杀案
私利
肪
▁沈培平
▁奥林匹克运动会
▁院落
▁定西市
▁分众传媒
▁莱德
▁选修课
▁关节炎
▁cdn
▁房交会
▁人类文明
▁行政命令
▁盖子
▁庆春
▁翻译成
▁jd
▁两例
▁申明
▁公之于众
▁直言不
▁中央公园
▁内部人员
饱眼福
▁成色
▁光照
▁祖母
▁统一标准
▁蒙上
▁精神障碍
▁建校
bp
▁稍晚
▁老二
▁遮住
▁旋翼
▁罗纳尔多
▁拉低
▁挫败
掴
露头角
▁德宏州
▁年款
▁最多时
中文
▁视而不见
▁军火
▁赚点
胭
▁常理
饰品
▁圣经
▁零增长
▁到货
支出
▁拘禁
▁断头
燃烧
北京
▁反派
▁羊城
金融
▁心理压力
风格
▁赢球
▁两把
▁互免
▁沃尔夫
▁马场
▁防尘
▁文化名城
.25%
▁纽商
eta
▁中高层
▁电影版
▁可卡因
▁刘益
▁杀毒
▁便溺
▁未到
▁中国红十字会总会
▁中毒事件
▁念斌
▁索尼公司
準
▁多前
▁催化
▁欧洲议会
▁额为
▁泊
▁总编
▁养犬
▁产学研
▁为民服务
▁诸暨
▁输赢
▁病毒性
▁高挑
▁好用
▁14.5%
▁美梦
▁最佳时机
▁吓了一跳
官兵
▁闸门
科大
▁敲诈勒索罪
▁公关部
▁营销中心
▁生出
▁明说
▁哈马斯
▁卡尼
总理
▁逐个
▁西点
▁11.6
▁头奖
▁排档
▁香菜
▁怀中
▁均等化
▁奶瓶
▁商业利益
▁慧聪
▁2021
▁效用
不应
整理
▁服务提供者
▁送行
▁净营收
耀辉
▁塔尔
▁凝固
▁张宝
▁类食品
▁王祖
瀛
▁择校生
▁李师傅
▁食用菌
▁dsg
▁这三家
医科大学
▁恢
▁职业培训
▁凶残
▁猛涨
▁出借
▁追着
▁手机信号
▁直投
▁贴纸
▁十几天
一步
▁客家
▁借来
一筹
▁阿贾克斯
▁臣
▁路边摊
▁三五年
▁天伦
教材
▁金道铭
▁花园路
▁召车
▁免邮
▁桑德兰
▁混血
▁硕
▁留校
▁牺牲品
▁百分比
▁独具特色
▁天涯海角
佈
▁杨明
▁龙港
▁固话
▁金融体制
▁阳阳
▁一上午
▁统一行动
▁回龙
▁苏北
▁qz
▁买卖合同
▁平板电视
▁玲玲
▁阴道
▁有点儿
▁落败
▁白酒业
▁三分钟
▁空谈
▁休战
▁远不如
▁仙林
▁分包
▁18.3
▁工作制
巴巴
▁李新
phone
▁身中
▁盐城市
▁这届
调整
▁骚
▁处子
▁壮美
▁动容
▁小宝宝
答案
▁相加
▁烧香
▁家庭作业
▁黄金首饰
红会
▁可售
▁调派
▁作曲家
▁鹿城
▁世界贸易组织
▁教师队伍
▁德文
心理
谚
▁东升
▁农夫
七大
▁1941
▁清末
▁开福区
▁皮毛
▁总体而言
▁fir
桐庐
▁马尔克斯
▁国宴
▁联系点
讷
▁畅享
▁cbs
苓
▁尔多
▁八分
▁死囚
▁中签
▁如期而至
▁蓄电池
▁拿掉
趋
摄影
▁至尊
▁打得
▁网龙
▁中华民国
▁早先
▁溪湖
▁焦作市
▁美国队
▁高考作文
.32%
乾坤
▁精炼
▁亿到
▁双肩
▁击球
▁上千人
▁大盗
▁洋溢着
▁句子
▁加拿大人
▁全日空
▁相去甚远
▁世外桃源
▁发言权
▁黄金水道
▁周正
▁前车
▁直白
▁工龄
▁收单
▁启迪
牺牲
▁274
痞
▁整修
▁巴神
▁千亿美元
▁远近闻名
冲突
▁村上
▁肾衰竭
▁安乐
▁填埋场
.14%
比娃娃
▁圆润
▁传统观念
▁12.2%
▁互动性
▁磁场
▁注射器
▁接单
▁卢卡
▁巨大变化
▁积极争取
▁年味
▁刷票
▁七八个
峭
▁291
▁待定
▁古井
▁一九
▁脚部
▁进口关税
▁1943
▁半裸
▁开拓者
▁满城
▁大获
▁一餐
▁小组会议
▁13.6%
▁家常
▁外电
dd
▁中青年
振宇
▁石景山区
▁在押
▁统计数字
▁热恋
▁石柱
▁考区
▁这能
▁全智贤
▁劲旅
濠
▁sbs
▁大清
▁危房改造
▁兰德
▁综合执法
▁联航
▁可贵
▁下大
▁生活区
匙
▁补时
▁垃圾堆
▁虽未
▁指针
▁一幅幅
▁rovio
▁长成
▁工科
▁面试官
▁沃森
▁寻亲
▁各镇
▁结为
▁倒立
▁招摇
▁小云
▁郭有明
▁arj
▁插电
▁宜人
人口
▁中南财经政法大学
▁车尾
▁售票处
展览中心
▁试图用
▁生产性
▁道外区
东海
▁三四年
▁11.9%
ai
▁某村
▁一致同意
▁玩玩
▁万幸
▁连接起来
▁曾用
▁由南
▁侃
▁山东省委
▁退休职工
▁两百多
▁正要
▁6400
▁安全可靠
▁考卷
▁西班牙语
▁安居乐业
▁监察部门
▁游游
▁果肉
▁所学
▁吉安市
▁二批
▁有毒气体
▁可乘
▁混杂
▁吃个
▁七中
▁伯克利
▁但凡
复牌
▁中央大街
▁简朴
▁造成危害
▁丝绸
▁颗卫星
▁大放异彩
▁我局
▁如期举行
▁以备
▁器物
▁泰迪熊
▁神探
▁名高管
▁摆出
▁毛泽东思想
▁谢绝
▁室温
▁爽快
▁塞舌尔
▁里奥
▁世界之
▁冷热
▁进社区
▁报复性
▁之城
▁潮州市
▁一课
偎
▁补发
▁增选
分明
▁举国
中医药
考核
▁诺兰
▁校友会
▁强烈抗议
▁阳泉
▁基本建设
▁张瑞敏
▁帕内塔
▁卫国
▁靠山
▁华大
▁数钱
▁硬伤
喇嘛
▁自杀式
渺
▁供体
長
▁初具
苯二
▁芬芳
▁侵华日军南京大屠杀
遇难同胞纪念馆
▁树种
▁旅游网
▁戈麦斯
▁被选为
渴
位数
情报
▁李雪主
▁加里
▁粗粮
▁楼面地价
▁mic
▁李天
▁适得其反
狭隘
▁情势
▁仙女
▁眉毛
▁雷雨大风
▁夜盘
▁若干年
▁摘掉
▁吴斌
▁国信办
▁政企分开
▁宿迁市
▁拉尼
▁至极
▁参事
▁配以
▁华商报
▁888
▁兴致
感情
▁之剑
▁群山
▁毛新宇
▁更佳
▁利益冲突
▁有伤
▁怨恨
▁上周三
姜
抬
▁脑子里
▁前一
▁行经
▁点点滴滴
▁美韩
▁审判权
▁oppo
▁全线通车
研究院
▁恨不得
▁咬断
▁冲刷
▁就职典礼
诀窍
民主党
▁美国共和党
▁放在首位
▁沙田
▁备货
▁柴火
咆哮
▁花城
▁加尔
▁少之又少
剧场
▁文坛
▁适中
▁刚到
▁完全符合
▁最后通
▁传闻中
籁
▁塞斯
▁传回
▁拍片
▁北非
▁当过
▁进网
上游
▁从无到有
▁麦德龙
▁海波
▁预审
▁1650
▁战略意义
▁gmail
▁五方面
▁离岗
▁381
▁ss
▁1929
▁改道
▁土建
▁寓
▁吹风会
支队
▁食品厂
厄
瘙痒
▁航空安全
尔多
▁尘土
▁值为
▁血汗
农业大学
▁物美价廉
▁生平
▁课时
▁该船
▁中德
▁不无
▁关系人
▁信披
▁克尔
▁容颜
▁架势
▁奋起
▁繁杂
▁斯坦福桥
开来
les
▁平开
▁调出
ife
▁14.3%
▁中加
▁抓扣
▁恩人
▁灰姑娘
书店
▁笑笑
▁猜疑
▁台南
▁锦江区
▁四只
▁论语
▁伊朗核
▁早于
▁怪病
▁出柜
▁攀岩
▁港大
▁留学人员
▁海因
▁经济师
學
▁复婚
面貌
▁违宪
▁刘士余
▁越位
监管
▁刀子
▁工学院
▁0.16
▁整合营销
▁单子
▁不干
▁增长极
管理者
▁送温暖
▁水利局
▁教育家
▁休整
琥珀
直下
▁薄薄
▁性情
▁思索
累累
湖县
▁做错
▁雨衣
▁复仇者
▁松散
▁东家
.27%
▁武进
▁业余时间
只眼
▁九城
▁单据
▁而立
▁七种
▁培根
▁老妇
▁珠穆朗玛峰
涅槃
住宅
▁14.1%
▁白纸
▁安庆市
▁停泊
▁赔款
▁摸不着
▁进口产品
鲈
▁弄清楚
▁无与伦比
▁轮岗
▁烈火
▁迄今已
▁新一任
唁
▁优胜劣汰
▁用户界面
▁攻防
熠熠
▁疏于
▁屈指可数
阵地
▁掌趣
▁一席
▁品牌战略
▁不利因素
▁写手
旭明
▁实例
▁通话记录
▁初查
▁奖状
▁马路边
▁圆圈
▁美国劳工部
▁帝都
▁留影
▁万买
▁武威
▁票制
▁活期存款
▁香辣
▁该文
▁计算机系统
▁际
▁换位
▁疯涨
fe
▁志愿军
▁试穿
▁双方同意
▁凯恩斯
▁海洋生物
特区
▁红肉
▁交通卡
▁计划单列市
▁汇演
▁中泰
▁几代
▁大变
▁百老汇
▁腹腔
晦
▁iso
▁李瑞英
▁力所能及
▁香港地区
▁由东
▁明远
▁重点中学
▁转网
▁313
▁时遭
▁案犯
▁影视城
▁朝气
▁意料之中
▁消耗量
▁酷炫
▁广州军区
▁出题
▁并致
▁贯彻实施
▁一夜情
▁千呼万唤
▁历史系
▁打砸抢
▁东盟国家
▁第三期
▁南京城
▁勒沃库森
希尔
▁个人资料
▁勒夫
▁胀
▁酵母
▁期限内
▁拉力
▁别致
▁要不是
▁承运
涣
晚会
▁舱内
▁指派
▁加勒比
▁机场跑道
▁不了了之
▁联欢
▁徐徐
▁总参
▁物价水平
▁人民满意
方针
▁东吴
▁25000
▁周董
▁鼻腔
▁既要
▁警长
之灾
现场
▁剩菜
▁中国地震局
▁轻盈
▁周边环境
▁电极
▁买手机
▁托底
▁亿澳元
yse
斑斑
▁实兵
▁拉塔
▁施正荣
▁海尔集团
▁保山
理念
▁胡安
▁英语老师
▁格策
china
▁新闻界
▁生日快乐
▁保障机制
alth
▁驻日
不变
▁时薪
▁阿圭罗
▁一己
▁骤
▁导演奖
喜剧
▁车是
发明
▁果子
▁变种
▁王安
▁团费
▁新文化
▁提款机
腮
▁作案动机
▁活化
▁反应堆
▁角力
▁自责
蕨
▁级锁
▁昆明人
▁喀山
▁火苗
▁舒适性
▁股在
▁心理准备
▁有福
▁高压锅
▁百味
▁396
▁布林
▁北宋
▁堵死
▁哲学家
▁骨灰盒
▁bing
▁进口商
▁准入条件
▁大年三十
▁当兵
▁双打
▁排片
▁摸着石头过河
▁南中国海
▁长袖
▁逐级
▁王书金
▁下浮
裹
▁当真
▁刘诗
▁烦心事
▁墙角
▁遗愿
▁大名鼎鼎
▁冲击波
▁杀虫剂
▁决出
▁市交
▁僵化
▁自然科学
▁黄小
▁不备
▁刹
▁悬而未决
▁证词
▁砸车
配件
▁一条条
▁13.2%
▁火灾现场
▁一无所知
▁大打
▁沟通交流
如山
▁德克士
▁入不
▁漫山
▁长满
▁最薄
▁李小鹏
▁精神分裂症
▁空账
.97%
▁高到
▁王老
▁外挂
▁既得利益者
▁资金周转
.72%
▁律师函
▁入校
▁精益
▁棋子
▁云雾
ower
▁阔别
▁同步进行
▁每天晚上
▁宜居城市
▁归因于
▁南澳
人事
▁汇添富
▁等你拿
▁pol
▁与此
▁peter
▁还手
▁802
eter
▁能比
乳动物
▁千千万
▁马蒂
▁爆发性
▁还本付息
▁今麦郎
▁自提
温度
▁苦心
web
含着
▁数据传输
▁前要
▁复活节
▁巴中市
▁非常高兴
▁波段
帧
▁角球
▁big
▁随同
▁人民调解
▁骨子里
▁多喝水
▁苦于
▁述职
▁兄
▁执行主席
上角
上阵
▁有所突破
▁公权
▁义诊
▁张欣
▁倾覆
▁外延
▁利亚斯
蜿蜒
优美
▁多艘
▁慎用
▁扩建工程
▁泛鑫
▁注册地
▁咸阳市
▁501
▁慢跑
▁微量元素
▁不在
▁阳光明
▁涉枪
▁分外
▁云南旅游
▁闪存
▁房屋产权
▁慕名
▁面皮
▁指示精神
▁杀伤
▁万笔
▁少雨
莫测
▁软化
▁走火
▁骨干网
▁1.14
▁编为
▁大力推广
▁特此
▁杨小
▁日本队
奂
▁整形手术
在外
禀
▁水客
▁一剂
▁整座
汇率
▁梁稳根
▁微博微信
▁冰棍
擘
▁阿尔卡特
贿
.04%
▁选题
丽娜
▁陆客
▁寸土
▁减掉
▁土生土长
▁净利润率
▁适龄儿童
▁红黑
▁书架
▁连续剧
▁克洛普
▁详细情况
▁静坐
▁得票
▁广告词
▁避风港
▁春耕
▁试点单位
▁陆海
▁达能
▁0.15%
▁昭示
▁张贵英
然一新
▁淡淡的
▁播发
▁福鼎
疚
▁洞庭湖
格州
▁暴走
▁一击
▁整版
全胜
▁商业性
▁新招
▁关联方
▁经验教训
▁发改
▁中铝
▁壮士断腕
▁余公里
高手
▁治水
捎
▁隆胸
▁欢聚一堂
时空
▁务农
▁王素毅
易观
▁邮政局
▁租给
▁阅兵式
▁巨奖
▁品牌手机
▁个班
▁骂声
▁浓浓
水油
▁持久战
▁联合演习
▁刘志
▁雨花区
▁两连
▁相亲会
▁并不比
▁喜来登
▁千丝万
▁半米
▁余票
▁民商
▁终结者
▁内罗毕
▁党史
义县
▁群组
ker
▁站队
▁合乎
ite
▁法医鉴定
一劫
▁波波
▁花期
▁微店
▁台式机
▁玉山
▁一个亿
▁稳中有进
ics
▁整套
▁为求
▁tesla
无虚
风暴
▁律师协会
▁三届
▁农业部门
▁心碎
▁杯中
▁一男
.24%
▁计票
掬
▁两代
▁八里
▁季莫申科
关头
▁表层
▁无形中
▁天班
▁亏空
▁espn
▁晚安
▁气象预报
▁分文
▁木业
▁对讲机
▁琼海市
▁严格要求
▁战中
▁团体票
▁事例
▁克罗
▁保险费率
▁首单
▁万手
民党
▁跪下
▁劳动党
▁乔纳森
▁冲天
▁高校教师
▁渴求
▁用具
街头
▁如若
▁语文课
▁四驱
▁碍
▁催泪
▁连成
▁败坏
▁驶过
▁官商勾结
▁泰顺
▁小浪
▁虹口区
▁穿孔
▁铺垫
▁加成
▁仓促
▁演播室
▁数以亿计
▁全日
▁略带
▁协会主席
▁11.4%
▁成正比
兴趣
▁排污权
▁气场
▁后付费
▁荣幸
蒙蒙
▁杭州市区
▁工程系
▁营养素
开朗
▁延长线
▁非银
▁文化馆
▁363
▁上海市公安局
▁贴牌
▁16.8
▁万倍
▁刑事诉讼
▁主治医生
▁公私
▁直排
化物
氰
显示
▁区区
▁试错
▁拍摄者
▁每学期
▁中联
▁防盗门
▁无门
▁饥
▁艺术设计
锵
▁万镑
▁老天
疟
▁消息来源
▁银耳
▁闪婚
▁交还
▁印钞
▁全集
▁有加
▁血小板
▁来来
▁索尔
勾
▁与其说是
▁军力
▁不温不火
▁东郊
▁最怕
▁历史使命
▁图画
▁确是
▁仍处
▁gox
▁商业秘密
▁安全形势
▁交规
▁较晚
▁不良信息
惶惶
▁火光
▁宋朝
▁食管
▁水箱
▁布宜诺斯艾利斯
▁水枪
▁编者
▁葡萄糖
▁愈合
▁石油大学
▁平抑
▁街巷
▁zynga
▁秦皇岛市
▁礼宾
▁吕梁市
▁反革命
▁受累
▁弟
中外
▁粉笔
▁不乱
▁无座
▁红光
▁气压
磐
▁土地价格
ct
▁斯柯达
▁江汉路
▁北向南
▁但他却
▁new
▁巴育
▁作废
▁昨从
▁应邀出席
▁车震
▁一块钱
▁中日韩
▁老宅
▁臭虫
浑浊
▁免息
卞
▁战在
▁大盘股
▁保守派
▁快捷酒店
▁生怕
▁租下
▁小分队
▁柳林
▁高智商
花园
▁海螺
▁地问
湖市
▁船主
▁斯巴
▁考了
▁坚守岗位
▁告别仪式
▁肇事罪
▁脑瘤
▁供认
珞
机票
其道
▁要少
▁西服
▁瓦莱
.88%
▁省工商局
▁如数
▁点个
▁岗亭
▁佳木斯市
▁烧掉
▁三盘
▁华策
▁加倍
▁重要一环
牵
▁饱含
▁暖冬
gs
▁几部
▁处突
▁誓师
▁芬奇
▁雷州
▁资格证书
▁吵闹
河口
▁303
▁相提并论
▁华南理工大学
驮
▁西施
▁擎天柱
▁465
▁危难
➎
▁1934
▁夹层
▁385
▁甘伯
诫勉
▁泥沙
夫人
▁组织部门
▁万寿
▁以人
▁营养师
▁北辰
▁自导自演
▁西周
▁名车
▁缺阵
▁真容
▁割断
▁挖掘出
▁两厢
▁首现
▁微循环
▁造城
▁斗志
▁18.5
▁消费水平
信息中心
▁发布者
▁老翁
▁撑伞
▁宠
职人员
▁兴盛
▁队医
▁第五轮
▁时前
▁皮肤病
▁女孩儿
▁一线品牌
▁攻坚克难
▁留不住
▁石河子
▁要务
佢
▁酒气
▁初见成效
▁702
▁开瓶
▁实德
▁见诸报端
▁条文
▁密谋
▁综治办
▁吃不消
▁船体
▁图文并茂
▁论战
▁带头人
▁防空警报
吓
▁撤掉
▁自尽
▁每辆车
▁企业信用
▁东移
▁领了
▁顺德区
▁货基
▁丁宁
▁合二为一
▁开抢
着头
▁哈巴
▁临安
▁化纤
▁年轻干部
▁持械
▁恶习
▁纠集
▁公会
▁河池市
▁保险业务
▁air
▁官商
▁长清
▁扭打
▁车长
▁猜猜
▁内务
▁零首付
▁0.01%
三角
▁非主流
▁盆景
▁专项规划
▁亚洲区
▁多幅
▁已现
▁作案工具
▁御用
▁吴文
教育厅
▁止损
▁击打
▁商贸城
▁应答
▁瑞典克朗
立场
▁适用范围
▁危机感
▁破纪录
▁妇人
▁期中
▁新闻出版局
▁人和
▁艾美奖
▁清远市
▁四层
▁穆斯
▁化武
▁创意设计
▁断然
▁慕名而来
▁10.6%
▁mod
▁日当
仪器
▁轰然
▁电梯门
▁输油管线
▁完工后
▁引体向上
▁克雷
▁总要
▁深知
▁非官方
▁李肇星
▁黑头
▁人才队伍
▁稳坐
▁崇左
▁口渴
▁苏打
▁windowsxp
▁北环
▁航运业
▁婚事
胡子
▁新闻奖
▁记忆犹新
▁多路
▁惧怕
▁lcd
▁一波三折
▁临高
▁助威
▁汉诺威
里克
之意
▁全景网
▁反导
▁已送
▁宝林
▁纽扣
▁可吸入颗粒物
▁百只
▁书上
▁女主人
▁13.5%
▁港铁
▁赌资
▁农村金融
.86%
▁丈
▁中国人民政治协商会议
▁康佳
▁威斯康
▁交战
▁尽收
▁让玩家
▁小说家
▁晒干
配角
▁阴谋论
▁松山
化市
▁佩特
▁病毒感染者
▁拉高
▁有感
▁反攻
▁涨跌幅
▁杨惠
▁中未
▁非核心
▁滋生腐败
躺
池县
▁季前
▁杭州人
▁短篇小说
秩序
▁松紧
▁好大
▁迁至
▁畅想
▁要数
▁联谊
▁记入
▁大案要案
.33%
▁泰岳
▁秦玉海
its
▁球赛
▁770
教学
▁2094
森林
泉县
▁笔数
▁凌云
▁该奖
郜
▁组队
▁code
▁责任意识
▁工资卡
▁公费医疗
▁妆容
168
洋洋
▁可持
战术
渥
▁贯彻执行
▁乏
▁无益
▁本季
▁收买
▁置身于
多样
▁好孩子
侏
▁据点
▁那点
▁停顿
▁争先恐后
▁欢迎您
腺癌
▁较少
▁512
▁配套工程
▁可知
▁海景房
▁带离
▁瞬时
研究所
▁标线
杀人
▁酒家
▁关键所在
武器
▁从大
▁297
▁子女教育
▁坚决拥护
殒
欢喜
▁国货
▁放送
▁原籍
▁沃达丰
▁硕果
湛
▁遗言
▁埃菲尔铁塔
▁有理
▁立春
启事
▁在城镇
▁冰封
▁伟民
▁工作思路
▁第一例
▁1931
▁独播
▁商标注册
弋
▁以大
▁一网打尽
夫妇
▁证监
▁阿隆索
▁偏执
▁配套措施
▁余承东
▁雷克
▁供水管
▁万种
▁完整性
▁澡堂
▁盛名
▁不断深入
▁0.00
▁上海滩
▁贝类
▁乳白色
▁马乐
▁职工工资
婶
▁突出贡献
▁火线
▁打喷
土地
▁农田水利
讲话
▁以假乱真
ph
▁喜人
专卖局
▁对价
▁太短
▁美院
芯片
祟
▁长油
▁搭售
▁车改
▁接听电话
▁产房
▁王兴
▁财产保险
▁深表歉意
建明
▁派息
▁反洗钱
▁家拟
▁解码
待解决
▁脂肪肝
▁近万名
▁极小
▁偷吃
▁巨大损失
▁大肠癌
▁太阳镜
▁优惠价
▁可想而知
坊市
▁横梁
▁一厢情愿
▁散客
勤部
▁李河君
疲劳
▁张春
▁保护措施
▁委派
鏖
▁水牛
▁声援
▁断流
▁运输量
iy
▁学生上课
▁收效
▁中锋
▁各具特色
▁明尼苏
▁为数
▁八中
▁辣椒水
dm
▁abs
▁省直机关
▁只差
▁隐居
▁重出江湖
▁精心策划
甥
▁电脑游戏
▁土地权
▁红土
▁搬上
▁假消息
▁前三
惩
▁养老保险费
▁腾空
▁龙城
膛
▁镇街
▁其有
不禁
▁性丑闻
▁关键作用
▁联欢晚会
▁管理法
▁文科生
▁真机
▁附小
▁一郎
▁行为规范
▁拖把
▁非法所得
▁余天
▁中含
▁失当
▁艇
play
调动
▁液晶面板
忽
▁行乞
▁鸡鸭
▁休息日
▁生产方式
▁机械故障
▁十一五
▁0.34
▁保安员
▁扬长而去
▁中心化
▁建面
▁值班室
▁清真寺
▁味觉
▁飘落
▁余款
▁四中
▁极端分子
▁日企
▁黄怒波
▁着落
▁身无分文
▁某部
▁新购
▁汉中市
▁所获
▁就学
.35%
▁多宝
▁几场
购买
▁幼年
▁连带责任
电网
▁国画
▁疯牛
▁吴永正
华州
无穷
▁巴沙尔
▁麻省理工
▁超导
疙瘩
多岁
▁楼体
▁大减
▁开动
▁大得多
▁攸县
▁高朋
▁加利福尼亚
▁荷兰人
▁单靠
▁弗吉尼亚州
▁326
▁服务性
▁购物者
▁联合会杯
猥琐
▁捷达
▁史前
家湾
▁张彦
姐妹
▁张田欣
▁朱明国
▁但愿
▁法律界
▁迪奥
▁354
▁中国男篮
吸虫
▁喷水
▁自查自纠
▁老生
▁1.13
▁旧车
▁美国电影
谎
▁省内外
▁各执一词
▁浏
▁沈海
▁挂车
▁全镇
▁练就
▁动议
▁床铺
▁李毅
▁廉政建设
▁大话西游
▁总费用
▁著作权法
▁卖完
▁1888
▁插曲
▁石油输出国组织
▁发邮件
▁修改稿
▁中国农
▁2023
▁过半数
▁很漂亮
▁买好
▁方位
▁严格执法
不像
洛夫
▁黄宏
职称
▁世俱杯
▁上港
▁苍白
▁降解
▁逐步完善
▁提包
▁软文
所知
▁世界杯赛
▁建宇
▁多尔斯
▁急切
▁访日
丰富
▁大逆转
▁小卖部
▁看后
▁必由之路
alk
▁在实践中
▁数以千计
全书
▁光亮
▁大惊
玥
▁太冷
褂
▁树龄
做到
▁galaxy
▁交通警察
▁切成
▁猫扑
▁阿兰
▁副庭长
▁外语片
数字
▁束手无策
▁纷至
▁号召力
无人
▁用户名
▁重归
▁算不算
▁法院院长
▁战乱
▁名医
book
▁董文标
▁can
▁几件
▁床上用品
▁电表
▁画笔
▁刘虎
▁推移
▁在历史上
▁网贴
▁下层
▁遗留问题
▁时能
▁八方
▁机位
▁牌号
▁依法严惩
▁皮具
▁自来水厂
nm
▁天假
▁市镇
▁案发现场
▁未央
▁更少
▁亲历者
拉蒂
唇膏
▁投机者
流通
▁登记手续
talk
▁高蛋白
▁服务部
▁0.31
▁一概
▁重点高校
驶
▁国产电影
▁辣妈
▁军事训练
兑
▁世贸中心
▁pta
▁华沙
▁原型机
▁嘉华
▁话音
▁萌娃
▁不过关
营业
▁pa
▁歌厅
姥
▁胡平
纂
蒙德
▁发射卫星
▁tpp
▁横穿马路
▁壮阳
▁和顺
▁陈云
▁太晚
▁外孙女
琶
▁起早
▁时代华纳
▁罗德
▁投资商
▁官民
水位
▁人机
▁义无反顾
隽
血症
▁揭穿
▁范例
▁不属
▁钟情
不理
▁胆大
▁国民待遇
▁元器件
▁有道
▁几辆
▁西咸
▁不耐烦
▁落脚点
▁钱袋子
▁全面推广
▁殊
▁五折
▁联营
▁插播
▁台资
▁第十七届
▁汤普森
▁战地
▁时差
▁12.2
▁奶爸
▁付给
▁锅里
诙
▁倾诉
▁力学
▁向华
▁查查
▁哪些地方
▁普速
▁版权保护
▁重新启动
▁周立波
▁方案设计
▁之春
▁错时
▁井喷式
▁china
▁忘却
▁大嘴
▁得失
▁挖角
▁钢产量
▁财务指标
▁宣誓就职
▁快节奏
▁大肠杆菌
▁瑞安市
▁防霾
海岸
▁等待时间
政治部
▁已死
▁私生活
▁三班
▁腾退
▁违禁品
▁无时
▁认房
▁连城
▁平均分
▁科罗拉多
▁ga
▁更显
▁连忙
▁六岁
回去
▁岸上
自习
▁之感
▁新视
背景
▁白玉
▁共同财产
▁依法办理
▁金石
寸金
投入
▁迎亲
▁rmb
▁血脂
▁门牌
▁0.06
▁上官
▁7600
▁巴楚
雄厚
▁沉迷于
▁保护费
枢纽
▁余波
▁386
▁太保
烬
▁核验
▁理想主义
▁武清
▁被告席
已久
▁货真价实
▁微博是
▁汇兑
金宝
▁271
伸
▁钢材价格
▁学徒
▁副司令
▁劳作
hop
▁无名指
▁幼虫
▁女模
▁排污口
▁换领
▁韩服
▁后防
参加
▁心理医生
ero
▁特战
▁北广场
▁机动车辆
▁ft
▁大洋彼岸
▁核工业
▁农场主
▁破口
▁吃剩
▁屈服
▁趣事
▁投奔
▁共事
盱眙
▁十岁
▁守卫
▁逸夫
▁华龙网
▁洗完
▁失物
米尔
▁不省人事
▁卡扎菲
▁胃病
▁为的是
▁14.7%
▁福寿
▁踩点
▁脑电
▁家常菜
▁重用
▁把持
▁足球比赛
▁饥荒
▁藏家
▁立体化
▁苏力
了一
存在
▁la
无音
▁合共
了名
▁大中专
▁寸步
▁黑猫
▁发送量
▁歧视性
▁暗地
▁名著
▁美国中央情报局
▁厨艺
▁缉私
▁山东人
▁梦露
▁肥料
▁春联
▁补助金
▁师范生
▁参谋
▁扇贝
▁雷击
▁随身带
▁艾玛
▁以新
▁由谁来
▁主委
▁磨合
▁上锁
▁gucci
▁女店
▁纠错
▁原作
莱斯
▁莫非
▁金龙
▁十二月
▁刘大
▁阿迪力
▁拉丁
ere
▁上海浦东新区
▁四岁
多人
▁在位
▁结对
▁朱家
▁毛晓峰
焖
▁超高层
▁热能
▁二郎
▁经济委员会
单词
等奖
▁换量
▁李世
▁马达
▁西汉
▁观战
iak
▁交大
▁手机操作系统
▁辩证
▁保修期
▁不得了
▁法律手段
▁囊
▁月牙
▁所述
▁15.6
▁王春
▁均系
▁危险物品
▁上大
▁余所
▁要花费
▁河中
▁企业债券
▁推至
▁沙钢
▁浮云
▁四部
▁交换机
▁幼师
▁朋
▁萧红
▁教练组
▁泰康人寿
.89%
谛
▁整场
▁箭在
▁星岛日报
升级
▁不放
▁历史学家
▁农民收入
▁繁体字
▁无良
▁中国时报
▁局限性
▁百分之一
▁广汉
公安
骨头
▁费劲
▁首映礼
▁马刺
▁退烧
拉迪
▁大典
▁早睡
▁责任书
▁多种多样
▁陈锡文
▁小罗
land
▁救急
▁自检
▁尿布
▁有朝一日
▁不正
▁盈科
▁闭幕会
▁老者
▁认知度
▁铁通
国宾馆
▁翻看
▁失踪者
▁中朝
总会
▁喜获
▁拦车
▁反潜
▁10.4
▁退潮
▁电视直播
▁敏感性
▁创文
▁1.68
▁葛优
▁留党
▁0.09
▁治堵
▁铁笼
▁多美元
▁邓亚萍
▁容许
▁万国
▁生意人
▁老房子
▁华平
▁户数
▁喜事
▁清香
▁读报
▁kbs
▁mit
▁小菜
参议院
▁浦项
▁分摊
▁成长型
▁周家
▁随风
不下去
▁演艺界
▁滚石
▁补偿费
▁舰载
▁辩
▁房产交易
▁新屋
▁11.3
▁辽河
▁暑
▁传奇人物
▁完全免费
▁顶替
▁维新
▁金立
▁郎朗
▁王立
▁大洲
▁苦战
▁mc
▁十件
▁拒绝接受
▁广东地区
▁13.4
▁欠税
▁信息时代
▁古永
▁云云
古迹
普顿
▁耶鲁
▁13.3
▁透出
▁方略
這
▁肇东
▁商品质量
互联网络
开始
处方
▁pvc
▁课文
▁减值
和县
▁联办
▁公交站点
▁767
有成
▁寒门
▁吃素
▁特维斯
▁于民
佛山
▁晋升为
▁有法
较高
▁营销策划
▁道场
д
▁量身定做
▁洋垃圾
▁民国时期
▁乐蜂
▁羊肉汤
▁杨传堂
▁情况不明
雁栖
▁10.9
▁凯蒂
▁昆曲
.95%
▁外科医生
▁缉拿
們
▁学期开始
▁牵涉到
▁欢欣
▁多亏
▁gp
▁校规
衩
▁驶往
▁称系
▁数百个
▁中奖者
▁黑海
▁暂免
跳水
▁龙山县
▁纯利
▁理科状元
▁吉尔吉斯斯坦
▁氯化
▁朱海
▁所购
▁动动手
▁全国总工会
.74%
▁万枚
▁有效途径
▁青铜器
▁同工同酬
▁回稳
实现
▁光年
▁上床
▁个例
▁多趟
▁前三天
▁三块
北路
▁巴彦
▁挑战性
钥
▁卖车
▁保持联系
▁巴德
▁算账
▁货柜
▁狂风暴雨
▁丁丁
▁闻风
▁人后
▁因应
▁萧敬腾
▁748
▁民声
逻
▁花市
▁永川
▁人贩子
▁移至
▁义昌
▁韩语
▁三精
▁party
▁群发短信
▁评审团
乒
▁生活圈
▁10.7%
▁婚育
▁拼出
▁房产商
判决
▁水立方
▁浴场
▁疯子
直门
▁东西方
▁停赛
▁低劣
▁红塔
▁文工团
▁趋于稳定
▁余套
夙
▁北京电影学院
é
观看
▁增生
▁压在
▁技术改造
▁卫生状况
▁咬人
▁多分
乡县
▁北京晚报
榭
▁桃花源
▁性取向
▁插画
叨
▁病原
餐厅
实践
▁参加者
▁日本海
千人
▁11.1%
▁群众监督
▁轻重
▁坠海
▁家庭医生
▁共治
▁第三场
▁郎酒
▁工夫
▁本篇
▁指路
▁沉溺
▁美国进口
▁偏多
▁两句
▁而战
▁奏响
▁毒驾
▁大商
▁网上交易
▁特尔
▁预警系统
▁碧水
▁清河
庄市
▁育才
▁情谊
▁亿方
▁89%
维斯
▁几米
▁辛辛苦苦
▁秋风
底层
▁企划
▁去向不明
雷尔
▁演播
鼓舞
▁股数
▁酒杯
ung
▁伸展
▁特别节目
▁投债
▁球王
▁瘤
▁零配件
▁甲状腺
▁省人大
▁课上
▁多米诺
▁需用
▁用不完
▁正规渠道
▁喝掉
▁患病率
硒
▁所剩无几
▁称会
▁方法论
▁单曲
▁龙虎网
▁心急如焚
▁花鸟
大笑
志伟
▁弗兰
▁温江
▁石碑
▁良性循环
弩
▁少年宫
▁小虫
▁编制工作
▁其是
▁洗白
▁费时
▁促进作用
▁济源市
▁馈赠
▁威尔逊
▁收件
▁穿衣服
▁小斌
头脑
▁只字未提
▁经济基础
佩斯
▁981
▁裁撤
▁共创
创造
▁滑冰
▁医药企业
到位
▁耳鼻
▁露骨
▁揽储
纶
▁正处
▁解放日报
▁怀恨
▁试玩
▁价格低
▁常会
党派
▁垃圾邮件
▁1935
▁收归
▁析
▁敲响警钟
▁追星
水泥
▁南线
▁放票
▁劝架
▁饭堂
▁6700
▁多亿美元
▁润滑
▁治霾
▁收税
南路
卡罗来纳州
▁西班牙队
▁系因
▁机主
▁深坑
保障
▁数百元
▁假山
▁三至
▁美食街
▁密切关系
▁文艺晚会
▁关联性
▁站名
▁车价
▁油轮
▁市食
▁神童
▁中国航天
宿舍
▁西村
▁曲解
其境
▁瓜果
密码
▁心系
介绍
▁贵港
▁通吃
▁link
▁拳王
▁qs
斯堡
▁雅诗兰
▁舍友
▁联组
▁格罗斯
▁泰晤士
▁明显好转
鳝
▁苏拉
▁资格考试
▁沪宁
▁门罗
▁利息收入
▁门站
▁共同利益
▁火龙
п
▁职数
换代
计算
饲料
▁顾及
▁力促
▁党首
总部
舷
▁文风
▁拍板
▁拍砖
▁强冠
绛
▁一致意见
▁亚东
▁稻米
▁保险箱
▁塞纳
▁航路
▁竞速
郦
▁罗汉
▁西海
▁学联
▁南风
▁士官
▁日货
▁乐此不
111
▁后于
▁12.4
▁自转
▁暗流
▁难解
▁绝活
▁无公害
▁物证
▁签合同
▁天黑
▁陈一舟
▁取舍
▁非标
▁德国政府
▁0.08%
▁先心病
▁几口
▁声势
▁四届
▁中转站
ift
▁税收制度
到大
▁爱荷
▁骤增
▁东岸
▁脱身
▁0.11%
▁潜心
▁天坑
▁970
▁看跌
▁1932
▁挑选出
▁接壤
▁老凤祥
抚
▁六天
▁玉米地
▁老爷爷
屉
▁国共
▁捷运
▁六合区
▁口供
▁第一道
▁警署
▁携带者
▁损益
加分
▁少增
▁人与
▁复赛
▁莫大
▁扑杀
▁明示
world
▁甲方
▁中国进出口银行
▁五届
▁与其说
▁以价
▁发表谈话
▁兴趣爱好
old
简单
开发区
媒称
▁写实
▁役
▁李庄
▁探视
▁小球
▁女双
制裁
执法
▁黄油
▁连衣裙
▁金属制品
▁统计学
▁谈妥
▁悬在
▁情歌
▁打不开
▁负债累累
▁哪一
▁建筑材料
▁情理
▁其三
▁控制器
ree
▁蔡继明
▁寻人启事
▁可卖
不善
▁虎林
▁17000
吕
▁代表人
▁透漏
▁安全部队
▁打碎
▁张永
▁警队
▁大华
▁华尔
▁圆桌会议
▁地以
蛤蟆
▁军中
殖
▁相对来说
目录
泞
▁人去楼空
iew
▁存储空间
▁丁香
▁死于
▁平底
▁刘永
▁打饭
▁14.6
▁加盟商
事迹
▁作答
▁美英
▁管理站
▁同案
▁老一
▁彩妆
▁未婚妻
▁出嫁
▁变小
▁日益突出
▁油井
▁帕萨特
▁爱玩
▁牌坊
镰
▁第三阶段
条例
▁木乃伊
▁公知
豪车
▁除草
▁长老
▁看客
▁放言
▁承揽
▁有生之年
暨
▁危险期
▁复杂化
▁三伏天
▁美国国家
▁起义
论证
▁轮动
▁具体操作
▁口吐
▁德米
▁三步
▁胡乱
▁秀丽
▁居首位
▁词条
▁遥不可及
▁锋利
▁华阳
争之地
▁按原
▁非银行
向上
泉水
▁抚慰
▁lol
▁李子
七八
▁专用发票
▁植物油
▁大师赛
▁第三周
▁引水
▁货币贬值
▁丹尼
▁用料
▁河滩
▁抗虫
森特
▁卖力
▁成套
▁弹幕
▁原厂
逾
▁结交
▁他花
浚
利斌
▁光明网
▁sol
▁常见病
▁新光
▁禁闭
▁啤
▁不良行为
▁格调
临门
▁坚硬
不当
▁所见
▁af
▁根本利益
▁优视
▁nokia
▁吉普车
▁郑开
内斯
▁认贷
▁燃料油
▁发黄
▁土地利用
▁第十五
▁在野
▁任选
凇
▁假劣
▁农工商
▁三足鼎立
凝
▁一叠
▁踏板
▁快去
▁买过
▁垄断案
▁天马行空
止境
▁拔得
瓮
见影
▁赌气
方案
▁契
▁surface
▁微米
▁地铁口
▁风趣
▁材
▁联行
▁管辖权
突
▁傅政
▁改装成
▁转租
▁掌权
▁并不认为
国足
▁解放军报
▁购药
▁弗拉基米尔
▁上时
▁身分
▁王欣
▁拦路虎
▁涂层
▁野菜
循
▁两幅
▁周吉平
▁沃尔科特
▁几百年
▁较长时间
▁后脑
之忧
▁大功率
证券交易所
啄
▁提了
▁陈姓
▁无水
▁恶性事件
总统
▁新泽西
▁房产信息
▁河南日报
▁熊掌
▁宣威
▁路易
▁哈姆
▁稳稳
箍咒
大骂
ear
▁古尔
▁一巴掌
▁相传
▁1.28
▁振华
▁消逝
收费
▁行政院
▁翻入
▁园丁
▁吴波
▁护工
▁双鸭
▁被车撞
帼
▁0.03%
▁危言
▁西直门
嗝
▁13.7%
高度
▁紧迫性
▁red
▁失声
▁系统集成
▁累加
▁海德
▁汉能
▁宣教
▁衣食
▁无动于衷
▁光天化日
▁员工工资
▁野鸭
▁情调
▁偶像剧
▁素质教育
么
▁插图
▁科学化
▁由此可见
▁微视
▁歌华
▁滋事
▁吸血
▁什刹海
▁周薪
▁1450
▁名中
▁暗物质
▁动乱
为安
▁弊
▁前奏
▁大相径庭
▁出其不意
▁很酷
▁2040
▁记大过
▁赤身裸体
▁使命感
▁单刀
期货
▁双黄
洪波
▁捐建
一条
▁急诊室
▁莱斯
▁规程
▁爆笑
▁大洋洲
▁争霸赛
▁赌王
燊
▁操作性
学霸
❼
▁动武
▁癌变
▁水表
▁江门市
▁亚诺
▁画中
▁轻而易举
▁示范性
▁布莱
▁二氧化
▁责任人员
▁遮掩
万里
▁牌楼
▁骗贷
▁他于
▁交流平台
▁贵广
▁赶出
▁灯具
▁身份证明
▁急刹车
▁模特儿
▁补足
▁教育部长
▁尘封
▁当有
▁成堆
▁血泊
▁抗法
方面
▁身临
▁政经
▁申奥
▁酒量
氦
脚石
▁天平
纪委
▁阻击
▁提出异议
▁基层工作
yc
▁深意
▁武汉理工大学
▁预防性
▁撤下
▁复检
▁听取意见
▁呼兰
▁谷俊山
▁通病
▁15.5%
▁依赖度
异常
▁肉体
▁11.2%
▁电饭
▁最慢
▁油罐车
▁参访
▁老三
▁消减
▁猛然
▁飞机票
▁正直
▁著名演员
▁刘振
▁韩日
▁德邦
▁用处
政法
▁弄清
▁夹心
▁联交所
▁西哈努克
▁商用车
▁架上
▁蓝印
▁调戏
▁营商
▁该是
▁几番
▁治安处罚
▁旱灾
▁永旺
▁换购
▁原子能
▁师大附中
▁正点
太空
▁哈医
▁评审会
▁产油国
▁私分
▁七八十
▁赞比亚
▁乃是
▁公有制
▁捐赠者
▁滥发
▁吉鲁
▁管内
▁邮包
▁必然选择
▁您好
▁斯利姆
▁承兑
▁甘愿
▁千篇一律
在华
▁视同
▁费尔南
▁装卸
▁赚大钱
▁获选
▁听得
▁电报
▁邓紫棋
▁罪案
▁不雅照
▁社保费
▁高墙
▁事实真相
▁车管
▁沙县
▁况且
▁伊万
上加
▁渡过难关
▁首测
▁这要
▁21.5
▁殖民地
凰
▁计税
不舍
▁每间
▁王晓初
▁女皇
▁听写
▁中排
▁0.20
▁货到
▁气垫
▁涉法
▁石桥
▁矿石
▁澳门特别行政区
精灵
▁资产阶级
▁沉着
▁之选
▁护盘
▁取货
▁自然景观
▁集中力量
▁抢光
▁研究组
▁须知
▁成效显著
▁拨备
▁赞成票
▁大锅
▁队列
碾轧
▁现实情况
谧
▁666
▁片刻
▁医护
▁衰败
ish
▁现成
▁菜市
▁合乘
▁汽配
▁展在
▁人亡
▁1320
▁海富
▁巨大贡献
▁波动性
▁偷税
▁四通
▁温饱
▁择业
▁七号
▁扫除
▁内华达州
蚌
▁严冬
▁名利场
掂
▁鲜果
▁划转
皙
▁显微镜
伊夫
▁犯法
▁物权
▁鼠疫
▁热泪
▁忆
ies
▁胞
▁吉尔
▁价格低廉
▁宽大
▁工作服
▁残损
▁超级稻
ern
砚
▁新游
▁张云
▁阿姆斯特朗
▁原则性
▁四海
▁克利
▁张学良
▁六楼
▁立于
▁申维
▁大错
▁英利
▁中科大
▁透气
▁草泥马
▁永兴岛
▁评优
▁小数
▁压裂
▁量力
▁叫座
洽会
▁煤炭工业
瞧瞧
▁地称
▁酷刑
▁绝招
诺奖
▁流露出
▁圣诞礼物
▁眼皮
ve
▁送人
皿
▁行当
▁太强
▁1.26
▁微电子
海鹏
▁一死
▁典雅
▁疯转
▁输在
▁民进
▁辈
▁退缩
▁马儿
▁庆贺
▁临空
▁针锋相对
▁远光灯
罗纪
▁瑞士银行
▁院里
▁返家
▁疲态
▁温总理
▁乡间
弥漫
▁观赛
▁阿勒
▁寄往
▁弊病
▁耗材
▁自住
▁婚车
▁盘前
▁美国联邦储备委员会
▁罗先生
▁年度预算
▁百强县
▁西北大学
▁信访工作
▁一床
▁建好
▁倾家荡产
▁水样
▁书房
▁喷涂
▁调头
▁总在
▁显赫
▁425
有力
▁承载能力
▁支农
▁地皮
▁批量生产
▁1.04
▁998
▁图新
▁脸蛋
▁生菜
▁洋气
▁睡得
▁最深处
▁大侠
▁品行
▁那会
阆
▁中广
▁1.72
▁本钱
▁偷排
▁静音
▁称重
▁小肥羊
▁电视屏幕
▁浮肿
▁不感兴趣
▁技术学校
▁美政府
风顺
▁抗美援朝
兩
▁第一桶金
▁赌徒
▁毕尔巴鄂
▁同源
▁熙熙
▁金融学
▁老布什
▁客专
▁蔬菜水果
▁机密文件
寞
▁法律意识
▁马丁内斯
▁酒庄
▁信息内容
▁光子
刹
▁敬礼
▁韩流
威胁
▁哭喊
需求
藩篱
▁立柱
▁门诊部
▁计划书
▁东阿
▁巨制
▁气派
之旅
▁手机电池
▁阿拉法特
之家
▁叛军
▁南三环
▁炸死
▁悔过
▁代扣
▁sn
▁位置服务
▁博时
ica
▁咖啡豆
▁先烈
▁罗塞尔
▁电子竞技
▁圈套
▁新月
▁日及
尔逊
▁牵制
▁表带
赔偿
▁兴国
▁荣成
▁安徽大学
▁网售
▁建筑学
▁黑龙潭
▁灵堂
外长
▁银证
▁女鞋
▁吉米
▁批发价格
▁未上市
▁ipod
▁临终
轰动
▁今冬明春
纽
▁反悔
we
▁一丝不
▁倡议书
▁全人类
▁五毛
▁村寨
▁喷气
▁沉醉
▁要紧
▁性需求
▁限号
▁259
▁紧扣
▁衡山
过海
▁闪现
▁控制性
▁老去
▁喝杯
▁南粤
▁莫拉
▁超现实
▁入会
▁嘉陵江
▁0.04%
▁胡德
▁红河州
▁潜江
oft
▁喀纳斯
▁应景
▁献礼
▁文化娱乐
▁风浪
札
▁示威游行
▁秦国
▁干吗
▁高圆圆
▁归根到底
▁主审
▁犯案
▁王振
▁齐齐哈尔市
▁难以实现
▁kkr
卫队
ide
▁违法者
▁四五个
▁曲艺
▁抽筋
▁投顾
▁奥美
▁但经
ver
▁追债
▁宣告成立
▁不予置评
▁分销商
ation
▁317
▁诺亚方舟
▁高仓健
▁小丑
▁那头
▁北京故宫
▁可买
▁11.1
▁徽州
▁改征
▁私事
▁马王
▁千叶
▁ig
▁刻板
▁太热
▁允
▁扫描仪
▁抢到
▁塞满
▁北湖
▁13.4%
巴马
▁下载速度
▁就别
撤
▁徐家
鳖
▁徐小平
▁交通规则
▁刘军
▁治军
▁电力行业
熨
灣
▁浪费时间
▁赵家
▁好礼
▁像样
▁入境签证
▁文化大革命
▁赛门铁克
▁铁路线
▁美素
监狱
▁陶礼明
▁使用费
▁捞出
▁诺维奇
▁翻供
踏步
不衰
▁误诊
▁逊色
▁稍稍
▁发送给
拉夫
▁宝钢股份
▁生态园
晓光
▁始作
▁睡眠不足
▁代驾
▁292
▁李鸿
▁再下
▁断面
▁竹签
▁探路
▁中国烟草
滘
▁王冬
▁人情味
▁克拉克
▁处理意见
▁行政诉讼法
▁如需
▁谢亚龙
纪律检查委员会
▁之困
▁权威专家
▁兰越峰
▁波浪
▁网管
▁存取款
▁1.27
公寓
▁海子
▁河南大学
▁李宗瑞
▁一生一世
▁玲
▁拉风
▁899
▁决议案
▁凉席
▁回家吧
▁脑残
▁日上
▁天冷
▁捧起
▁绳之以法
▁免予
▁大校
▁敲钟
▁车船
▁如此一来
▁食道癌
▁12.3
▁十几年来
▁欢庆
▁卢甘
▁预制
▁可处
▁大渡
花钱
▁马蜂
▁小妹
而生
ider
▁王兆
▁含铅
▁特异
▁泛海
市委
▁马里兰州
▁构架
▁437
▁奥委会
▁马歇尔
原因
▁权色
▁刘嘉玲
▁有染
▁协查
▁品牌化
▁消品
▁重机
▁阴冷
华侨
▁股将
了婚
观音
▁杨刚
▁其以
▁中长
▁德胜
▁收银
▁面食
▁艾尔
▁科学界
▁五楼
▁人形
▁碧海
▁公共政策
▁ef
▁正等待
▁年历
▁调拨
▁高回报
▁出去玩
▁流行音乐
▁喷气式
▁1936
▁几代人
▁宾夕法尼亚州
▁赶考
▁图景
▁国宾
▁待产
▁佛门
▁经久
▁医学界
▁玻璃窗
▁两公里
▁郊游
▁修剪
▁更为严重
是非
▁对非
▁交警队
▁msci
▁洋酒
硚
▁仿造
▁巴州
ote
▁年节
▁断水
▁光泽
▁1933
其实
▁尊享
▁无所不能
▁网络小说
▁电力供应
难忘
▁金融类
▁美称
▁奥林匹克公园
冲天
▁长着
▁赌客
▁重新考虑
▁餐车
▁忘掉
▁雾气
▁念念
▁粤语
▁口红
▁城镇人口
▁徐福
▁开箱
▁出世
▁国联
▁列支
▁323
丙烯酰胺
大吉
▁金元
▁近期内
会员
▁停滞不前
安门
▁自娱
▁活埋
▁农牧民
▁博科
塑料
▁局域网
▁总后
▁谢尔
▁孩纸
感动
▁幼时
▁宋丽萍
▁落榜
▁外海
▁巡逻艇
▁餐食
粳
碧华
▁反恐怖
嚷
▁巢
莉花
▁外链
▁部属
选手
▁转嫁给
▁中国国情
▁突尼斯
▁智者
▁稀罕
▁车前
▁杀猪
▁官媒
▁入华
▁预喜
▁美轮美
▁国宝级
▁贺电
亘
▁zol
▁简阳
▁宽体
▁主动性
▁增援
▁市建
▁勾搭
▁装点
▁无能为力
▁出对
▁强忍
▁盗车
▁兴庆区
六区
▁进价
▁敬佩
▁中向
▁旗手
▁抽验
▁北冰洋
▁通缉犯
▁明目张胆
▁田朴
▁肖像权
▁成田
向南
不容
▁克强
▁金主
▁下葬
▁刘欢
▁万维
▁长距离
▁国际交流
▁巴特
▁速滑
▁首宗
▁刑满释放
勘
▁自来水管
不散
仁杰
▁难以避免
▁正副
▁洞洞
▁基本农田
▁中高
▁清明上河图
▁破净
▁追随者
▁敲击
▁吃不起
▁水滴
▁1.03
▁双鱼
▁失意
▁甜味
▁仿生
公募
▁低压
攘攘
▁航天器
▁爬坡
▁五岁
▁沿袭
▁初入
ibor
▁拉伤
▁惊心
▁国土面积
▁抚养权
礼品
▁应试教育
▁本岛
▁用意
▁人共
▁数据管理
▁博导
▁有意识
▁巴巴
▁谋杀罪
▁创新力
▁加油卡
▁戈尔巴乔夫
▁精油
橇
▁许昌市
▁推动者
▁新气象
▁唐人街
▁661
▁题库
▁交错
电讯
org
▁禁运
▁比赛项目
▁维护费
▁1499
▁我用
▁张玉
▁进出境
▁近千人
▁als
▁欧联杯
▁随车
▁橙汁
朦胧
▁最帅
▁旭日
深思
▁michael
▁达人秀
▁java
▁先人
▁兆瓦
▁针头
▁变通
▁杨振
而归
文迪
▁巨龙
▁找对象
▁传票
▁偷逃
▁慰问品
▁托举
▁德惠
▁离港
▁打拐
▁偿付能力
釉
▁百花齐放
▁吕志
▁降落伞
▁展讯
▁难闻
▁铁栏
▁第三国
▁截然
▁分隔
▁大结局
▁水井坊
▁1550
▁生长发育
▁义举
▁大刀阔
▁韦德
▁标称
▁获颁
▁饮茶
▁几倍
▁上课时
▁高票
▁天方夜谭
▁难事
▁北极光
篆
羞愧
存款
▁跳桥
▁总工
▁配比
▁晋宁
▁建筑施工
▁阿克
▁邓超
▁中国国防部
▁star
▁底薪
▁俄政府
▁转制
▁审计长
▁办税
飨
▁哪款
▁姑姑
▁ag
採
笠
▁下注
▁个体户
▁大堡
综
▁怨言
▁传世
▁守门
▁永利
▁黑色素
▁波罗的海
▁访问期间
▁exo
▁多篇
▁脏乱
▁横县
▁方阵
▁金九
▁5.26
之下
▁处女作
▁多宗
▁发放贷款
▁1.22
▁古堡
▁太行
▁辅以
▁进补
▁不系
加尔
▁二十五
线索
▁母语
▁正式工
玛丽
▁国务院参事
fl
掣肘
▁pop
▁凉水
▁卸货
马尔
啪啪
▁立陶
for
商务
▁三星公司
▁万例
▁流拍
▁工程车
▁15.7
▁金库
▁神似
大赛
▁半场
▁消解
▁一大笔
▁岳飞
文斯
▁桑巴
▁遗漏
▁十三年
▁善文
▁顿饭
▁逼停
▁献花
▁新科
▁汇入
▁体育场馆
▁鉴赏
▁7300
逼人
▁801
▁信众
▁溺爱
▁无菌
▁两用
▁大灯
▁咬牙
▁保温箱
▁呼市
▁传播者
▁编组
工商局
▁12.1
▁爷
▁冠名权
edo
▁忠告
▁商业贷款
▁珍视
▁恰恰相反
▁撒哈拉
▁甚广
▁凝结
▁静静地
▁德曼
▁神经元
霸王
▁正道
少年
▁缺斤
▁458
▁称王
▁麦考
▁预付费
▁东南亚地区
▁作法
▁遗落
▁不向
▁差异性
▁企及
▁电子版
▁扫射
▁新生报
▁省吃
▁面色
box
▁次之
▁首枚
▁办医
▁合生
▁上海贝尔
▁人工呼吸
▁盖房子
▁负伤
▁核泄漏
▁强盛
▁填满
▁石板
▁劲儿
▁激动人心
▁亏损面
▁顺路
蚤
▁新墨西哥州
档案
▁亲王
▁过敏性
▁提前完成
感觉
▁新兴国家
▁消费力
▁大叫
▁研修班
▁三房
▁选拔赛
▁富平
▁文化路
▁格雷厄姆
▁蒙特
▁掉以轻心
▁闪购
▁手刹
▁中东欧
▁新地
▁份量
孀
青山
▁交通堵塞
▁2024
▁清真
▁无照
▁近百人
▁造船厂
▁巨腐
▁镇静
所欲
動
▁河东
▁费尽
▁导流
網
▁体测
▁八百
▁消委会
▁五华
▁断层
▁朝向
▁核动力
▁履
▁朱元
▁学弟
▁外币存款
制药
▁原貌
▁表演者
▁遗存
▁英法
▁金平
▁水磨
▁浴巾
▁领跑者
▁补习
▁份儿
▁圆仔
▁该病
▁alex
荃
▁解放思想
▁触觉
惊人
▁绝地
▁因无
▁监督机制
▁诺曼底
理事
热情
▁盘算
财务
▁被疑
▁压减
▁木制
▁下移
▁1940
▁苦读
▁数据线
▁与会代表
▁冠亚
▁吴秀
▁游客量
▁朱德
▁军校
芦岛
▁脚印
▁农林牧
▁美好生活
▁我妈
▁tm
▁应交
▁515
▁借读
显著
▁毕业论文
▁摘取
▁很想
▁节约用水
▁扫清
▁开药
蹂躏
▁资格赛
慌
▁两步
不公
▁低收入者
▁私奔
了解
▁舞动
▁警察厅
多得
▁感到高兴
▁正当性
▁染指
▁年出
▁厉行
▁吃零食
历史
▁对联
▁由衷
▁米栏
▁古田
▁荒地
▁体育锻炼
邵
▁扶植
▁心事
▁弄脏
▁结婚年龄
▁叫声
▁中百
▁如一日
▁受到限制
▁马云称
▁马赛
▁倒票
▁saas
▁凤城
▁中交
▁更重
▁电脑屏幕
兖
▁纲
▁深藏
▁跌出
▁任一
▁378
补丁
钗
▁前提条件
▁责骂
▁企业法人
▁除尘
▁远征
▁小子
▁吓跑
▁美少女
▁绿豆汤
秀华
▁自成
▁空子
▁平分
eek
自杀
▁gis
▁四平
▁骨肉
▁眼保健操
▁吴宇森
▁贩毒案
▁不如意
贩子
▁玛利亚
▁爱丽丝
▁第一课
地图
▁救助金
▁卷款
▁央企高管
▁优胜
▁直属单位
▁ups
▁面带微笑
▁工作餐
▁热带雨林
▁杂质
▁行为准则
▁核弹头
▁大肠
▁岳阳楼
▁身形
律师
▁啥时候
两国
▁约翰内斯堡
▁北洋
▁瑞郎
▁科恩
▁姚木根
▁张雨
▁粉碎性
▁齐鲁晚报
▁五万
▁借此机会
口岸
上门
▁抓狂
▁纪工委
▁广州火车站
obile
▁冲抵
▁新材
▁资料片
斯卡
▁慢牛
▁病友
▁巡逻车
▁笔名
所在
▁戏水
▁第一辆
▁818
▁睡美人
▁松口
▁涉税
▁林州
▁马达加斯加
▁贴切
▁无形资产
▁亲口
▁多难
▁七折
▁通货膨胀率
家坝
▁武胜
▁短命
▁没拿到
▁合租
▁善行
▁奇景
▁试衣
诺夫
▁曹鉴
▁362
▁蛮横
▁越多越
▁客站
▁日薪
▁消化道
▁停留时间
▁硬汉
▁党代表
▁百亿美元
▁购价
▁劫持者
▁讲授
▁七名
伦比亚
▁初夏
▁干过
▁瘦弱
▁新居
▁省时
偌
▁显性
民资
у
▁1.74
▁卖艺
▁考核办法
▁抗洪
莓
▁信用等级
▁水道
▁网格化
▁全国人民代表大会常务委员会
▁不要紧
▁古村落
兢兢
▁人口总数
▁广告业
▁吃点
▁新开通
▁停火协议
▁416
▁挂帅
▁行且
▁457
▁近千
▁别处
▁新闻人物
▁恒温
▁渐远
▁有条不
▁考勤
▁风云人物
▁就地
▁分界线
▁烫手
▁课目
▁全身心
▁名是
▁救活
▁三段
▁拉齐奥
▁邻居们
▁授意
▁亲和力
▁遇阻
▁同时在线
els
相处
▁正式版
▁映射
▁普天
▁大闹
▁中约
▁渡轮
▁王位
动摇
▁决断
▁四百
▁米粉店
▁龙光
▁吴起
箴
▁玩电脑
▁一马
▁走软
教委
▁往前走
▁手机芯片
▁数据服务
▁有机肥
▁助教
▁摇钱树
▁好听
汉语
逛
▁碎裂
▁调运
▁sci
▁基线
▁银行账号
▁主妇
▁狼性
▁千分之
▁三洋
▁炎黄
姐姐
▁多角度
珉
▁做实
▁尔克
▁各有不同
▁空投
▁多用户
▁绵绵
▁自由度
▁重拳出击
▁燕山
▁负载
▁双边贸易
▁竹林
▁刀锋战士
▁吃不
▁fed
▁玩意儿
▁表示遗憾
▁十日
▁废渣
▁朱立
壤
之心
▁肤
▁一堂课
▁砸死
▁酸辣
▁仪征
▁眼角
▁贴合
▁359
估量
▁聚力
▁英亩
▁学学
▁编撰
锢
▁地站
▁实践经验
▁李氏
▁罗村
▁11.7
▁代省长
▁生产率
▁新添
▁红烧肉
▁欺凌
▁奋进
▁金地
▁无为
▁来路
▁无罪释放
▁受限制
睬
▁舞剧
▁多事
▁青壮
▁育龄
▁看不下去
▁六人
▁急跌
▁刚一
分歧
▁面瘫
▁黄沙
▁消防通道
▁地市级
▁科伦
▁出生证明
▁巡回赛
▁表达方式
▁民主党派
▁本专
榄
▁寄存
▁电话卡
▁全貌
▁387
年华
区别
▁搜房
▁表姐
▁净网
▁新疆自治区
兆业
▁邓伟
▁弹射
▁护渔
▁阿诺
▁金丝猴
▁港珠澳
▁液态奶
▁绝不允许
▁两方
▁止血
▁民告官
▁自恋
▁天天向上
▁淘米
▁屈原
▁类股
▁反复强调
▁成杰
▁年华
戲
▁涂装
▁费力
无事
ena
▁秋粮
契
▁鸡冠
▁回族
▁sos
▁比亚
▁fb
▁侵案
▁辛劳
▁乌托邦
▁不给力
▁单薄
▁农房
▁强刺激
▁锦州
▁鼻梁
▁管区
▁开炮
▁罗丹
▁347
▁明德
水市
▁大房子
▁空载
▁优秀员工
▁红斑
▁八路军
▁割伤
▁圣火
▁房费
▁井口
▁推陈出新
▁消毒液
▁文成
▁抵京
▁张亚勤
▁小病
▁赶着
▁挫
▁公牛
▁海东
▁卢卡斯
▁设限
▁天气晴朗
▁内一
▁区别对待
▁自知
▁吉野
^
▁摆地摊
▁深圳大学
▁韩裔
▁近万
▁斯克
▁哈大
▁独家报道
▁很感兴趣
▁门牙
▁一通
▁已降
▁侧重于
▁恐慌性
▁金寨
埔
▁胡说
▁问起
▁吸气
▁上万名
▁实际效果
▁酒会
▁经期
▁定型
▁金针
gr
▁歌剧院
▁bar
▁1.24
▁特色美食
▁平仓
▁十次
▁讨回
本位
▁包办
▁风雨无阻
▁不要脸
▁int
枢
▁博斯克
▁作何
▁播音员
▁群中
▁冷鲜
▁关系网
标志
▁勤工
▁准予
▁另一端
▁大步
▁难懂
▁哈根达斯
▁道教
▁大闹天宫
▁偷情
▁加减
▁icloud
▁设计图
▁残奥会
▁线性
▁水煮
▁犯罪集团
▁妥当
▁主导权
▁售票厅
▁护卫队
▁司法部门
▁成才
▁养父
dma
▁古天乐
耍
癣
▁空虚
箍
▁双降
▁封测
摞
▁在座
▁消保委
▁建筑风格
▁动听
▁生力军
▁pdf
ari
▁强省
▁参谋长
▁转接
▁步子
▁有增无减
▁彩旗
▁一流大学
▁日本公司
作为
▁拉走
▁19.5
▁hom
▁刺客
▁国有经济
▁枢纽站
▁脑血管
▁夜生活
▁半挂车
▁杨丽
▁第三家
▁古道
▁五日
▁黄晓
▁自重
▁韩长
▁直邮
▁插头
▁人口密度
▁押宝
▁1.08
▁医疗事故
▁失禁
▁学术期刊
▁这帮
扩
▁张裕
▁全科
馈
go
▁发掘出
护士
▁仙桃
▁亚尔
▁怒火
▁骤减
▁索引
防部
▁陶然
螨
▁成风
▁问路
▁红外线
▁佩里
▁哈文
▁源代码
▁名模
盒子
▁吸水
▁监护权
▁rh
▁空位
▁女白领
▁杨树
▁蚊香
邮票
▁弗雷
▁刘少奇
▁小看
▁王新
▁无产阶级
▁舒心
▁陈柏
▁摄影机
▁飞奔
▁操盘手
▁一二三
▁神兽
▁有价证券
滦
石化
▁hd
▁那英
▁细看
▁风云榜
▁委办
▁刺破
奈尔
▁研究生院
▁资金流
▁赤道
▁四川长虹
▁换届选举
而入
天荒
▁学术交流
ney
▁女优
▁研制成功
天日
▁逐月
▁罗德里格斯
▁293
▁赖以生存
▁卡纳
美剧
信心
▁昏暗
▁变差
▁太深
子军
▁北疆
▁浓密
▁老年公寓
▁负责管理
▁开朗
▁中坚力量
▁重要环节
▁太忙
▁叶梦圆
▁算盘
▁分析员
▁airbnb
▁安大略
▁王敏
▁死刑犯
▁资产负债
va
▁共舞
▁亲密关系
▁二维
▁残疾儿童
▁宁杭
▁遗传学
大楼
▁太有
尼斯
▁那般
▁户籍地
▁男孩子
▁百货商店
▁女博士
▁金融城
▁实践证明
▁落脚
▁弗兰克
▁变味
▁第一集
▁断章取义
▁林志
▁退让
▁宿松
▁红颜
查明
▁小阳
▁软卧
▁技能型
▁空话
▁特设
▁忧患
▁钻研
▁863
▁几处
▁首趟
▁理工科
▁406
▁困难户
▁防总
认真
▁大力神
▁百大
▁暴发户
▁胆量
▁全通
▁成百上千
▁1.16
之王
▁继续下去
▁七七
▁仍待
眼镜
▁人想
▁希腊政府
▁兼容性
祭
▁碑林
▁雪中送炭
▁删档
110
▁著名景点
▁加德满都
▁前路
▁资源型
▁838
▁网瘾
▁万欧
▁张一
▁入榜
鳕
▁金字招牌
▁357
▁陕西省政府
▁人机交互
▁所作所为
▁调换
▁迁建
▁心灵鸡汤
▁声乐
▁伴娘
▁霍启刚
▁相仿
▁保守党
▁表示慰问
▁胆小
▁冒领
嫡
▁爱河
▁小白鼠
▁一天天
▁自控
系列
ela
▁有雾
▁只靠
伯格
▁个贷
▁只限
▁603
▁牙签
▁港务
演习
▁乙型肝炎
▁开明
▁击倒
▁拖走
▁疗养
附中
▁陈宝成
▁并非易事
▁删去
▁板车
▁小羊
▁假定
▁骨感
▁各科
▁检视
袄
服饰
晰
很
▁误传
▁依宪
▁青椒
▁征召
▁方兴
▁四代
谋部
▁没完
▁恋上
▁信息库
临灭绝
▁探矿权
▁网聊
▁很近
▁告状
▁徐克
里区
▁水落石出
▁无线网
▁文库
▁碰壁
▁唐岩
▁女厕
▁油库
蔻
▁名镇
▁零头
▁重开
▁第一手
商品
▁花果
▁粮仓
▁民事案件
▁三厢
▁草药
▁山崖
多彩
▁萨雷
▁政治体制
▁歧
公署
生生
▁利税
▁da
▁望江
▁洗发
▁猎户座
▁化学成分
▁站岗
▁清净
▁一千万
▁安菲尔德
▁裂纹
▁还击
▁塔吊
▁郑洁
▁贬低
▁砍价
▁点钞机
▁战事
▁全高清
▁0.01
▁有机物
蔡
▁玩过
▁气泡
▁布达佩斯
▁拉加
▁第三种
▁国家档案局
指南
昉
▁施暴者
▁等离子
后果
▁计算器
▁门上
▁西餐
▁万金
▁梁家
▁肾功能
行星
▁关山
▁久远
▁认可度
▁公共事业
ama
▁杨红
▁光靠
▁剪断
愛
▁陈凯歌
▁第一口
▁三十多年
▁隔开
▁石头砸
▁没戏
▁天鹅湖
▁投放市场
▁被关
摹
▁德育
▁自称为
▁畜牧局
▁实训
▁武鸣
▁分清
▁不稳
▁更胜
▁离别
▁hi
▁收音机
▁rom
水电
▁心力
▁发射器
▁没多
▁军事力量
▁临海
▁糖酒
▁正局级
▁拉网
▁狠刹
▁七次
协和医院
▁天上掉
▁未作
▁脏水
▁顾名思义
▁nh
▁整装
▁大开眼界
▁hp
▁电影局
▁脸庞
▁警匪
腋
▁陈豪
▁知觉
▁1299
▁纳斯达
▁韩星
了钱
▁爱女
▁微单
▁数百米
▁贸
▁2035
▁李鬼
▁补考
▁虹桥机场
▁联盛
女儿
▁汕
▁碰巧
▁抓到
▁美国会
为己
瑟瑟
美人
▁成熟度
▁荒野
▁整年
▁公路交通
▁廉署
▁趁早
▁澳新
▁做菜
▁会客
▁认养
▁王刚
▁连载
▁情愿
▁性伴侣
▁肉品
▁套件
▁丽路
▁多省
▁追剧
▁13.1
▁王中
销售
▁文艺界
▁森马
▁打头
▁金顶
▁熙
▁总的来说
▁稀饭
▁经不起
▁辽阳
▁灭顶之灾
▁力拓
▁马可
▁公家
▁圣路
▁召集人
▁易捷
▁赔本
▁现房
▁魏桥
▁幸运地
▁配资
▁粤港
▁加工点
冼
▁拍照片
▁四川省政府
▁割裂
▁走过场
▁产业界
瑕
▁价高
▁补选
▁逆境
▁脚本
▁扣款
▁纳西
▁试纸
▁九家
▁豆腐渣
▁几类
▁农科院
克雷
▁江滩
▁中华文明
▁珍宝
▁兽药
艰巨
▁小型车
▁黄梅
撂
▁听歌
fa
风骚
▁体育类
▁老鹰
▁便民利民
▁1939
▁期将
▁1928
▁鹤壁市
▁花炮
▁受伤害
▁经济性
为平地
▁麦德姆
▁绝美
▁发自内心
▁太白
▁埃森
▁辞掉
▁一厅
劾
▁密布
▁陶醉
▁警务室
▁史实
兰芳
三十
芍
▁跑腿
▁越界
▁履约
之一
▁友好合作
▁害人
▁小型企业
▁拿破
▁二奶
▁刘迎霞
▁之梦
▁图雷
▁家养
▁乌苏
▁会致
▁七项
▁gmp
▁置之
首饰
▁欠账
▁任前
▁长园
▁跪求
▁王蒙
▁席勒
▁首辆
▁此时此刻
▁古刹
▁鸡尾酒
▁破坏神
▁最高分
▁防城
▁草场
▁验钞机
▁il
停车
▁开了个
▁新港
▁第十三次
峦
▁泡汤
▁连撞
▁北半球
▁种下
▁花店
▁之用
▁322
▁总务
拿地
▁社会活动
▁布鲁斯
▁非常复杂
▁汽车票
▁别无选择
▁大大减少
▁更广
▁狼来了
■
▁视窗
萨尔
▁福山
▁max
▁紧握
▁种植区
▁三桶
▁求真
▁谢罪
▁一两天
▁危化
▁吴彦祖
▁房展会
▁fta
▁同班同学
▁广西大学
▁原住民
做法
▁真皮
秋生
▁七分
▁福尔
▁澳门大学
▁太阳岛
▁七匹狼
▁电解
台山
▁燃油费
▁麻城
▁模拟器
慵懒
详
▁大饭店
学科
▁各项政策
▁京杭
▁重奖
▁入局
▁永磁
▁自酿
▁开展批评
▁先救
▁六千
▁泛滥成灾
▁加拿大政府
团结
▁潜水器
▁两周年
▁洪流
胜利
▁宣城
▁杭长
各国
▁自给自足
▁不限
▁上品
瓢
▁年春
▁民盟
▁挤兑
▁八角
▁尚志
視
▁尽孝
▁抱头
▁何不
▁自然生态
▁舒尔
▁川航
▁鸡血
▁信不信
▁短程
▁金正
▁吴小
▁otc
▁博时基金
▁导报
▁机构调整
▁很受
签证
▁赵普
场所
▁服装行业
▁姚劲波
▁帕特里克
▁专科学校
米拉
華
▁1914
▁致谢
▁手链
▁暴恐案
▁短跑
▁某处
▁有多远
▁勾引
▁想开
▁顶上
▁痛斥
▁堵截
▁339
▁勤务
▁错配
▁cosplay
員
▁申请专利
它
扶贫
▁失手
▁行善
▁极值
▁爱迪生
▁斜坡
▁验货
▁河床
▁马先生
▁野性
▁米外
▁379
▁及格线
▁暴乱
▁特展
▁李显
药性
▁报喜
▁te
▁挂科
▁情绪低落
不得已
▁程式
▁历史数据
▁羊群
海湾
思维
▁认同感
▁奥马
▁低息
▁给与
▁私生子
▁高福利
▁继承者
▁18.9
▁破坏力
▁推入
▁虚拟世界
▁行之有效
▁1.88
▁你会
▁张亮
天气
▁俗语
妾
▁壁虎
▁中档
▁14.2
▁最前沿
▁科研项目
▁平局
▁仅供参考
▁感谢信
法律
▁工会主席
▁盐酸
▁应得
▁泡茶
▁高血
▁武装部
▁468
▁泥巴
yt
▁想见
克力
▁胆囊
▁备案制
▁赫本
▁根部
▁标兵
▁某县
▁海康
节奏
砳
▁632
▁修订版
▁生态旅游
▁假发票
▁书画家
城镇
▁白鹿原
▁从头到
▁保管费
▁钢针
▁事变
协警
掘
▁门派
結
▁闲逛
▁346
▁宣传单
▁灵长类
▁六号
β
▁间歇性
▁人间蒸发
igh
▁奋发
▁高开低走
▁cx
▁高层领导
▁增加一倍
▁山间
yl
▁招聘广告
▁奥兰多
▁代客
▁避免出现
▁相辅相成
▁医闹
芷
▁除名
▁南投
▁坐地
▁新华字典
▁选择题
▁万支
▁八名
▁豫园
▁朱清时
▁依法办事
▁冒犯
税务
▁商业行为
▁20.5
▁示范点
▁别急
说法
▁总司令
sk
▁双星
▁猪头
▁无边
▁冠军赛
▁残缺
cel
▁瘦肉
▁难听
ld
分局
▁冯绍峰
▁竭尽全力
▁会务
▁巧遇
恬
▁陷入僵局
▁amazon
▁mr
tf
▁阿什
▁小伙儿
▁一堵
▁参赞
▁斯洛伐克
▁课桌椅
▁狠心
▁转债
▁废话
▁358
▁陷于
▁人事档案
▁脱北者
▁小船
▁展望未来
▁托起
▁饭盒
▁水洗
▁抚仙湖
▁1.58
▁运走
▁禁放
翻译
峯
▁筹办
表决
药物
▁火车头
▁水星
▁诱奸
协议
▁启事
▁不对劲
▁佛州
▁锻造
▁ti
▁独处
▁皮质
▁风车
▁404
郑
▁周总理
▁狼图腾
▁易车
▁飞虎
对待
方正
▁赤壁
▁负有责任
圆形
万强
▁正当理由
▁战败
损伤
▁行规
▁0.13%
▁果敢
▁少华
▁盛松成
▁新衣
▁病理
得起
▁亲水
▁绿树
之举
▁农用
▁长岛
▁水运
▁格尔
▁购书
▁监事长
▁获发
▁富家
▁推卸责任
▁高音
▁遇到困难
▁棍子
▁701
▁汇控
莱士
石器
菲尔德
▁花上
▁说声
▁粤西
▁奥飞
▁热饮
▁封号
▁干部带头
▁非盈利
▁彭德
▁ctr
▁吞并
▁会员制
苞
龈
▁偷袭
生子
▁中轴线
▁尼古拉斯
▁灌木
▁鱼刺
▁兴奋不已
ady
之急
▁大不了
▁取信
▁罗琳
▁稀缺资源
▁诺言
▁该条
▁游行示威
▁轻工
▁白金汉
▁里头
▁意境
▁海防
▁天网
▁加湿
▁抢镜
▁储运
▁商船
▁一区
▁喜大普奔
▁off
切尔
▁阳光化
▁抛光
▁国防大学
▁加在一起
未来
▁适应性
▁mpv
▁优越感
▁华师
▁献唱
世代
▁严交规
▁四面八方
▁jo
▁李小琳
ara
▁开灯
▁12321
▁推土机
▁强队
▁每季度
▁配乐
▁数不清
▁计较
▁大龙
▁种树
家庄
▁发威
▁张继科
▁正由
▁代行
▁人太多
▁技术开发
▁赛诺
▁小村
▁起名
▁不为过
▁九连
▁听不懂
▁陈光
▁磁带
▁趋同
▁大卖
▁相逢
萧
▁青年教师
▁紧贴
▁超配
勒姆
▁波拉
▁从未有过
▁无纸化
▁指为
▁为省
▁478
▁直升
▁必考
▁飞鸟
▁丝带
▁附图
▁做做
▁cmo
▁汉王
▁心安
▁增长期
▁冰上
▁国行
▁英明
ouch
▁金融债
大国
不知道
▁水火
▁雪人
▁现货交易
▁袁仁国
▁玻璃幕墙
▁家新
▁用词
hi
▁田学仁
▁收容所
▁政治学
▁青花
▁史努比
▁裸眼
▁演戏
▁政协会议
▁确定性
▁奸杀
▁张毅
▁独裁
▁贴现
▁任组长
▁胡万林
英尺
▁456
▁致哀
▁工业污染
▁李健
功夫
▁爱丽
▁穆帅
▁滞涨
▁电信服务
▁保命
▁331
▁cia
▁投票率
▁未尽
▁炎炎
▁挣得
▁双料
▁尔斯
▁极其重要
▁副业
▁粉饰
▁mlf
▁中国地
▁泊车
▁体贴
▁364
▁打气
▁faa
联系
少女
▁合体
翩
▁推销员
▁温度计
▁骤停
▁全英
▁最靠
mw
▁斯皮尔伯格
衰竭
▁斯图加特
▁南岗
▁语句
领袖
▁里程碑式
▁统治者
珊瑚礁
▁1.18
思路
▁连绵
▁先兆
▁总结经验
▁基友
功率
理论
▁四区
▁朱云来
美女
▁案卷
▁人买
▁新干线
▁石子
▁科幻片
▁维特
▁东方红
蓥
▁花木
妇女节
▁孟凯
▁报警器
▁好样
廿
▁住在一起
▁棒棒糖
▁全权
▁撒手
▁有功
▁首映式
法规
▁抗灾
▁出人
▁明城墙
▁客气
▁五代
▁不涨
▁爬楼
▁关灯
▁讯号
▁货运量
大于
动机
▁丰胸
痉挛
▁幼教
▁get
▁独克宗
▁行道树
▁外设
▁领头
▁街机
▁2250
▁冲锋枪
道夫
▁随处
▁布里斯
筵
▁隐隐
▁oecd
惭愧
▁漏电
办公室
▁受苦
▁海区
▁承受力
▁现金支付
▁抽打
▁熊胆
▁拜师
▁次要
▁取胆
▁金丰
▁施华洛
起点
▁质变
对空
▁水底
哼
▁车开
▁海牙
▁伤医
▁吉普
仓库
于世
▁斯诺克
▁丘吉尔
▁气得
▁二十世纪
▁小圈子
▁倒查
▁可逆
▁国药
▁super
ft
▁中核
▁共处
陆军
▁命脉
▁半岁
▁很早
视频
▁心有
▁朱丽
▁分得
▁代市长
▁德银
▁乌坎
ql
▁徐翔
▁有氧
▁同校
row
▁受孕
▁诺亚
▁自办
▁批评者
▁游击
▁最出色
▁足协杯
性恋
▁第四年
▁纳斯
气候
▁风流
▁仇富
▁大学排名
▁插上
▁红卫兵
▁修饰
遥法外
▁mon
▁易拉罐
▁rt
▁波尔多
▁血友病
击机
唠叨
▁华南虎
▁四省
萦
朕
▁景洪
▁水灾
▁擦鞋
▁合集
▁被叫
▁朱军
▁威立
眸
动脉
▁调查过程
▁续作
▁传遍
▁云海
▁茅于
▁家当
▁李鸿忠
收支
▁解决之道
▁杀鸡
▁剑网
▁千古
亚尔
▁八连
有限
▁爬树
▁未达标
砝
▁受雇
▁大明湖
▁总成本
▁731
▁本菲卡
▁院系
▁承保
▁独立思考
▁数百年
▁毒瘾
▁财政司
▁教主
▁手牵手
▁学过
作物
乐队
▁猎鹰
▁蒙古族
▁联创
▁立德
▁冬奥
▁黑金
▁摆着
▁溺
▁初裁
▁联邦调查局
▁蒋经国
馬
▁博士论文
▁职教
▁井水
▁五常
▁凤凰山
▁象山县
▁木兰
不利
▁深爱
▁多用途
▁创造者
▁应试
▁808
▁刀伤
斡
▁种田
▁免遭
▁联邦快递
м
▁青海湖
▁小三
▁两片
▁边玩
茸
▁海娜
▁所欠
兰特
▁联接
▁室内空气
▁心路历程
厕
▁田亮
▁吉大
▁还须
▁张伯
▁泰斗
▁工党
委书记
▁对台
锦赛
▁表观
▁英足
▁女权
▁塔吉克斯坦
孽
▁地平线
▁试车
▁集权
▁删减
▁优先级
▁17.8
▁女同事
▁易中天
▁泡沫化
▁精神压力
▁走下坡路
▁南溪
▁三防
图片
磅礴
▁角落里
▁活到
▁难堪
▁雷神
▁缘起
▁尖子
▁丽莎
加斯
▁17.6
工厂
▁两性关系
▁抓住机会
▁按日
▁1.38
▁男厕
▁说来
▁348
▁人向
倒闭
▁念书
▁乌干达
▁领土问题
▁采油
▁公务舱
▁纯洁性
▁乏味
宾馆
▁平反
办公厅
▁6124
▁换帅
躬
▁巩义
克萨斯
▁遥遥无期
▁减慢
▁女患者
▁剥削
▁下毒
▁夜场
▁娃娃鱼
▁洞察力
▁1918
▁发展部
▁人工湖
▁活人
▁浮雕
▁胜算
▁卫生防
▁过问
▁唐良智
▁施耐德
崎岖
▁建德
▁吴川
▁割肉
▁人教
▁8400
结束
▁从那
盹
▁荒山
▁动迁
▁龙应台
▁国家专利
▁参赌
▁张爱玲
▁翻版
▁教学质量
幕后
▁计算方法
▁做不了
▁拆卸
▁老舍
▁第二任
▁泳衣
▁或能
▁掉色
▁徽章
▁外储
▁陷害
▁安卓版
▁上校
▁不足为奇
▁步调
▁炮击
▁星爷
▁炉石
▁敢死队
带血
▁新闻自由
▁延吉
▁叛徒
▁505
▁脱鞋
▁管不了
搜
▁连结
▁立二
▁古村
▁志军
▁医大
▁下铺
▁击碎
▁区划
▁王府
▁因人
▁服务供应商
▁无能
▁军备
▁吴仁宝
▁借债
▁期望值
▁人口数
▁合龙
▁意念
▁五花肉
▁便当
▁应战
▁正确方向
▁家畜
▁农业厅
▁几百个
睢
▁售票员
▁保持沉默
▁749
▁麦迪
▁小新
龄化
▁砸毁
▁面朝
▁禁酒令
▁不定
▁正确认识
▁迷奸
▁日复
区域
▁重提
▁降速
▁变压器
▁一闪
惹
▁鞋厂
专利
鳗
▁冰雕
▁切莫
娱乐
▁1750
▁走开
▁字幕组
▁独行
▁意志力
▁炸毁
特斯
不前
▁德普
▁695
▁地理信息系统
▁六周
▁和平解决
▁628
▁无损
▁保护性
▁黑眼圈
▁堵点
▁问诊
▁贝塔
▁捐钱
▁专题片
▁一月份
▁回家路上
▁其时
▁新四军
▁心血管病
▁史蒂
▁ha
▁大谈
▁金饭碗
▁达维
▁经合组织
▁越少
付款
▁杀掉
▁陈道明
气管
▁斯旺西
▁史学
▁奖惩
▁发回重审
▁鱼苗
▁百丽
▁神剧
▁大兴安岭
▁约克
▁李书福
▁撤并
▁得体
▁微风
▁海西
▁公债
中天
▁耳边
议院
▁贵在
▁公民权利
▁排挤
密度
▁第二十二
▁烂片
▁020
▁戴眼镜
▁下会
▁造富
▁伊坎
▁仿照
浠
▁朴泰
▁诺斯
ase
▁大红门
▁冠王
▁借助于
王国
▁价齐升
▁足浴
▁索菲亚
纤
▁廊道
▁派系
▁332
▁塔塔
▁超日债
义务
▁污点
▁每一件
赊
▁俄罗斯卢布
▁个人主义
▁评语
▁业委会
▁养女
毛钱
▁二十三
▁贺州
▁抢钱
▁草皮
▁战队
▁凯尔
▁之恋
▁快船
▁坐垫
▁迎头
▁家宴
▁402
情局
▁坎贝尔
▁被绑
▁大灾
▁熊出没
▁自动售货机
▁康菲
▁德意志
▁ms
▁三份
▁非得
▁取悦
▁心烦
▁运营者
▁电磁炉
▁加速度
▁口令
▁师徒
▁涌进
▁因果
▁冒名
▁喝上
臃
▁唐尼
传播
地位
强险
▁亨特
▁路牌
▁在技术上
▁日剧
▁苏泊尔
斌杰
▁陈宝
▁这货
▁病倒
不全
闻名
▁临终前
▁稻草人
▁自付
▁需花
沙漠
▁即兴
撰
▁大旱
omo
▁分心
▁七座
▁342
▁吃不饱
▁信教
▁美联航
耿雁
▁稿费
▁没听说过
▁第一类
▁为重
▁正轨
▁格格不入
拜仁
▁道格拉斯
减轻
国旗
▁结肠癌
▁微不足道
签名
捶
▁意大利人
诃
▁个人身份
雷军
▁中青
▁婚期
▁西夏
▁增派
立方米
▁阿特
▁兄弟会
▁徐孟加
▁两条腿
▁公共部门
▁烤箱
▁骑兵
▁紫禁城
▁担负起
▁采石场
廉政
▁工资单
▁树脂
▁当量
▁paypal
▁侵扰
▁飞快
▁脚踢
▁射中
▁曾志伟
▁真想
▁出生地
西斯
▁台军
其为
▁遭人
▁张曼玉
▁大扫除
间盘
▁喝点
▁抓住机遇
▁001
▁发表意见
龄童
▁难吃
▁电视节
▁保价
▁正当防卫
▁援藏
▁百亩
▁完婚
▁违规者
▁真格
▁想一想
▁素描
▁性工作者
▁潜意识
查处
商城
▁制备
▁李云
▁随心所欲
▁凉鞋
▁大摩
▁隔断
▁蔡依林
▁711
▁人力资源部
▁乌海
▁陈欧
▁塞车
▁空房
▁滞
▁天明
组长
▁飞入
▁原形
参观
▁大刀
▁要带头
▁涉恐
▁兰溪
▁打伞
▁六省
▁漂移
▁余生
▁超跑
▁可用性
▁麻黄
坳
▁466
▁碳水化合物
▁后花园
▁储物柜
▁滑向
▁女服务员
六甲
▁边民
▁增重
▁紧迫感
厝
务员
▁文艺复兴
▁拼图
▁中枢神经
▁一箭
▁要职
▁民革
新立
▁台湾同胞
▁服务台
▁画师
▁犯了
▁悄然兴起
▁食疗
▁有利条件
▁生财
▁物色
▁共振
▁郑智
▁24.5
▁里斯本
▁市场趋势
▁币值
▁跌价
▁各自为
▁不用说
馏
▁超级大国
▁怀特
▁走后
▁谍战
▁玻璃瓶
▁截访
▁预付款
▁防备
▁阿什利
▁大幅度提高
▁才子
▁cam
▁宿命
估
▁奥康
▁生理学
▁凌空
▁报答
▁更近
▁汽车城
▁流亡
▁漏斗
▁忘带
▁萨克
▁伏尔加
▁嫁人
成熟
▁恶果
▁htcone
▁黑点
▁黑山
▁vi
▁高收入者
▁防暴警察
▁自考
▁中电投
▁动卧
▁盲道
▁xxx
▁交易者
▁张育军
▁一长
▁未向
▁较慢
▁终裁
▁367
共振
▁保安人员
▁归零
▁调仓
▁生产工艺
▁下一场
雷拉
▁普跌
還
▁微粒
▁笔迹
▁君联
▁图谋
▁天文学
▁长途客车
▁墨西哥政府
▁彩灯
▁站不住脚
▁赔偿标准
▁广珠
▁光通信
▁飞虎队
▁上个
拉克
▁泡脚
▁合情
▁反服贸
英里
▁学童
宫产
▁轿子
▁花花公子
▁查分
▁二月河
▁华星
▁疏漏
▁党外
▁不老
▁缔结
关心
▁二代证
▁科特迪瓦
▁不平
▁火影忍者
▁行尸走肉
▁全域
▁九三
▁毒蛇
浩特
▁高露洁
ani
琵琶
轰
▁印刷版
▁千吨
▁char
▁传动
▁黄帝
▁中国教育学会
▁12331
▁大有可为
嘱咐
图书
▁硕鼠
▁中文名
▁司法部长
▁应予
▁2.16
▁四化
▁宵
▁回娘家
如画
▁武侯
▁he
▁省委党校
▁实话
▁九阳
▁三体
▁赞许
▁妻女
▁非传统
▁会合
▁指低
▁说成
▁电气化
核心
▁虚幻
▁在押人员
▁给人以
▁丧心病狂
▁法律文书
▁超能力
▁all
▁自力更生
纠
▁机务
▁保护局
毓
▁家长会
▁梁启超
▁令人遗憾
▁至死
▁初见
治疗
▁半日
内衣
▁责怪
厅级
▁每况愈下
▁抗氧化剂
布里
▁新闻节目
▁诱使
▁副台长
▁两国间
▁猛兽
王子
玫
▁扩音
▁摇身
▁绝密
▁辞职信
体局
▁小溪
▁自供
▁退位
剑平
▁惠农
▁行家
▁特种兵
高校
▁曝有
翎
▁北平
▁情况严重
▁湘乡
ux
▁柬
▁威华
于事
▁夏利
▁热得
▁康辉
▁自下而上
▁金融工具
▁试验性
▁稿酬
▁田纳西
▁张铁生
▁张家港
▁天府广场
▁实权
▁罗老
▁大港
▁andre
▁复制品
▁可燃冰
▁封死
现代
▁再也不会
▁435
▁笑傲江湖
▁外向
▁喂饭
之夜
▁苗条
▁教徒
▁神龙
▁建筑节能
▁剪刀手
国有
感染
▁犯错误
▁可食
实效
▁自然而然
▁林春平
▁解围
芭芭
▁可循
▁碰碰
▁恶名
▁暴动
▁零关税
▁冬眠
▁齐心协力
▁372
▁画册
▁死路
▁宜华
▁祭品
▁想得到
▁477
▁多些
▁讲讲
▁修订稿
▁挖空
▁比武
▁凭空
环节
▁说辞
▁隔音
预报
▁极为重要
啧啧
▁庄重
▁便民措施
▁中邮
舆论
马威
▁五部委
蝌蚪
▁旧衣服
▁同等待遇
▁吊桥
▁特色小吃
▁固执
▁急促
▁关键人物
▁曾俊华
▁数起
秘书
▁第一任
▁突出重点
▁503
▁表示满意
▁梦游
▁英语考试
▁时尚界
▁fdi
▁婚外
▁旧金山湾
▁退休干部
▁坐享
▁萌发
▁仙人掌
▁母狗
▁侨联
▁废铁
▁门道
▁槽罐车
▁聚合物
▁大陆架
地主
▁草率
▁木偶
馕
▁查抄
▁556
▁限外
▁私房钱
▁银根
▁汶
▁补救
▁尔德
▁吃海鲜
▁dd
▁食品机械
▁卡斯特
▁该法
▁黑卡
▁升旗
谟
▁飞龙
▁调理
▁sar
▁世博园
▁极限运动
▁表示祝贺
▁con
▁到岸
文献
▁专业培训
两院
▁良药
▁中港
▁伤身
▁菜油
▁448
▁出处
▁后宫
▁仙子
▁sr
▁一试
▁正反
▁寿光
▁开曼群岛
歲
▁二八
达州
▁领航
蛾
▁428
▁联会
▁亿欧
wan
▁偿还债务
▁要涨
晓峰
▁退换
▁罗阳
▁定西
揍
▁太好
▁全免
▁密室
▁美俄
▁遣送
▁家族式
▁宏源
▁修成
囹圄
▁骗过
▁gx
▁wor
▁十二生肖
▁不在意
▁病态
▁安详
▁超高速
镂
▁回旋
▁华新
▁承重
▁柔道
▁心急
▁起重机
▁烧烤店
▁盲点
ui
▁振幅
▁形同
铿锵
▁痛风
▁1380
舛
▁含蓄
▁登记证
▁可多
▁深刻影响
外人
▁费列罗
▁文化差异
▁鼻炎
▁526
▁存准
▁难寻
▁无人区
▁新面孔
▁夹带
自由
▁被诉
▁责任险
▁计算中心
侵
▁不介意
▁白骨
绿化
▁gap
汴
▁电路板
▁理清
▁吨重
▁西餐厅
▁冻伤
▁遗骨
▁测试版
▁一首歌
▁农信社
▁小天鹅
▁即以
▁赖床
▁邓肯
▁应先
▁四人帮
▁前向
▁万公斤
卯
▁牧羊犬
杆菌
▁弃车
▁充满希望
▁东平
监局
▁高技能
众议院
▁人人乐
▁胡晓炼
▁北航
▁4999
▁敌敌
▁谈过
▁太近
▁再续
输入
▁晚清
▁吸尘器
▁训斥
▁罗曼
立法
▁钢琴家
▁继父
▁专卖
▁调查员
▁国土厅
▁返京
▁ix
▁越南政府
▁数控
▁成绵乐
▁外露
中介
瓜子
▁蛋糕店
▁花车
▁弃考
▁爱乐
▁值此
▁日资
▁发飙
▁本草
▁436
不死
▁猛药
▁协调会
▁永泰
▁邦德
▁一阵子
▁性交易
▁3999
▁三思
▁皮下
▁可变
▁粉刷
▁直供
▁大湖
▁进屋
▁前额
▁cap
▁豪取
▁谎报
▁南宋
▁无影
饯
▁危险废物
▁宾得
▁泥头车
▁与世隔绝
▁第二日
▁特写
▁高人
▁加利亚尼
▁婚戒
▁新思维
▁香川
沟桥
▁偏方
▁娘娘
▁法律咨询
▁伞形
▁一再强调
▁创新奖
▁尚冰
▁新街
▁容忍度
▁市政厅
▁无车
▁星城
▁艰
▁五口
▁煤气中毒
▁向南
▁划清
▁波黑
▁松雅
▁疗伤
▁暑假作业
莘
▁宫颈癌
▁必定会
▁年鉴
▁恐难
▁恼火
头角
▁已能
▁埃斯
▁受压
▁第十九
憎
▁334
▁惧
▁富安娜
▁满足感
▁贝宁
▁暂别
妞妞
▁插进
▁476
▁流落
▁宗教信仰
▁三月份
▁流逝
▁超声波
▁近亲
▁全心全意
▁哪条
▁加税
▁抱负
▁现实主义
▁射手网
▁金婚
▁442
▁平滑
枷
▁嫁女
▁535
▁武则天
▁出山
缨
▁复合材料
万人
▁越南人
▁优先发展
▁古龙
颚
▁罗杰
▁第一所
▁万柳
▁迟早会
▁里德
▁投保人
交通大学
▁亲热
故意
民主
▁光山
▁相等
▁必拓
▁课后
▁入读
▁破烂
▁第五批
fo
▁暗战
▁2049
▁来时
▁武士
华堂
▁填表
▁奥运金牌
▁可罚
▁冷酷
最高法院
▁肠癌
▁626
▁大手
分晓
乳期
▁归入
▁唐英
▁paul
▁277
▁推力
▁galax
▁沙区
▁灵芝
▁斯泰
▁发展局
▁驻京
▁得救
▁邮递
可依
▁建党
▁发电站
▁罗平
▁过大年
▁古剑
▁14.4
南山
▁战警
▁双非
▁筑牢
▁天上人间
▁哈勒
▁扎进
▁玩乐
奥尔
▁504
▁两字
▁流感疫苗
▁护发
嘿嘿
胥
▁农耕
▁精品展
▁积极意义
▁债务人
▁萌翻
▁大业
▁吉卜
▁三严
▁一般而言
▁社会阶层
▁公海
孢
不雅
▁维和部队
马拉
邮箱
▁太好了
▁来过
▁何等
▁柳岩
▁高过
啪
▁中融
▁公司老总
▁弃用
▁几起
光灯
▁高声
▁完成学业
▁bus
▁轮班
▁台球
▁加拉
▁最穷
▁召见
井空
▁不妙
▁中国民
▁排期
▁打工仔
德里
▁频遭
▁艺术创作
▁防滑
哈哈
▁亲眼目
▁缩写
▁md
▁只管
演说
力学
▁十七届
邃
▁之窗
▁复议
▁金湾
▁最终目标
▁绝症
膊
▁潜质
▁比降
▁刘易斯
▁伙
將
▁丑化
▁解构
▁歌星
▁磨难
▁525
▁换血
▁前先
▁盐湖
勇气
▁家事
▁红眼
▁立法权
▁tw
▁南勇
▁紧紧抓住
▁三马
▁奥尼尔
▁热土
▁多夫
▁国际事务
▁六方会谈
氨氮
▁兴教寺
▁政治化
▁段落
▁网恋
▁规制
▁四胞胎
▁低落
▁彰
咄咄
▁学说
▁8888
▁摸黑
ros
▁鸡块
▁rx
纪念馆
鸳鸯
▁勾画
▁定档
▁一毛钱
▁财宝
▁语种
▁耶路撒冷
合板
▁孟非
▁高密度
▁元代
▁银发
▁托付
▁澳大利亚人
▁形体
▁老母
▁报上
▁紧要
▁吴虹飞
▁工商业
▁摘自
▁试金石
▁出力
▁352
▁无休
陡峭
▁素颜
▁茶文化
▁貌
所能
▁407
▁刘奇
▁无价
▁王建宙
▁动刀
▁开胃
▁喜忧参半
▁366
▁逊尼派
▁李旭利
▁人力资本
▁周到
▁阶
▁花束
志红
▁19.2
▁超音速
▁使用不当
▁433
▁贷款人
❽
▁释放出来
▁电玩
▁脑膜炎
▁手推车
开水
方形
▁南巡
易斯
▁夺刀
▁一去
披
▁城外
▁追击
▁都行
▁及时处理
▁把头
▁要建
▁东突
▁克里斯托弗
▁直购
▁鹰派
▁11.11
場
▁东边
▁充饥
过敏
▁信服
▁ld
▁翰
▁普林斯顿
▁方称
▁服毒自杀
▁时未
▁连休
▁禁渔
宸
▁九一八
▁示好
▁登基
▁冷血
▁卖血
▁安纳
▁选修
▁汉森
▁足球联赛
漂亮
▁选任
▁防范措施
▁几岁
▁光谱
一等
▁续写
▁小法
▁奥体
▁新化
▁渡边
▁开球
▁迎新春
▁人未
▁贵人
▁撤县
阶级
▁边远
像馆
▁激辩
▁423
颌
▁连胜文
▁下月初
▁牛初乳
▁或致
▁下意识
浔
▁服毒
▁食品质量
use
说是
共享
▁十万个
循环
▁耕种
▁缴款
▁割腕
理想
▁阿甘
▁庞氏
儿童
▁353
▁409
培养
▁北京日报
▁格鲁吉亚
▁服务生
▁世袭
为人
▁牧师
联盟
▁代际
▁日趋严重
▁口吻
▁婚变
▁避风
▁臭名昭著
▁筑底
▁制铁
倔
希德
▁风度
▁缝合
▁内尔
勿
▁摆乌龙
砍
▁半边
滔滔
编制
撕扯
▁阵列
▁烤红薯
▁贺词
▁字数
▁管理学
▁深沉
▁季后
▁隔绝
樂
国庆
▁奥尔
▁跌超
▁坠地
▁水力
▁回响
▁死灰复燃
fic
沦
▁地铁票
▁会师
▁伏特
▁八字
彪悍
睽睽
▁历史博物馆
▁童名
▁里斯
▁卡迪
▁新买
▁比值
▁犯罪率
▁以下几点
▁闭关
▁记名
▁电话亭
▁法例
▁被删
▁小女
▁敌意
▁罗氏
▁1.48
▁凯尔特人
▁徐敏杰
▁展播
葡萄
内政
▁躲藏
▁585
▁猫眼
▁麻醉师
汕
▁up
▁拜托
▁james
▁新婚夫妇
▁川大
▁警务人员
▁假结婚
▁德利
▁普宁
▁米格
▁万瓶
促进
▁dt
需要
常识
蜻蜓
▁仿效
▁埃里
▁咸猪
▁汗颜
▁无法控制
▁早些
▁东非
演义
▁罗西
▁中国化
▁售货
▁火山口
画家
多拉
埃及
▁万是
▁梅尔
▁探路者
遣
▁食糖
▁铁人
▁腕
▁中美洲
▁开路
▁除以
▁土著
▁高材
▁非常容易
▁航协
▁餐盘
噎
▁715
▁撤走
▁ben
rom
▁烤串
▁促发展
▁某国
▁丁俊
▁其向
午餐
▁玛莎
讴
ih
回国
▁人身攻击
nt
▁时向
▁一面镜子
▁赴英
智能
▁读出
▁中餐馆
▁安南
▁电饭锅
▁电灯
▁最会
▁明目
▁巴林
▁风湿
▁一阵风
▁药水
▁白羊
▁富士通
▁两女
▁孝子
▁割腕自杀
▁涨近
unes
▁辟
▁加强监督
▁资本家
▁下雨天
推荐
▁率仅
▁打水漂
▁定心
▁盗号
▁事是
▁公正性
▁几月
▁变老
▁生产资料
▁构
▁新闻部
▁干洗
▁女强
▁分众
▁三年期
丞
▁打广告
▁农工
▁无痛
▁步兵
▁雨果
▁佛教徒
▁奥特曼
▁连平
▁经济负担
▁霍夫
▁ia
郸
張
不受
▁麻风
▁三周年
▁国储
▁枪决
▁百次
失误
▁队服
止渴
ime
分之
▁气象卫星
效益
▁之歌
▁三军
阎焱
▁工作狂
▁19.6
太华
摇号
兰德
▁挡箭牌
庞
籼
▁瓜帅
麽
▁byod
▁485
▁为时
▁不成问题
▁数千万美元
▁离京
▁关系紧张
屡
▁拾荒者
▁北大清华
▁藏传佛教
坡路
▁代代
▁排泄
▁890
▁受精
产期
▁突遇
▁三转
▁545
▁349
▁卸妆
▁传统习俗
▁一个班
▁塞班岛
▁决定权
▁专门机构
濡
▁可悲
▁吃香
▁李白
▁十种
▁力保
▁总体目标
▁认真对待
搞
临破产
▁畅通无阻
▁骑车人
▁招飞
给力
▁草稿
▁跟前
▁范德
▁肤浅
▁泰坦
▁民法
▁世奇
▁因扎吉
▁李宗
间谍
▁练兵
▁弗吉尼亚
▁寿星
▁李达球
▁卡萨
▁密西西比
ily
▁又现
▁通货紧缩
▁特别版
镳
▁之物
▁新闻业
▁抢金
▁防狼
蛮
▁仙剑
▁从长
▁自行车道
▁外宾
重点
▁争先
▁焦虑症
篝
▁蓄水池
汶
高兴
▁新军
▁火球
▁高油
▁修订案
▁出庭作证
▁hell
▁收编
▁统战
▁针孔
▁最棒
▁姜建清
▁海狮
▁竞逐
一天
职员
▁高级顾问
▁之神
▁扬科
▁粗俗
过度
弭
▁递延
▁接收器
▁录取线
两口
▁真迹
▁单是
▁体格
氧化
▁信息管理系统
▁退订
▁382
▁巨富
▁炮火
▁玛格丽特
▁指环
▁起风
▁童星
▁劳改
▁棒棒
▁乌贼
▁无以
▁隧
伯斯
筱赟
▁千兆
▁代售
▁fe
▁教科
▁vol
▁open
文学奖
▁毫无根据
▁带你去
▁齿轮
▁偷菜
▁实车
▁突起
▁系统化
▁牢房
▁辣条
▁令人兴奋
▁自食
▁吵醒
▁新途径
▁阿肯
▁房价格
▁配制
动作
▁吴奇隆
利安
▁自行车赛
▁在经济上
▁ml
抗议
й
▁二胡
在京
狒狒
▁356
▁胶卷
▁网络电话
▁破发
▁不端
格斯
▁广铁
▁典故
▁现金管理
楞
▁萨姆
▁驳
▁法航
▁人伤
▁三实
之马
▁辅导班
啡
嚎啕
▁联名信
嘟嘟
▁游街
▁起着
▁纪要
▁出生率
▁必要措施
▁放羊
萝莉
宣言
▁发自
▁施肥
▁全免费
▁偷猎
选举
▁女飞行员
▁kn
▁铁证
▁欲跳楼
▁云图
▁药效
最高
▁特拉维夫
▁394
▁总需求
▁捉迷藏
▁出诊
▁末尾
英语
▁堵路
▁帝国主义
抡
▁中学教师
富城
▁理发师
▁海底隧道
α
▁静悄悄
▁坐过
▁照曝光
▁合办
▁喜马拉雅山
▁专业户
▁脑洞
▁393
▁捞起
▁煤焦
▁新速腾
▁无人认领
▁书评
▁617
▁替代性
▁第二类
配合
▁木炭
蒂冈
▁运输业
▁传中
▁近况
▁调查团
▁344
不懂
▁卡利
绦
▁韩三
运行
▁黄蜂
▁刻字
▁1860
▁贾平
▁李剑
▁扭伤
▁无异议
▁致意
▁庙宇
▁备胎
▁412
▁大帝
▁日本天皇
▁正统
▁各方对
鄯
▁船队
▁依赖性
▁四部委
▁金水桥
▁专题报告
▁人工流产
▁王后
▁标出
▁巴马
▁时请
▁进行性
▁最脏
▁当道
▁与生俱来
▁听懂
▁首列
▁主权国家
枯萎
▁访民
▁减支
▁苦果
▁soc
bit
▁撤换
▁股东会
▁清障
▁船闸
▁怪象
诩
资产
▁北京奥运
▁判断力
▁苏菲
情愿
▁其新
▁描
▁紧密联系
▁同学会
亲属
▁太胖
▁郑和
▁代管
▁结扎
▁两国之间
▁防毒面具
▁受体
▁裂变
▁完好无损
▁三股
▁闭上
疲力
▁遗属
▁苏丹红
▁伸进
▁余秋
东家
▁押送
▁卫队
▁生化危机
any
▁海战
▁核事故
▁八小时
▁偿
证明
▁活熊
▁更爱
▁放射性物质
▁试衣间
▁445
▁起死回生
▁遭性
寮
▁黄片
▁法外
▁陪读
▁陆生
胞胎
▁沪港
▁升水
▁lgg
▁明后天
蜥蜴
▁duang
▁募款
▁南方人
▁争冠
净化
▁华工
▁候补
▁张贤亮
▁争当
▁基督
▁心境
▁576
▁跳过
树斌案
喀
▁国际舞台
支持
▁踩油门
▁长期性
▁790
诣
兮
▁group
▁布达
▁败给
▁相关联
▁戈尔
▁打滑
▁京郊
墉
▁中国记协
▁妙龄
▁铺平道路
▁刀叉
▁不规则
▁分家
字号
▁施瓦辛格
▁实际收入
▁剧透
识别
江湖
远超
▁励
▁油企
▁能治
▁四场
▁上载
▁增加收入
▁金丝
▁从未见过
▁910
即日起
王星
▁扰
比亚
▁方程式
▁软骨
▁不管怎样
▁凡人
▁学渣
半年
▁二轮
▁常设
▁孤儿院
维亚
▁换回
议员
鹌鹑
▁心电
▁头等
▁能动
▁百灵
勾结
▁青光
▁不合时宜
▁买地
▁推举
▁港岛
▁第二款
▁印钞机
不入
▁国家补贴
▁柔情
▁书单
瞬
▁上流
▁率高
▁透彻
▁员工福利
▁865
▁香港海关
▁中电
▁吉格斯
降低
焯
一女
fer
進
▁等不及
▁胸腔
▁rs
ks
▁辱华
▁把戏
▁男子汉
▁教养
昀
酉
▁公立学校
▁各项任务
娶媳
茅斯
▁nat
▁和平共处
▁成人礼
▁停建
▁挥发
▁419
▁用枪
▁426
tu
▁668
ale
▁求援
睐
▁汇报工作
琪琪
阂
▁镇痛
ire
▁高炉
贝尔
▁再战
▁内为
▁廉政公署
▁打中
▁子孙后代
oun
▁妮可
▁弗莱
▁pb
▁布洛
▁仍属
▁狂野
分裂
▁雅克
▁相互作用
▁球形
▁原样
▁孙兆学
▁流派
ise
▁象征意义
▁疏远
▁自已
罚款
▁争做
365
诊所
▁奶企
▁暖风
▁省运会
▁回放
▁中选
桉
晔
崴
▁声望
▁伐
▁乱局
睇
协作
▁帮其
谭
▁何人
▁针织
▁提取物
▁时不
以来
▁利弊
▁单季
▁沪牌
太狼
▁暂时性
▁两股
▁周小平
四风
▁重燃
▁可折叠
▁jack
▁次贷
不良
▁铁娘子
▁富于
▁fac
▁更年期
▁送还
▁吴伯雄
▁林业部门
▁唐宁
▁英式
▁内塔尼亚胡
▁银行职员
▁日籍
▁求变
▁人比
▁应予以
▁减低
▁痛失
祯
▁残暴
▁断供
ile
▁推新
▁杜克
▁451
难者
夫妻
澜沧
▁好些
▁生产厂
泼洒
▁574
df
资管
▁启德
▁择校费
▁西非国家
▁通力合作
▁维亚
▁落子
▁有戏
ke
▁阿格
酰胺
▁范本
▁进考场
▁邻家
▁洛克菲勒
▁内忧
▁访韩
▁李嘉
院长
▁成活
▁雨林
▁多党
▁专款
阶层
反升
▁布料
▁选区
▁凝胶
恃
▁国家所有
▁dn
oom
▁他来
▁莎车县
▁撤除
▁非法交易
▁多尔
▁spr
▁控罪
▁整体性
▁百兆
▁一见
▁李宗伟
助理
徜徉
▁421
▁笼统
▁侵略者
▁幻灯片
出血
▁门神
▁李荣
▁海洋环境
▁633
▁经济繁荣
▁出口配额
▁14.1
跪
硼砂
▁我错
一试
▁施舍
姚
▁俄美
▁百人
▁十五届
故障
▁生活状况
▁看淡
▁印花
▁访问团
▁唤
▁近地
▁杀人犯
▁第三条
结合
部分
▁独裁者
象棋
▁吃面
ence
▁付诸实施
痔疮
颠
▁应激
綦
▁办事员
▁姿
犷
▁可查
▁集邮
▁格陵兰
▁运输成本
▁无印良品
傳
▁人员编制
晃晃
▁相救
▁事务部
▁国际电信联盟
▁之变
▁利马
▁有益于
▁网媒
▁共通
▁有话
▁看门
▁财产权利
像奖
▁残害
▁执行者
▁分将
▁修宪
▁假摔
ier
▁写诗
▁作出贡献
▁搞错
▁灭门
大事
▁缉
▁父母亲
edin
▁十几岁
▁大会堂
▁催泪弹
▁阿卜杜拉
▁七类
▁科技奖
▁速生
▁自保
▁格罗
暴恐
▁离奇失踪
▁创设
▁夺金
und
▁大招
▁转送
▁汉斯
▁香草
不误
▁粮库
宏斌
▁长毛
▁缅甸政府
▁滑倒
浪费
▁辽宁抚顺
职能
通道
▁只鸡
▁童话世界
公交
▁生根
▁伯母
裸
▁肿块
务省
▁诸位
▁毒奶粉
▁游荡
▁过渡性
▁最丑
暑假
▁感染性
з
▁昆士兰
蜚
▁谎
▁众怒
▁孔庆东
▁新花样
▁敏感度
瞥
▁贷款风险
▁一网
▁新年贺词
思考
▁两夜
▁恐怖片
▁瘾君子
▁ns
▁皮肤癌
▁五款
▁维他
▁明晨
uf
职守
男孩
▁疗养院
▁前述
▁418
布拉
▁病虫
▁制造厂
德森
▁活动家
▁待解
▁403
▁镇雄
堃
韦尔
▁陈敏尔
梅尔
庆林
▁私藏
▁暂行
▁哈雷
▁489
天桥
▁始末
▁亲生女儿
▁战区
mo
▁命中率
▁合作者
▁敌方
▁新大陆
▁遏止
▁性传播
▁恩斯
▁洪都拉斯
ora
冯
▁卫生部长
▁升官
▁三权
▁八天
▁内销
▁显出
▁自始至终
睒
▁国别
领先
▁安顺
▁排水系统
▁373
▁毒杀
▁性交
▁616
途径
▁灵隐
▁威士忌
▁期末考
▁高精
▁向导
▁年青
▁非洲大陆
舞台
▁祖孙
▁正文
▁583
▁付清
▁梦想成真
谨慎
贸市场
猖
▁深思熟虑
飙
▁南极洲
股市
▁香港旅游
贡献
▁西蒙尼
淀
▁投篮
▁边远地区
▁痕
▁阴云
▁路障
▁韦尔
▁实际意义
▁凯恩
融资
榔
汨
▁西尔
▁陈永
▁大麦
▁荐
▁头版头条
▁磁性
▁下垂
▁墨西哥湾
▁日程安排
▁巨蟹
▁当值
▁马太
▁655
▁高浓度
▁服装业
▁司法人员
▁这么久
▁糊涂账
▁救世主
▁环游
▁台湾省
不多
外务省
蓓
涟漪
眈眈
ance
话题
笙
▁经验交流
▁染红
篓
▁身份验证
▁山洞
▁王宗南
▁死前
概念
▁港版
▁朗读
一代
邮件
▁广西北海
▁甘草
▁租约
▁陆路
▁宪法法院
让人
▁管理费用
▁608
▁417
▁507
▁小家
▁硬度
▁新欢
演出
▁共聚
▁赫尔辛基
▁三角形
▁破译
▁能源消耗
▁决策权
▁借书
臼
▁跳车
▁国策
▁公敌
▁阿巴
铱
▁公招
公斤
▁养分
淑薇
▁继任
▁接生
▁新界
▁车检
▁鬼屋
▁机理
杰明
▁职校
▁候任
▁完全相同
▁第一颗
▁合营
▁追索
▁里克
▁dh
浜
援助
鞠
▁拒捕
珙
▁浮亏
▁争议性
糜
▁解职
▁前列腺
▁裸女
▁武装冲突
▁千瓦
吠
▁图瓦
▁或用
▁活塞
▁首领
▁无核化
▁存取
擀
▁何来
▁病原体
改进
带头
▁买买
▁明后
▁回音
蛤蜊
▁机枪
▁意见书
▁亚历
▁前头
▁极端主义
▁别忘
其事
▁通气
▁一去不
▁无助于
待遇
▁黑丝
ini
way
▁完整版
▁coc
之子
▁助其
▁工程学
▁科隆
国歌
开大门
▁十分重视
ogo
▁维斯
▁阿拉木图
扉
▁交互式
▁小儿麻
▁议会选举
▁腾格里沙漠
▁动因
▁种族主义
前沿
▁出生证
▁防雷
▁导电
言之
▁反增
▁初显
▁大兵
▁遮盖
蜱
▁王健
▁不列颠
▁教给
▁响声
▁遇刺
▁阿莫
▁松树
▁林中
▁出新招
▁郭氏
▁网爆
▁棋局
▁后尘
▁花粉
ino
球菌
▁五周年
isa
▁超声
剥
▁宪
roup
▁新来
你们
▁一分为二
▁中高级
▁鼓起
▁444
▁无机
▁实盘
hd
▁首破
▁被否
医师
▁市售
ky
▁所示
▁标书
锒铛
矶
▁亚洲开发银行
▁民主党人
戒指
▁腺
▁解决目前
▁维族
▁司法制度
▁霍乱
▁真面目
▁可降
▁任何一方
▁英雄传
▁着色
▁同情心
▁防暑
▁刘明康
▁红娘
▁办公用品
▁强加
▁财源
▁数以百万计
▁梅毒
▁提款
▁473
見
▁605
▁梯度
▁分尸
▁友好关系
▁廷
腑
▁失败者
牲
wi
▁周伟
▁据报
▁龙虎
▁438
▁549
▁谍
流程
▁三连跌
▁龙头股
▁裁量权
▁公升
▁许许多多
▁哈瓦那
▁犯罪案
▁出兵
▁拉车
▁维生
▁萨默斯
承认
▁年入
▁该段
▁煤田
爱好
裡
儿子
产值
奶粉
▁减薪
▁757
▁六类
药品
▁gu
▁仍难
▁不惜一切
▁杰瑞
▁376
吗
▁五元
▁荒凉
定华
▁公允
▁tt
▁eas
荟萃
▁486
▁跳海
意外
美股
▁尼古
▁冰河
▁公使
帛
▁用大
▁争辩
▁毒品案
▁尼古拉
▁衰减
▁张维
▁驻港部队
▁制导
▁重估
▁尼龙
▁联大
世界大战
▁拒付
▁蓄势
▁纳克
▁城楼
▁涉资
▁撑腰
▁圈定
▁石原
▁纳米技术
▁拉尔
▁人于
▁上部
▁二十八
▁划船
▁sf
大众
▁分权
▁新英格兰
▁毫无意义
匹马
▁驻港
▁这两
▁第一村
▁特批
▁用光
▁简明
▁探险家
▁爆粗
▁早上好
▁财政年度
▁公共事务
▁教义
▁不道德
▁格林斯潘
启动
▁351
浉
▁满天
荞
▁情缘
▁千斤
娓娓
▁更有意义
唳
▁拉赫
咔
▁德鲁
▁369
▁重判
▁取自
砺
预防
壑
▁单身汉
代码
魇
▁承载力
▁必去
塔尔
上涨
▁高歌
朝天
ano
▁弗雷德
▁食安
加强
▁多面
▁密友
▁热舞
▁有利可图
▁难于
cs
▁三强
琰
▁根据地
▁计分
▁死亡威胁
蹋
▁碎石
▁幽默感
▁无意识
▁引致
把手
▁硫化
▁起立
隋炀
一动
▁牙医
▁超短
咧
蔬
睑
▁约束性
▁非常感谢
▁网关
▁黄赌毒
▁调解员
▁核电厂
拉里
▁鬼魂
▁米老鼠
刘
▁405
迂
ull
▁加压
日持久
▁课堂教学
▁肾上腺
▁无法解释
▁辣妹
▁妙招
▁537
▁成人高考
▁初学者
▁磁铁
▁武林大会
▁旁观
否认
▁准确度
嚎
▁王功
丢
▁救济金
▁养母
▁谢长廷
▁申请加入
▁ted
霓
▁告吹
▁追授
▁az
▁取得胜利
▁精力充
举行
▁临盆
▁值不值
监会
▁炮灰
龛
▁最酷
▁井底
飒
▁班加西
▁骗保
▁不法行为
▁五十年
▁澳大利亚政府
侏儒
▁托盘
和平
▁售货员
▁晶体管
▁三步走
▁589
▁492
妩媚
考察
out
嘭
▁李瑞
▁密切配合
吴
▁加法
▁偏瘫
▁498
评价
▁出车祸
ango
ush
▁第三类
▁尿道
▁宙
克拉
▁本分
▁检控
▁神经病
▁国民教育
拉特
▁德罗
▁恢复原
ron
▁军令状
▁389
▁尾矿
▁香港机场
敏杰
▁母体
▁学习者
▁报税
▁天花
▁vis
▁纯度
▁未交
▁有价
▁努力提高
▁严酷
▁博尔
▁篮球赛
▁撞墙
▁准新娘
▁刺穿
▁问责制
▁划线
▁八次
▁齿
▁闪闪发光
▁疑遭
▁失真
众多
▁暂不
▁可比性
▁曹德旺
▁有售
▁凌驾
▁复产
▁女交警
贿赂
▁断臂
▁一卡
▁1160
▁完全一致
▁手把手
dn
揶揄
铨
▁再也不能
▁采掘
▁少爷
毡
▁高中女生
商标
跷
▁迎新年
手可
每
▁更糟
立大学
柬
▁打篮球
▁女硕士
▁白化
▁重大贡献
核算
▁运动场
▁金融部门
▁失学
▁康复中心
eld
利华
▁柏林墙
▁法西斯
▁宽泛
▁等价
拦
▁外国投资
拗
▁走亲
公式
▁成新
▁例证
▁维修工
▁adobe
▁液压
▁握住
▁追杀
▁卫生系统
▁要件
▁送交
▁出纳
▁称道
伢
▁外派
纳尔
洙
▁爱沙尼亚
恰
▁克林
▁孤身
会长
▁正规军
ita
硝胺
▁染病
妖娆
▁在政治上
旁观
▁沉浮
▁不同之处
发挥
▁宝库
▁书桌
▁495
吭
inter
▁ws
▁入刑
▁急迫
▁南太平洋
▁专设
▁杀婴
哇哇
▁547
▁彼此之间
▁汇编
潦
▁现状及
▁to
石头
▁dm
▁红顶
▁增肥
▁众星
▁盘问
砀
▁阿盟
▁国际航
耽搁
ler
▁日媒称
▁保护者
▁488
▁拆毁
▁达尔文
▁试跑
鲢
▁请愿书
▁政府首脑
▁远近
▁341
▁劫案
tor
經
淨
▁强健
▁武当
▁敌视
▁投票站
▁座落
▁联保
椿
▁批评家
▁协同效应
▁翻修
▁千亩
▁委托人
▁预算内
▁529
▁挤爆
▁大鼠
▁455
▁惨死
泺
▁会泽
▁摔成
▁可领
▁起底
蚯蚓
▁资源分配
▁储油
▁卖淫案
博物院
▁413
▁ros
美术
▁辛普森
▁研修
茸茸
撸
▁虚惊
札幌
佛教
▁被劫
▁528
▁能源供应
▁妇产
▁非全
▁没涨
玄奘
▁概算
ya
▁烟气
▁算算
加拉
袭击
达尔
▁撞船
▁甚微
代人
▁拉脱维亚
▁唱主角
▁金球
▁里根
▁新纪元
▁耍流
▁谢意
▁教员
▁基尔
咪咕
▁独角
▁强盗
▁脱口
类型
冇
雪山
提高
▁活虫
支部
▁377
砒霜
检测
▁大革命
▁安全网
▁411
▁nik
▁阿拉斯
新区
▁推定
▁投建
▁终获
岘
▁奥特
畫
▁野鸡
▁逃兵
▁货物运输
▁该党
▁奥德
▁受益人
▁马斯
覺
▁酬金
▁第十四
▁有赖于
▁自由职业
▁阿塞拜疆
▁阁楼
警报
戾
泔
▁发牌
eth
发达
▁反动
▁后悔药
▁德班
▁名企
治亚
伦西亚
ect
▁各行
▁538
▁突现
猩
▁海市
蜃
疴
咂
▁收监
▁农博会
▁详述
制人
▁姐妹花
▁惹怒
▁每一项
▁仰光
懦
不够
咪唑
▁齐发
▁人口比例
▁国家机密
▁杨凯生
▁再建
▁回转
ings
▁ele
▁爱恨
▁八届
▁牛顿
▁虚无
▁重头
谈会
▁磁盘
▁第四十
垛
▁467
滚滚
丽萍
陲
▁华生
▁递送
▁间歇
▁二重
姑娘
面目
暴力
▁回声
芘
赟
疃
▁哈萨克
▁日本自
▁替身
▁讲演
▁415
▁天心
彷徨
▁精神失常
▁绑架案
▁fcc
▁分布图
岫
▁车补
▁乳头
▁函件
座率
▁国家税务
▁总督
▁声学
有线
▁出其
▁犯罪者
▁离散
▁徒劳
▁卫星通信
▁增殖
雷人
▁军事冲突
▁罐子
邛
雯雯
肽
▁波利
▁一八
▁系统地
▁一不
巩
▁专业技能
▁半边天
怎么
▁名新
挞
▁失散
▁热狗
▁都柏林
▁婚丧
▁555
▁513
▁性欲
红米
猷
▁di
▁踢足球
▁424
歪歪
▁称未
▁附加条件
▁家书
▁dj
▁责备
▁各个部门
他州
▁双管齐下
▁烟瘾
▁自由市场
▁客座
▁年国考
▁石棉
▁非人
▁卡帕
▁黄岩
▁血泪
幅度
▁款待
▁合同工
▁感到遗憾
▁武装部队
▁虐杀
熊猫
▁祖父母
不相
▁数以百计
▁债权国
▁新北
ames
振奋
苹
▁语义
▁欧洲航天局
uz
地亚
▁时评
▁罗斯福
▁inter
权力
cci
攥
▁照进
▁轻判
▁世界知识产权组织
不是
▁核武
▁拒签
▁第十七次
▁重罪
砾
▁埋伏
磋
▁李银
斯拉
▁非婚
▁391
▁跌近
▁综述
▁市场调
▁梦中
孩子
▁居高
▁莉莉
▁乙型
▁仙人
▁溃败
▁相依
▁相对论
▁学派
▁半挂
法官
no
▁吸储
▁火炮
泼粪
oll
▁森林资源
▁避难所
暂
▁电力系统
▁受害国
▁预防措施
步骤
▁两半
▁专有
▁裙底
▁差旅
牦
▁莱昂
▁斯洛文尼亚
▁最萌
▁得益
洛特
避免
▁阿萨
归案
▁比索
▁祸害
▁人道
▁布鲁克
▁精算
▁吓哭
▁非洲地区
括
▁483
▁之母
计算机
动力
影响
▁392
涯
▁被免
▁流行性
▁厚厚
▁无休止
文字
战队
▁提意见
▁政令
佯
▁工商界
▁改行
▁为时过早
▁决裂
▁资金不足
▁新南威尔士
冉冉
失联
▁国民收入
器官
▁巴拉圭
龋
▁联商
▁浮尸
▁超支
▁col
▁认准
let
▁伏击
庾
▁自白
▁由该
罗斯
▁次序
垚
led
▁钢市
▁罗援
德罗
ki
▁未现
百人
▁计数
克森
槐荫
▁杀妻
▁主席国
▁孕产妇
▁反叛
面孔
gar
▁自毁
组织部
饥
▁扰动
▁还敢
个子
▁最惠国
▁担保人
▁危地马拉
▁能源部
▁管理信息系统
▁纤维素
▁生物医学
那州
傍
▁入世
了当
▁经开
▁不言
▁371
忱
癫
▁保尔森
形式
▁质素
▁可恶
瘀
光头
▁概述
蹶
担保
▁新旗舰
▁议席
▁抢跑
▁大婚
鸩
▁侨民
时机
皑皑
▁生变
ka
▁474
▁中国石油
▁祖传
谨
▁张召忠
容易
▁叛乱
从事
▁承租人
▁ra
▁政见
gc
怂恿
▁再进一步
旌
骷髅
▁替罪羊
新规
▁裁缝
蛳
▁食物链
殓
英镑
泽民
▁衡量标准
农组织
▁努力学习
宝石
▁特例
牍
▁jos
▁朱小
▁倒台
▁国境
讥讽
▁密集型
▁可判
▁523
▁齐心
▁亚非
歧
翌
▁647
▁452
▁511
麒
▁462
庶
绿灯
▁正风
▁八千
猬
▁活水
▁百辆
▁422
▁妇幼
▁禁播
小时
▁非洲人
▁cit
▁再接再
▁484
讧
▁释疑
▁夏斌
▁称正
▁多管齐下
▁港媒称
▁豆腐渣工程
▁拉夫
风气
▁作曲
孺
▁刚出
仿
▁协调性
▁杀伤性
▁见诸
▁支离破碎
▁仅供
▁不玩
▁保质
血管
▁资金短缺
▁min
▁612
▁调停
▁高虎
▁国研
aga
▁混合物
▁大比
▁极右
oney
▁bab
➏
▁sb
▁富兰克林
冰冰
隧道
▁密切合作
▁主战
匹林
▁合理化
鬆
▁大不相同
钒
▁植根
▁逾越
▁保持警惕
樽
▁学龄前
▁周小
兒
▁之妻
bn
无声
▁价值观念
▁第十四次
▁两部委
▁死人
▁案庭审
▁卫生条件
▁致词
嚷嚷
▁万隆
▁德克
▁拉伸
▁625
▁难倒
yle
潞
託
▁莫桑比克
▁照着
妇联
▁海洋法
▁俞敏
碌碌
▁615
柩
att
▁执法机关
耄耋
▁面面
痘痘
迢迢
▁人应
树斌
▁部长会议
▁转过
代会
▁掌中
▁伐木
▁市议会
aj
法庭
▁理查
债务
▁副处
wor
▁组织协调
я
г
芃
清华
总工会
kb
浐
▁环境部
▁美国务院
禁止
▁游击队
狡猾
▁北爱尔兰
▁技术员
▁就业人口
▁要开
珏
动物园
▁软体
懋
▁供餐
▁书目
襁褓
▁被评
傻傻
妨
疽
▁难改
▁上述情况
▁示意图
▁明斯克
▁殖民统治
▁622
▁政体
黝
▁必看
▁遭袭
▁重置
▁对流
雇
申请
咨询
▁气旋
▁xl
秭
▁pre
▁压死
ni
▁基层组织
▁fa
▁个人卫生
▁该次
▁害死
莒
军事
▁冯小
▁询
沙尔
▁德斯
▁通信卫星
▁588
▁路德
摔
坻
▁布隆
▁开罚单
▁老父
讓
消协
舀
▁扫街
▁路在何方
孪
▁最堵
▁旧照
▁上星期
▁453
诲
▁会议议程
▁521
咔嚓
▁犹豫不决
彤彤
▁明早
▁超萌
▁pat
▁446
阙
之为
▁南水
▁径
▁技术革新
▁潜力股
▁社会公
▁构件
▁沉思
巴赫
▁略低
▁减价
渑
▁未成
▁艾哈迈德
▁民间团体
砥砺
镌
▁表决权
▁很广
ko
▁bur
▁驰援
▁长长
ary
▁永年
▁522
▁同质
▁提供方便
▁叛国
▁航站
▁读写
▁此项工作
▁成思危
▁输出国
瘸
▁改善生活
▁转诊
▁古希腊
̄
▁谋杀案
▁直截
▁摄氏
▁李亚
养费
▁诚然
▁殴
▁打击犯罪
▁搭便车
痒痒
灿儒
enn
▁占领区
铎
战略
▁施瓦
疗法
▁sun
❾
▁制冷剂
▁传教士
▁431
▁核弹
▁干练
▁屋子里
方公里
学者
▁断奶
▁偷看
▁见图
▁汉堡包
兀
▁517
▁有别
▁mart
纳州
▁影视业
▁性暴力
▁儿童教育
▁总统令
▁不孝
长江
▁人类学
尕
▁tak
意志
阖
谦卑
▁可贷
讣
▁坠井
▁探员
▁两性
▁小农
▁夕
尔克
炅
▁更是如此
▁绘图
呎
▁文娱
▁跨学科
▁九寨
证件
▁三问
▁年增
郏
▁总成
▁最高层
▁正确性
▁电子地图
▁流露
▁称职
谘
教训
▁eu
▁圣母
蛤
▁新楼
▁私营部门
hom
▁宾夕法
▁几份
以前
紧张
▁动力学
▁绝育
跺
▁冈比亚
啤
▁sal
吮
▁储物
▁中坚
▁竞选活动
▁拼写
奥委会
玷
邋遢
▁自行决定
涠
法制
▁法老
骤
▁派出所长
▁佣
小年
▁闭嘴
政权
▁卷宗
▁请拨
▁克鲁格
▁塔什
茴
互联
▁卖楼
▁中到
▁适于
▁法兰西
▁泰国政府
▁定稿
▁一整
羞耻
▁玛丽亚
▁结转
超市
劵
▁受热捧
▁某项
储蓄
▁恶人
▁北韩
▁397
溴
▁of
佤
锆
攝
北克
▁扣减
名词
▁少数几个
▁大话
▁怒气
▁487
▁447
▁探营
▁喀布尔
脍炙
▁分派
oop
▁文职人员
▁践
鲸鲨
▁民选
▁指导意义
▁任地
▁贩婴
▁急刹
▁四十年
▁压缩机
▁比利
▁自主性
▁主治
▁吃晚饭
莹剔
▁施加压力
▁切实有效
泯
溜溜
▁565
▁太棒
▁ka
圭
▁长白
筠
▁对本
形态
▁从今
▁广州白云
不完
▁在发言中
▁429
▁费尔
▁流体
▁基本权利
航天局
戈尔
▁修道
▁格鲁
部件
难关
▁八路
▁将现
▁信守
年龄
纫
▁托儿所
▁tc
拉姆
▁jp
麝
焱
▁ser
▁接头
▁谣
▁巨贪
吉斯
噜
▁一读
蒿
▁卖身
▁提供数据
会计
▁积极行动
讼
‧
▁巴布亚新几内亚
▁不可分割
篱笆
▁在京开幕
怯
▁我敢
▁副产品
件人
▁入法
▁我方
方便
▁装运
▁非法行为
▁称中
▁坠崖
运动会
▁政治危机
▁攸关
钯
▁双亲
▁考虑一下
糗
▁之死
呃
医疗
▁物力
▁发怒
祝贺
▁许多年
▁社会变
弹药
权利
▁李克
渗
▁函数
▁her
轿
硼
▁李光
▁吴晓波
▁荷载
▁准新
周刊
▁cocos
旖旎
ь
民警
羅
▁宪章
▁出生日期
负荷
哈尔
▁巴拉克
铆
省理工
▁唐人
▁每届
娲
▁郊
▁艾美
▁疑是
▁最老
▁一动
▁多伦
▁血洗
箐
斟酌
▁相互之间
▁百思
手游
ons
诉讼
不值
▁li
不顾
▁总的
霹雳
幡
▁首超
▁牙科
太郎
都市
理由
犊
▁小到中
跛
▁毛细
▁答道
▁作好
▁条目
▁追过
▁光束
▁世界大战
▁切尔
▁周其
▁奴役
绸
湮
麂
颢
▁645
▁最高级
電
▁津津
▁516
發現
認
判断
遵守
▁固体废物
鬓
▁难民营
▁产油
▁等效
愫
▁ai
俸
叮叮
▁帕特
▁第十六次
感谢
▁麦当
糅
▁斯威
▁值得一
▁盟军
▁ing
藐
瓴
▁必胜
人道
▁战报
▁pet
ald
▁张艺
▁和谐社会
▁无碍
▁农村妇女
湟
▁洋溢
▁不丹
婴儿
漕
长国
▁rc
遗产
▁直系
来源
▁的黎波里
▁老妇人
▁一时期
▁光脚
▁专长
▁萨利
▁哈桑
咖啡
▁必读
▁先决条件
▁洽购
▁来源国
爪哇
葱葱
▁临界
瘫
▁公审
▁竭尽
▁百斤
橼
▁送审
▁环境因素
▁无误
裨
act
保健
瑄
▁abb
▁四分
▁相一致
▁波长
▁财政状况
第一中级人民法院
腼腆
▁拟议
▁影评
▁cor
▁所提
同志
雷击
ye
办公
▁铺张
▁性奴
踢
▁莎拉
▁有条
▁全攻略
▁军事化
▁军用飞机
▁供应国
▁生殖器官
读者
▁或涉
▁利害
▁ty
▁男女平等
▁雨中
應
▁基斯
關
mail
髻
▁各种类型
胤
▁扶养
▁org
lex
嗤
▁hy
▁首脑会议
吝
▁火山爆发
б
▁非法活动
嗣
講
▁rich
▁详细分析
级别
▁工商企业
洮
巴斯
▁万为
▁萨达姆
伶
▁渔业资源
▁434
▁私立学校
稞
enc
▁监察员
红十字会
▁越多
苏尔
邨
氣
变化
隐患
▁团结起来
▁不断更新
体验
▁字符
▁占多数
▁十分必要
▁波罗
▁隐现
▁509
天堂
▁那辆
技术上
▁陈志武
一方
▁倡
▁婚姻状况
▁lu
▁传射
▁432
比例
疣
▁恢复性
▁放电
▁圣马
▁修女
▁免得
▁631
▁协调员
▁工作队
蚂
▁技术培训
▁继承权
▁照耀
▁弥合
▁电影业
称赞
ery
▁永善
雷特
骞
▁我愿
▁南半球
▁文件夹
▁称若
份子
▁文化背景
撵
意义
一次
▁罪人
娣
鄢
手册
▁韩媒称
▁一览表
卻
▁赖斯
▁实现目标
▁大年
▁评述
▁案开庭
曜
▁起跑
▁张丽
▁拘押
▁系统对
▁弱小
▁度量
交易所
▁软禁
▁科特
▁马哈
不觉
柑
▁富婆
▁gc
▁马光远
▁基金项目
凛冽
▁部在
▁存档
▁不以为
▁范式
≥
▁mag
▁郊野
▁太平洋地区
▁文职
▁始终如一
話
孜孜
▁走私案
鳅
▁莫让
▁二十二
机密
破坏
▁之三
▁非盟
▁做爱
▁国际劳工组织
粘稠
▁自导
憔悴
實
▁增加额
女士
▁遭劫持
▁试管
▁起落
缙
▁相关者
體
▁六盘
壬
▁核设施
▁滥用权力
合物
▁危局
独立
嘅
▁与世
▁决不会
镛
小组
国籍
茱
▁粮价
公约
▁班加
澍
▁刘士
銮
献策
▁巡礼
▁dar
▁难掩
▁张继
▁土木
▁切实可行
▁凝视
▁新西兰政府
宥
▁萍
間
▁令人不安
▁什叶派
啉
▁逐出
羁绊
▁中央军
▁国与
▁塞内加尔
▁鹿特丹
卫星发射中心
▁令人担
▁will
▁缓存
▁游牧
▁吓死
rc
▁缴付
▁五旬
娘子
鹮
▁基里
ame
▁侯赛因
▁倡导者
▁喜马拉雅
▁再迎
▁美媒称
▁443
▁爱奇
▁静待
▁指收
▁对性
▁雷区
耿耿
条款
电台
证券
增加
▁新技能
伯利亚
肯定
▁自相
呱呱
钚
苷
▁一气
▁能源需求
▁tar
萬
▁残余
加迪
央行
庆区
▁资中
▁海地
▁大学老师
▁反诉
▁立法机关
▁单亲家庭
▁四日
▁日程表
▁首提
▁泰康
缰
谅
礼物
影片
▁盲文
▁血本
▁可省
▁医案
esh
焗
▁西班牙政府
▁防止出现
td
▁相称
本书
▁含水
▁567
▁种族隔离
谒
ga
▁教育工作者
▁巡逻队
▁弹头
▁ts
▁陈凯
▁教育局长
oud
煸
滿
獭
〇
▁控制措施
▁五件
▁八国集团
媛媛
▁二个
▁前所未
奥会
▁下一
馀
▁醉汉
僵
▁宪兵
麋
屠
▁施用
保留
▁中间商
业主
溆
践
▁中学老师
鉴定
▁性虐
瘁
▁man
▁该厅
天化
▁遣
▁无国界
▁国界
▁放牧
▁夏令
▁激进分子
郅
祛痘
▁红楼
利贷
▁面带
鞑靼
协定
祚
▁官图
▁皮尔
berg
裱
莹莹
▁第一项
▁金融交易
▁一怒
骡
▁核计划
▁har
▁超赞
公开
咗
▁合法权利
▁经济合作与发展组织
妒
▁双色
▁法医学
迦牟
监察
▁八种
▁预算赤字
通行
煦
▁视图
▁贸易谈判
潲
狈
▁全体成员
▁贷款额
薏
倡
▁吸毒者
待发
▁主导作用
▁职工福利
▁派别
▁拟订
▁但应
砥
男子
内外
▁再者
遨
锈蚀
▁互动式
农业
▁其能
荆棘
▁请别
维艰
班子
永祥
▁立法机构
▁送祝福
裳
反映
▁邮戳
蟠
▁之二
角色
▁监督机构
外交
▁从何
▁再涨
一样
▁枪案
▁cho
▁重新分配
为一
▁跨部门
犸
货币
谏
▁杀虫
会谈
保证
▁双性恋
俱全
铿
进行
噶
▁理所
▁严处
▁中办
垡
季度
▁政治性
婊
信任
約
▁现金流量
▁预支
膘
半球
▁533
▁687
▁文化名
重视
onews
▁党的
de
▁密西
▁马其顿
▁工作坊
帷
▁论据
▁马耳他
▁逮捕令
浦东
夭夭
μ
▁衔
▁np
枞
▁mas
▁沦
日元
氛
▁正规化
▁论点
▁荒漠
▁卢旺达
▁价改
确定
▁开豪车
▁比勒
徵
小吃
大钱
树林
▁铺平
▁963
▁互补性
▁明令
拌匀
▁尼日尔
濑
怎样
撷
聚会
▁社会工作者
▁排外
洒洒
▁五部
▁会变
變
麼
明珠
▁联发
这
甭
哪
▁近一
▁翻天
▁say
mi
铧
▁全球战略
頭
▁各项规定
▁保障人权
▁英女王
膦
缇
▁大本
杏兒
▁加德
監
璟
▁各部
为止
▁扎伊
▁撞人
▁参与权
俾
妈妈
嘻
▁因雾
▁esp
▁内乱
▁防毒
▁数据交换
▁法典
▁中下
发行
▁中低
攘
虱
▁好战
瓤
親
眯
▁投标人
生态
報
界面
▁本体
癞蛤蟆
▁建立联系
垠
▁僵
▁排长
▁埃弗
矛
▁资料库
▁迷局
▁认捐
俞
活力
邝
▁航天飞机
枫韵
❿
交换
▁中国农业
▁古寺
谕
←
改造
▁离心
咚
▁格格
腰包
之不
贯彻
▁纳米比亚
鄂
艮
▁洪都
孱
▁划界
▁审问
▁mer
▁被弃
▁一枝
▁卡塔
▁不能容忍
▁行为人
▁女士们
犒
儆
榛
▁受训
喃
吉尔
➐
咦
▁惹祸
灵通
▁刀锋
▁混蛋
▁矿床
解放
就业
▁进击
乐部
▁裸身
▁结核
▁百慕大
▁七宗
▁闪闪
台办
▁究其
▁受宠
成立
▁法学家
藿
蔼
▁议定书
囿
▁日增
封闭
▁各种因素
莱德
火锅
▁薯
▁协力
▁性虐待
▁贫困线
匍匐
牡蛎
▁我该
▁少数几
宙
喇
疮痍
沏
▁全球定位系统
卡罗
普林
阑
isc
槎
歉
▁北美洲
▁成见
▁小队
▁过劳
▁亚特兰
蓓蓓
▁备有
走势
提琴
调查者
▁或现
铠
蕙
▁起重
產
岙
▁因特网
▁花园里
争议
▁巴西政府
▁留美
▁干部子
ez
▁共产
▁哈拉
▁参与率
▁新生力量
储备
觀眾
▁感谢您
▁纪事
▁第二十五
▁扫雷
赤字
▁减贫
鍾
▁判例
崆峒
协商
罍
拈
▁一图
鞘
过渡
荀
▁禁飞
▁写信给
▁偷运
▁囚徒
ous
▁恶毒
讨论
烷胺
▁不绝
▁饲
▁1540
钴
ы
柠
▁举出
處
尼迪
倦怠
▁团结一致
奎屯
▁每星期
▁仇视
条约
從
财政部
▁布伦
iam
▁世界市场
▁粗鲁
兵团
節
全会
推出
▁贩运
顾问
中区
成分
▁基本原理
▁南非政府
叻
▁校正
媒介
决心
▁破产法
抖擞
文物局
龚瑛
▁特稿
倩倩
▁na
惊现
笨拙
绒衫
▁酵
执照
▁克洛
▁主产
▁分析方法
▁族人
▁pal
▁尼科
▁脆弱性
▁千岛
▁增近
▁发言稿
位素
卫者
▁百分
▁未付
▁核燃料
▁所剩
▁政治犯
孳
▁依法治
▁求解
金龙
吟诵
▁成绵
▁创业精神
▁同班
str
篱
▁隔离区
贰
▁载荷
機
引擎
哩
秃秃
搪
期刊
▁输油
淅
哋
暄
▁阿拉伯语
▁固定翼
江山
▁优缺点
眾
▁双轨
武装
忍受
▁撤军
▁东正教
糠
▁短篇
▁裁量
踌躇
勒斯
幾
惘
鳙
▁车臣
懑
惰
▁机床
▁优先权
▁钱袋
所未
自动
▁衍
婕
蕲
受贿
▁托克
戍
▁大埔
硕士
▁股长
支书
store
▁中应
▁说些
防长
比特
鼾
▁偷钱
铅
物资
▁抗辩
膜炎
▁双休
蒋
▁失踪案
锲
▁大学女生
在线
镀锌
▁dav
▁十二个
热议
▁菲利
▁长处
▁对系统
彻斯特
▁外交人员
▁目标群体
瘠
稅
▁公共信息
▁迫击炮
捱
▁入学率
傈僳
▁织物
登记
悯
▁内罗
解放军
▁十字架
濛
▁临时政府
▁赖以
阚
▁统计资料
绢
▁五花
▁密苏里
馁
髋
霏
▁英语口语
呜
▁王亚
▁通盘
崧
算法
戳
祐
▁记录在案
▁令人信服
疱
砧
▁会议记录
思危
▁预选
▁文盲
▁辐
▁敌军
▁奥林匹
▁屡见
▁朱明
▁该组
咧咧
差异
良好
瞰
▁详细资料
▁神题
塾
▁坠河
狰狞
wa
▁ll
了之
▁军备竞赛
输出
▁该司
wc
▁分界
▁简而言之
学历
▁周大
收益
▁现况
▁陪审员
嘟
▁新西
▁提供援助
▁审评
▁发源
▁水坝
師
卑鄙
▁双边合作
骰
胯
▁年届
揭
耶斯
嗷嗷
▁中国足
▁精神分裂
表示
▁ali
试验
独秀
监测
▁举证责任
运作
▁休斯
▁加以解决
▁mat
▁飞离
▁不知所
国忠
▁周其仁
领域
▁受控
▁兰亭
▁介意
▁有生
▁共青
▁维护者
之际
}
ira
快餐
栉
六级
▁kar
呋喃
看来
啫喱
占有
访友
镣
蟾蜍
▁埃塞
蠡
漏洞
▁或于
▁证明文件
列车
恣
贬
嗒
唇腭
▁ni
▁惯常
▁神经网络
躲
▁张德
姝
隧
通报
▁升涨
▁女同
▁连贯
▁马卡
检察院
▁萨尔瓦多
▁独生子
义词
竞技
国集团
▁国开
楠楠
記
▁巴勒斯坦人
▁阿拉伯联合
发票
苋
哎呀
雯婕
桎梏
免权
廣
▁各阶层
职责
▁特罗
寓
▁淡淡
▁外聘
仄
陟
▁调往
而下
▁编入
▁谓
▁基督徒
▁注释
恆
司机
瘴
▁铜仁
埌
▁害虫
{
奶奶
虏
俚
▁加利
▁任重
▁纽约联合国总部
出版
▁兵役
▁李连
▁卓有成效
▁各司
蔓
箕
▁李书
▁污名
桢
八年
无二
身份
▁抢银行
▁同意书
当然
金山
▁各项措施
尔尼
▁英媒称
▁马里兰
▁大体上
个月
▁伊万诺
▁lin
▁对话框
嵊
骛
▁http
啖
壮大
▁制图
彷
隻
谋长
相反
芭堤
▁道外
荨
耦
▁ur
峥嵘
▁均等
楹
▁表征
兮兮
有关
歆
狡
雷锋
碍
▁社会群体
▁教派
▁前段
黏稠
跷跷
▁成文
极了
瑟薇
▁遭强奸
层次
▁无关紧要
▁出新规
▁作出反应
▁朝日
▁瓦利
胁
▁特朗
层浪
▁译成
選
军方
比分
咁
▁变电
昇
臊
▁李彦
▁车号
▁侧重点
▁会话
冢
▁第十八
▁该死
▁拉特
obe
垴
amm
▁白鹿
碣
不容易
▁aw
舫
侦查
掸
傀儡
陸
▁cop
克朗
腓
▁辛辛
▁ins
▁mak
秃鹫
马路
尔巴
東
▁使团
发现
樑
▁伙计
の
荏苒
讚
红旗
車
本上
▁常任
崔
▁自闭
卡拉
◆
波罗
▁bo
中山
嘀咕
▁亚利桑
▁管理工具
▁最终用户
榉
▁民主选举
▁一夫多妻制
漪
▁备灾
達
▁辩方
扪
▁淀
▁消保
▁真诚地
▁生意经
太阳
红包
▁列明
atch
▁空间科学
▁波多黎各
▁麦肯
▁泰迪
俊峰
▁巧用
▁中北
▁权能
岗位
弓弩
▁牛刀
☞
恤
軍
竞赛
▁监督制度
▁ind
▁努力争取
▁和善
▁门徒
▁译文
佐藤
女友
燃料
▁拦路
▁诺曼
▁比比
孬
▁斯皮
戰
▁联合国总部
時間
此事
诉法
▁驰名
▁表中
堽
锻炼
▁供其
烯烃
▁康乐
格兰
▁奖赏
▁撰稿
铵
▁已使
▁苏维埃
自治
锑
谯
▁以假
嘻嘻
▁流行病
巍峨
▁副县
咣
寅恪
攻击
痤疮
▁位移
▁一章
动向
珊珊
福利
ida
▁罗德里
可见
啤酒
穎
▁肥沃
癸巳
豉
规则
潸
▁笑傲
动车
隼
璐璐
▁生命权
▁主管机构
▁中国教育
▁供参考
▁彻底消除
筱
▁日刊
平等
▁自力
▁行政法
铯
官员
▁吴永
▁仁慈
▁延寿
▁联署
▁竭
▁嘉陵
▁1325
▁张贵
▁北欧国家
÷
遗憾
丽莎
嬅
愚昧
▁年涨
▁电视电话
▁签定
叮咚
▁joh
▁国际公约
晤
▁挖眼
▁第二十届
▁哈马
娭
毑
▁第十六
熠
公告
復
地利
烟草
姗
骊
▁贯
嵊泗
利民
▁sir
茜茜
▁国际原子能机构
▁递解
倌
蜈蚣
铩
醚
玻
蜥
▁第二节
篮球
箩筐
擎
幺
▁地层
▁耕作
▁张亚
▁拟出
嗎
▁后成
▁军事法庭
▁独联体
朝鲜
鲑
▁叛
▁再谈
▁催热
▁ram
▁图说
▁符合国际
布什
▁宵禁
总额
仟
▁场址
▁净亏
赣榆
▁山脚
攸关
▁生二
▁有鉴于此
袅袅
书记
簋
▁屡禁
▁伊比
澤
▁借调
▁du
策划
士顿
▁刑满
华山
▁概要
▁千美元
▁参加国
遐迩
▁凯迪
操作系统
研究中心
▁以利
职权
▁表示同意
泾渭
砸
▁十六届
▁流离失所
黨
▁数学模型
人类
邓
域网
▁发疯
ч
▁缔
▁书面形式
顺利
莱坞
▁第五条
▁才干
▁巴勒
谌
男女
▁立法者
绫
▁布基纳法索
稱
说来
▁凶杀
▁军事装备
诘
杏鲍菇
▁仲裁庭
▁官房
▁恐袭
朝阳
绌
效力
塬
eh
▁参见
失所
轨电车
▁采石
羡煞
據
汰
業
▁消极影响
▁刑事法庭
▁权钱
▁明起
▁易受
▁无礼
认为
▁rq
难度
▁移民法
▁刘云
une
▁圣马力诺
▁维护和平
法西斯
焙
▁想得
酰氨
斛
体字
啻
▁独立国家
幄
呻吟
癀
▁goo
角度
布斯
芪
娄
▁雪佛
盂
∞
▁一瞬
砂壶
▁通报情况
胜地
鹄
矜
▁善治
嘹
ova
▁李河
蔷薇
佗
纰
▁非暴力
锭
五十
▁在此之
問
建议
▁再增
命运
彭
管制
▁科学知识
零零
歡
▁拳打
▁起征
▁贝尔格莱德
准则
▁会议厅
▁使该
鄭
创新高
▁作贡献
▁抢筹
▁检查员
▁审案
▁阿布贾
▁穷国
道远
住行
如一
分割
日期
突破
可为
伦斯
缔
▁棚户
亞
怖
▁以权
醫
請
行政
缎
▁八达
▁人财
氢钠
碜
並
咕
咚咚
▁及时性
▁证明书
▁尼罗
内塔
▁分析表明
使命
泠
▁圆明
莴笋
▁第十九届
▁信用证
垵
▁措
碴
▁不致
▁蒙特利
▁求偿
八条
▁主教
▲
怜悯
务院
給
▁kk
镣铐
▁跌回
▁旅费
秆
佝偻
√
黜
满面
嗡嗡
▁肢
凿凿
贲
▁裁军
▁北大西洋
霰
▁__
▁克什米尔
▁称遭
信念
丕
▁大不列颠
▁开罚
▁政治局势
▁归档
▁塔里
例外
喋喋
讥
伫
謙
謝
▁令人鼓舞
魁梧
啲
嵘
技能
▁短语
舆
▁杨剑
潟
茌
▁借以
锺
惆怅
▁一夫多妻
帐户
襄汾
珞珈
政富
氙
▁san
▁导则
揖
▁到此
▁受热
▁麦凯恩
▁世界气象组织
不决
戕
▁重灾
分布
自治区
▁规例
▁不经
▁求助于
▁壮士
▁相互依
▁系统管理
鸨
▁艾哈迈
▁朝鲜民主主义人民共和国
▁非正规
南京
▁阿比
天鹅
▁赋权
耙
▁国防军
調
▁第十七
晶晶
▁预算编制
航天
屏幕
▁区域间
難
▁无臂
▁无遗
▁海洋资源
擔
殺
统计
▁inf
熹
蚵
▁启示录
▁第六条
▁技术咨询
▁贸易中心
信贷
▁打火
▁火影
翡
▁课税
▁此一
▁序言
强调
▁阿巴斯
凛
▁多云转
困境
▁显微
不止
格丽
高涨
麗
上升
▁亿建
≠
➑
▁史密
杈
水利
▁切合
≈
铉
▁ber
▁第二十六
娼
▁健康权
伉俪
▁事务处
▁cat
工会
峁
▁贸易壁
▁协管
▁阵线
菲尔铁塔
▁加勒比地区
▁推导
樣
濉
▁年龄组
▁可刷
恳恳
▁未决
▁司法独立
▁民防
傷
泮
▁联合国环境规划署
涅佐
的话
梳
數
房子
▁拖拉
萨斯
之门
褶
自己
浊漳
尼亚州
▁但须
▁don
mini
书记处
大使
▁中轴
沾沾
佻
▁可拨
▁滥杀
陛
恸
柞
▁欧洲联盟
莘莘
訴
強
▁蔓
事会
妍妍
問題
痢
▁萨摩
哆嗦
娑
祷
猗
▁不足之处
驾驶
▁明码
▁年花
聿
»
▁稻香
▁内华
▁伊拉克政府
▁参与性
▁bank
`
肃纪
▁紧急措施
多利亚
窈窕
最佳
▁电阻
▁只字
▁服兵役
咳咳
营销
秤砣
光远
舉
連
▁校准
鲳
▁del
经历
辕
褶皱
觐
▁张瑞
▁慰安
▁岛民
▁搜词
之又
戊
得主
共产党
毽
噤
埇
里南
钰莹
▁国际法庭
畈
▁神父
埼
猜
垟
▁登记处
▁中老
皎
▁劳动报
▁王宗
遏
▁英联邦
第二
▁规管
▁撤消
▁牲
▁房展
▁开福
▁俗话
▁wg
局势
▁第二十四
▁程序性
kh
揩
叁
重来
▁时数
▁世界贸易
蟋蟀
▁专题讨论
▁促请
▁公吨
▁per
▁王思
太平洋
▁荒漠化
號
晦涩
媞
▁俄勒冈
颧
命令
響
蓦
▁亚伯
±
一新
▁邓正
▁动动
▁分庭
删
荠
▁疫
種
▁经济援助
á
恋爱
▁员额
▁nas
▁下表
吃喝
党组
▁桑德
▁辱
婀
▁加泰
拋
▁减损
▁表演艺术
鹫
垅
不敢
▁第三世界
佐佐
▁名册
▁未缴
浃
▁助益
嵇
墒
▁卫生保健
▁承运人
鲁能
杉矶
▁陪审
医药
▁协调会议
繁荣
桅
暌
▁北朝鲜
富翁
无损
必要
而去
▁这年
▁紫外
嘢
▁陆家
大利亚
涓
栀
投票
怦
鼋
璜
价廉
▁小册子
叛
▁学龄
▁性犯罪
天地
女生
颉
▁选举权
教养
砭
馍馍
加利
疝
疱疹
▽
伶俐
垭
噌
辘辘
簽
面具
ala
▁百视
淝
徳
▁印第安人
▁联合国儿童基金会
嬗
磕磕绊绊
▁阿鲁
完整
垄
▁各具
▁承包人
宦
蒗
▁牧羊
蹚
▁阿姆
聲
▁载明
▁训练有素
è
菡
▁那座
▁他妈的
▁吉布提
▁特立尼达和多巴哥
▁两重
痧
游行
▁独立宣言
锗
▁挺身
粮食
一世
▁持久性
君子
媺
▁协调一致
ali
▁亚美尼亚
▁俄文
斩钉
▁非军事
谈判
哑铃
lan
▁就座
鹦
▁导火
▁美利坚
解释
纷呈
生存
雒
妤
僭
蹩
▁该科
畀
▁精算师
化合物
▁全面性
龙潭
铰
政法大学
蝠
闾
▁巴比
▁sur
▁je
汇报
▁否决权
▁三文
珐琅
▁黄光
▁摩西
○
藝
邯
奕奕
盅
裝
巍巍
理性
▁同工
紅
铠霖
▁悉
跋扈
隘
▁工业界
▁质量保证
荪
苕
搬
▁阿卜杜勒
簇簇
腱鞘
▁和平利用
惭
项链
继伟
oday
▁因地
菲特
▁青年党
▁巴格
則
砂浆
▁红谷
▁组在
啮
▁西雅
維
▁运输系统
區
百科
▁松花
桐梓
翊
主教
▁下定
▁五道
泷
可图
洛普
▁容积
▁拟设
▁北戴
陌
无效
批示
▁联合王国
離
绮贞
嫉
買
▁联络处
蒲娟
▁国新
出境
圈子
忒
羸
芡
▁南斯拉夫
蟾
圳
▁李旭
稔
易事
▁给定
▁第三款
龟苓膏
[...]
